<unk>	0
<s>	0
</s>	0
.	-2.57917
,	-3.74411
▁	-3.93413
을	-3.97608
를	-4.46986
의	-4.50569
?	-4.63306
는	-4.63841
가	-4.89985
은	-4.94469
▁the	-4.98984
이	-5.00137
▁수	-5.02505
에	-5.11006
▁있습니다	-5.16332
s	-5.22727
한	-5.28599
도	-5.30685
▁to	-5.32947
▁I	-5.33534
'	-5.34572
▁a	-5.51107
▁you	-5.54763
입니다	-5.63638
로	-5.65768
고	-5.71685
으로	-5.75539
and	-5.77053
▁저희	-5.77824
▁이	-5.78645
▁of	-5.8439
할	-5.85994
▁is	-5.89943
▁it	-5.90539
과	-5.94316
지	-6.09504
합니다	-6.10184
ing	-6.14933
▁in	-6.18145
▁것	-6.18598
▁for	-6.24222
와	-6.24304
▁있는	-6.24688
▁네	-6.25442
에서	-6.26736
▁BBB	-6.27489
▁제품	-6.31966
하고	-6.3219
!	-6.38718
▁that	-6.39993
▁더	-6.40551
▁FFF	-6.4351
▁AAA	-6.4364
▁합니다	-6.47704
▁can	-6.50041
게	-6.52708
서	-6.52765
▁그	-6.53224
-	-6.57272
만	-6.59305
요	-6.59559
습니다	-6.60098
▁be	-6.61267
▁아	-6.61904
t	-6.61919
▁한	-6.63618
하는	-6.64126
▁your	-6.6709
하게	-6.6805
▁회사	-6.68583
▁그리고	-6.68704
▁are	-6.6938
▁with	-6.69633
ed	-6.70569
▁안	-6.70614
▁have	-6.71395
▁It	-6.76323
▁we	-6.77593
▁잘	-6.77765
된	-6.78033
인	-6.78882
히	-6.82243
▁will	-6.83174
▁지금	-6.84326
▁We	-6.85814
면	-6.8625
▁저는	-6.87566
▁1	-6.88409
▁바랍니다	-6.88827
일	-6.8918
▁위해	-6.89377
▁this	-6.89754
▁대한	-6.9079
▁제가	-6.91463
▁대해	-6.91719
▁것입니다	-6.93358
▁다른	-6.93855
기	-6.93865
▁3	-6.94578
했습니다	-6.95006
▁연락	-6.95274
나	-6.96215
▁할	-6.97191
1	-6.98506
▁다	-7.00504
▁때	-7.00901
▁저희는	-7.02661
▁on	-7.02661
▁The	-7.02924
▁및	-7.03294
▁우리	-7.04008
▁2	-7.04196
m	-7.048
▁너무	-7.04837
▁또한	-7.05287
▁해	-7.05993
▁모든	-7.06014
▁our	-7.06296
▁우리는	-7.07844
▁좋은	-7.09074
자	-7.10199
~	-7.1061
▁so	-7.10667
해	-7.11194
▁저희가	-7.11587
▁나는	-7.11883
▁당신	-7.14234
하여	-7.14274
▁귀사	-7.14603
▁많이	-7.15108
d	-7.16101
다	-7.16807
▁주문	-7.17337
▁좀	-7.17696
▁그래서	-7.18064
▁진짜	-7.18698
▁귀하	-7.19017
▁것을	-7.19035
n	-7.19558
▁문제	-7.20355
▁많은	-7.20372
▁as	-7.21547
e	-7.2359
▁이렇게	-7.24121
▁like	-7.24817
야	-7.25853
▁주	-7.26117
▁나	-7.26136
▁됩니다	-7.27557
▁함께	-7.28145
▁그런데	-7.28168
▁내	-7.28368
▁때문에	-7.28618
까지	-7.28732
▁오	-7.29058
▁제	-7.29539
▁감사합니다	-7.29957
▁사용	-7.30936
▁정말	-7.30951
2	-7.32122
▁싶습니다	-7.32385
▁거	-7.33658
▁이거	-7.33683
▁You	-7.3459
됩니다	-7.34772
▁안녕하세요	-7.36031
▁매우	-7.36031
ly	-7.36191
▁어떻게	-7.36403
▁같습니다	-7.36415
▁company	-7.36777
니다	-7.36818
f	-7.37534
▁저	-7.37912
▁또	-7.38183
에게	-7.38431
▁제품은	-7.38486
▁가능합니다	-7.39491
적인	-7.39785
▁at	-7.4012
▁다시	-7.40567
주셔서	-7.41572
▁그럼	-7.42845
▁내가	-7.43034
▁me	-7.43282
▁메일	-7.43554
▁서비스	-7.43859
▁이번	-7.44241
▁아니	-7.44353
운	-7.44419
▁product	-7.44849
▁이제	-7.45597
▁등	-7.4572
▁야	-7.46771
if	-7.46951
▁현재	-7.46967
개	-7.47494
되어	-7.47615
▁어떤	-7.48281
▁5	-7.48307
▁an	-7.48669
▁것이	-7.4913
▁어	-7.49189
▁보내	-7.49567
시	-7.49907
▁한국	-7.50012
▁하지만	-7.50136
▁확인	-7.50235
▁10	-7.50354
▁시간	-7.50382
년	-7.51495
▁뭐	-7.52095
▁두	-7.52136
▁was	-7.52888
▁from	-7.55269
▁not	-7.5542
▁형	-7.55743
▁중	-7.57336
▁여기	-7.57512
▁바로	-7.58232
▁일	-7.58505
▁오늘	-7.58521
▁하는	-7.58882
▁될	-7.59833
▁있어	-7.60178
▁but	-7.60368
▁게	-7.60755
▁time	-7.60875
하기	-7.61318
▁몇	-7.61816
▁배송	-7.63169
▁다양	-7.63241
▁하나	-7.6364
by	-7.64047
▁혹시	-7.64249
▁가격	-7.64554
습니까	-7.64847
▁왜	-7.65081
▁상품	-7.65253
ll	-7.65535
▁경우	-7.66085
▁가장	-7.66251
▁그러면	-7.66293
▁하고	-7.66445
▁there	-7.67266
▁얼마	-7.68146
▁think	-7.68272
도록	-7.68766
▁about	-7.69305
▁has	-7.6931
하지	-7.69323
▁통해	-7.69619
y	-7.69736
▁후	-7.69992
용	-7.70536
▁문의	-7.70892
리	-7.71369
▁Yes	-7.71406
▁know	-7.71943
▁다음	-7.72194
▁전	-7.72298
▁also	-7.7355
▁all	-7.74555
▁or	-7.75156
▁모두	-7.75471
▁하겠습니다	-7.75632
▁us	-7.75753
▁알고	-7.75908
▁그것	-7.75971
▁do	-7.75975
▁같은	-7.76369
▁가지	-7.76634
▁없습니다	-7.76926
▁있을	-7.77826
실	-7.78229
▁기술	-7.79313
▁그들	-7.79445
▁추가	-7.79666
▁말	-7.79782
해서	-7.80517
하실	-7.80541
▁새로운	-7.80877
▁이게	-7.80915
▁주세요	-7.80989
▁위한	-7.81058
▁드립니다	-7.81384
▁그냥	-7.81444
▁right	-7.81459
▁데	-7.81761
▁my	-7.82032
▁큰	-7.82082
▁Thi	-7.82516
▁4	-7.82688
▁있어요	-7.82834
▁부탁드립니다	-7.83249
▁전에	-7.83966
▁고객	-7.84522
▁당사	-7.85109
▁한번	-7.85272
▁못	-7.85352
되었습니다	-7.86139
▁would	-7.86247
▁good	-7.8631
▁있	-7.86345
▁디자인	-7.86748
▁제작	-7.86885
라고	-7.87937
▁이런	-7.88199
적으로	-7.88535
부터	-7.886
▁보	-7.89129
▁진행	-7.89693
으면	-7.89742
들이	-7.9064
▁products	-7.91503
▁건	-7.91521
월	-7.91572
하겠습니다	-7.91599
▁와	-7.91862
▁그런	-7.91961
▁되어	-7.92141
re	-7.93122
▁알려	-7.93294
▁판매	-7.93567
▁이것	-7.93778
▁자	-7.93992
드립니다	-7.94487
▁구매	-7.94513
▁먼저	-7.94585
▁않습니다	-7.94668
▁번	-7.94736
▁원	-7.94804
▁이번에	-7.94942
▁정보	-7.95037
▁고객님	-7.95306
▁관심	-7.95783
▁계약	-7.95865
▁use	-7.96418
▁동안	-7.9704
▁want	-7.97174
▁생각	-7.97175
▁따라	-7.97179
보다	-7.97303
▁생산	-7.98014
▁제공합니다	-7.98083
▁있도록	-7.98734
▁회신	-7.98751
r	-7.99291
진	-7.99295
▁contact	-7.9938
▁빨리	-7.9938
▁시	-7.99985
▁가지고	-8.00265
▁있다	-8.00382
▁돼	-8.00462
▁빠른	-8.00794
▁How	-8.00802
▁말씀	-8.01011
▁기능	-8.0139
▁more	-8.01532
▁정도	-8.01641
▁please	-8.02227
▁그렇게	-8.02251
해야	-8.02342
겠습니다	-8.03285
▁그러나	-8.03713
▁거예요	-8.03715
▁있나요	-8.03726
될	-8.03797
▁회의	-8.03827
니	-8.03828
하였습니다	-8.04416
▁There	-8.04519
이나	-8.04846
▁우리가	-8.04965
▁좋습니다	-8.05158
▁직접	-8.05158
▁요청	-8.07372
▁거야	-8.07675
▁관련	-8.07693
어	-8.07729
▁예약	-8.08247
▁필요	-8.08258
▁가	-8.08325
▁A	-8.0847
▁계속	-8.09722
▁one	-8.10337
▁because	-8.10503
▁걸	-8.10526
하면	-8.10665
▁사용할	-8.1082
▁미	-8.10977
▁예	-8.11132
▁조금	-8.1114
▁사업	-8.11361
에는	-8.11698
▁소개	-8.1171
시길	-8.11762
▁That	-8.12084
▁이메일	-8.12381
▁아니라	-8.12416
▁줄	-8.12708
▁같이	-8.13007
▁가능한	-8.13491
▁같아요	-8.13752
▁make	-8.13853
▁씨	-8.1469
al	-8.14746
▁대해서	-8.15153
▁관리	-8.15251
▁Please	-8.15323
▁don	-8.15362
▁좋아	-8.156
▁아직	-8.16436
질	-8.16724
던	-8.16762
▁Oh	-8.16985
▁get	-8.17081
▁사	-8.17291
▁제품입니다	-8.17595
나요	-8.17978
▁이상	-8.18019
▁out	-8.1869
▁any	-8.18795
▁up	-8.18814
신	-8.19278
▁해외	-8.19479
드리겠습니다	-8.19549
very	-8.19648
▁재고	-8.19653
▁연구	-8.19865
▁거래	-8.20265
▁예정입니다	-8.21328
▁그러니까	-8.21349
▁하면	-8.21365
하려고	-8.21899
▁when	-8.22142
▁been	-8.22156
▁알겠습니다	-8.22163
▁따라서	-8.22329
▁개발	-8.2241
▁생각합니다	-8.22415
▁되었습니다	-8.23049
▁일정	-8.23094
▁귀하께서	-8.23095
▁order	-8.23246
▁new	-8.23335
▁제품에	-8.23373
주십시오	-8.23642
ve	-8.23848
▁없이	-8.23964
▁도움이	-8.24665
죠	-8.24718
세요	-8.24747
▁So	-8.25472
▁What	-8.25722
▁In	-8.25878
주	-8.26451
▁드리겠습니다	-8.26809
▁really	-8.27582
▁감사드립니다	-8.27594
▁당신이	-8.27778
▁너	-8.28138
▁지난	-8.28228
▁여러분	-8.28253
분	-8.28263
▁OK	-8.28512
▁미팅	-8.28647
▁시간이	-8.28733
들	-8.28858
▁이러	-8.29376
▁점	-8.2943
▁did	-8.2945
▁세	-8.30011
▁필요한	-8.30043
▁죄송합니다	-8.30247
▁항상	-8.30396
▁제품이	-8.30575
▁있을까요	-8.31426
▁그래	-8.31497
▁품질	-8.31546
▁제안	-8.31608
길	-8.31888
▁약	-8.32007
▁S	-8.32014
▁보고	-8.32071
▁준비	-8.32115
▁더욱	-8.3233
▁데이터	-8.32396
)	-8.32694
▁되는	-8.32814
▁first	-8.33309
▁있는지	-8.33355
▁사실	-8.33617
▁것으로	-8.33656
▁수도	-8.33961
▁이미	-8.3397
▁내용	-8.34172
▁마	-8.34449
▁no	-8.34677
▁방문	-8.3536
▁샘플	-8.35375
▁겁니다	-8.35448
▁볼	-8.35505
▁주시면	-8.35606
에도	-8.36145
▁그렇지	-8.36187
▁send	-8.36312
▁뭐야	-8.36472
▁여러	-8.36638
▁없는	-8.37066
▁최고	-8.37245
▁언제든	-8.37342
▁우리의	-8.37429
대	-8.37724
네요	-8.37827
▁them	-8.3826
▁쉽게	-8.38371
▁사항	-8.38509
▁음식	-8.39406
▁No	-8.39538
이라고	-8.39552
는데	-8.39689
사	-8.3969
▁호텔	-8.39783
▁회사에서	-8.39958
▁있기	-8.40112
거나	-8.4042
▁help	-8.40469
시간	-8.40538
▁7	-8.40569
▁물론	-8.4078
▁답변	-8.40781
▁일이	-8.41026
▁이용	-8.41111
하도록	-8.41349
▁just	-8.41519
▁총	-8.41607
\\\	-8.41685
하시면	-8.42034
▁시스템	-8.42117
▁있어서	-8.4213
▁주시기	-8.42331
▁물	-8.42521
▁take	-8.42594
▁now	-8.42611
▁who	-8.42615
네	-8.42616
▁방법	-8.42712
▁아니야	-8.42782
▁사람	-8.42789
▁6	-8.4367
▁possible	-8.4368
▁much	-8.4368
▁And	-8.43693
▁30	-8.44222
▁other	-8.44233
▁최대	-8.44269
▁해야	-8.44781
▁만약	-8.44781
▁언제	-8.44885
▁일단	-8.45166
▁알	-8.45536
▁선생님	-8.45667
▁자세	-8.45947
▁going	-8.46081
▁처리	-8.46124
▁well	-8.46156
▁감사	-8.46178
▁am	-8.46488
▁상황	-8.46525
하세요	-8.46763
▁business	-8.46993
▁우와	-8.47075
▁need	-8.47471
▁Thank	-8.47596
▁않	-8.4784
형	-8.48113
▁what	-8.4815
▁But	-8.48157
▁약간	-8.48166
▁소재	-8.48188
▁해당	-8.48208
▁work	-8.48544
▁차	-8.48785
▁할인	-8.48801
▁20	-8.49296
랑	-8.49314
▁확인해	-8.49385
▁없	-8.49467
▁they	-8.49653
▁비	-8.49719
▁\\\	-8.5024
기를	-8.50258
▁two	-8.50462
▁시작	-8.50574
성	-8.50704
▁맛	-8.50857
▁저희에게	-8.51417
▁딱	-8.51639
▁than	-8.51647
▁있고	-8.51724
▁price	-8.52265
▁사항이	-8.52418
▁부분	-8.52768
▁친애하는	-8.52829
▁특히	-8.52829
▁made	-8.52914
▁일부	-8.52996
▁사진	-8.53015
▁봐	-8.53161
▁협력	-8.53219
▁지원	-8.53539
▁피부	-8.53747
▁본	-8.53827
▁받	-8.54024
able	-8.5406
▁how	-8.54095
▁종류	-8.54096
▁막	-8.54125
▁100	-8.54132
▁앞으로	-8.54179
라	-8.54198
▁높은	-8.54498
▁check	-8.55043
/	-8.5515
달러	-8.55254
▁lot	-8.55281
▁기업	-8.55304
▁meeting	-8.55347
▁인해	-8.55381
▁포함	-8.55424
▁안전	-8.55489
▁집	-8.55601
시면	-8.55643
▁개	-8.55971
▁온라인	-8.56131
▁아무	-8.56415
▁꼭	-8.56488
▁people	-8.56489
ever	-8.56729
▁only	-8.56785
▁go	-8.56957
▁작업	-8.57054
라는	-8.57103
▁he	-8.57306
▁설치	-8.57455
▁내일	-8.57684
되는	-8.57708
▁색상	-8.5779
▁신제품	-8.57817
▁아주	-8.5796
▁계획	-8.58273
er	-8.58392
번	-8.58429
▁12	-8.58455
▁각	-8.58588
▁첨부	-8.58831
▁지불	-8.5886
▁우선	-8.58923
▁연결	-8.59199
▁바	-8.59285
▁장비	-8.59375
니까	-8.59523
들은	-8.59837
▁결과	-8.60058
▁Korea	-8.6021
▁기다리	-8.60277
▁무슨	-8.60287
were	-8.60294
▁high	-8.60296
▁있었습니다	-8.60357
▁손	-8.60434
▁부	-8.60443
▁too	-8.60456
▁저에게	-8.60499
었습니다	-8.60651
▁지	-8.60781
▁세계	-8.60871
처럼	-8.61073
▁환불	-8.61317
▁하	-8.61425
▁많	-8.61435
수	-8.61477
▁그게	-8.61537
이에요	-8.61669
며	-8.61712
▁대	-8.61728
스	-8.61734
▁시장	-8.61747
▁있다는	-8.62111
(	-8.62249
▁출시	-8.62382
▁8	-8.62449
까요	-8.62519
▁기회	-8.62539
이야	-8.62627
▁D	-8.62639
▁전화	-8.62668
▁should	-8.62871
▁있으면	-8.62993
▁over	-8.63042
▁공급	-8.63042
▁look	-8.63462
▁최대한	-8.63515
인데	-8.63733
3	-8.63741
울	-8.64238
▁있으시면	-8.64245
▁분	-8.64435
▁건강	-8.64715
▁안에	-8.64862
▁따	-8.64894
▁설정	-8.64961
▁달	-8.65053
▁노력	-8.65165
▁했습니다	-8.65271
▁변경	-8.65339
▁인기	-8.65362
씨	-8.65441
▁정확	-8.65524
▁번째	-8.6558
▁살	-8.6559
▁부동산	-8.65626
▁here	-8.6564
장	-8.65661
하신	-8.65763
▁부탁	-8.65991
es	-8.65997
▁것이다	-8.66043
▁그것을	-8.66119
이다	-8.66228
들을	-8.66256
▁이야	-8.66303
줍니다	-8.66376
▁선택	-8.66488
▁이유	-8.66665
▁투자	-8.66681
▁next	-8.66955
▁let	-8.67027
▁제조	-8.67572
▁설명	-8.67602
▁사람들	-8.67659
th	-8.67752
점	-8.67874
지만	-8.68085
▁see	-8.6809
▁보호	-8.68217
명	-8.68253
▁첫	-8.68322
▁어제	-8.68389
▁게임	-8.68717
▁입니다	-8.69004
▁때문입니다	-8.69797
▁미국	-8.69817
인가요	-8.69869
▁받아	-8.70021
▁기존	-8.70154
▁저도	-8.70202
▁분들	-8.70618
▁경험	-8.70874
▁맞아	-8.70939
▁새	-8.71052
▁비용	-8.71326
▁long	-8.71372
▁날	-8.714
▁원하는	-8.71446
▁구성	-8.72442
▁고	-8.72477
▁프로젝트	-8.72524
▁again	-8.7263
▁될까요	-8.72777
▁도착	-8.72841
▁come	-8.7285
▁E	-8.72893
▁customers	-8.72896
▁used	-8.73116
▁사고	-8.73223
▁브랜드	-8.73251
▁오빠	-8.73322
▁자동	-8.73599
▁직원	-8.7361
▁처음	-8.73726
▁적용	-8.73946
▁소프트웨어	-8.74215
▁사이즈	-8.74294
▁않고	-8.74546
주시면	-8.74648
▁As	-8.74688
▁결제	-8.74787
▁Ou	-8.74883
▁상태	-8.75073
▁해서	-8.75129
▁결정	-8.75137
▁얘기	-8.75453
▁개인	-8.75564
▁after	-8.75751
▁걱정	-8.75777
까	-8.75849
▁이야기	-8.76071
아	-8.76317
▁구	-8.76546
▁받을	-8.7661
▁하지	-8.76671
▁15	-8.76861
▁주신	-8.76881
▁day	-8.76888
▁기쁩니다	-8.77109
▁진심	-8.77114
입니까	-8.77118
▁기	-8.77175
▁배터리	-8.77216
▁He	-8.77452
▁드릴	-8.7749
▁오후	-8.77603
차	-8.77774
▁있게	-8.77806
▁온	-8.77865
▁불편	-8.77966
▁위치	-8.77987
▁한국에서	-8.78324
▁오래	-8.78453
비	-8.78611
▁그렇죠	-8.7865
▁provide	-8.78676
▁제공	-8.78724
치	-8.78924
▁필요합니다	-8.7909
▁것도	-8.79101
▁된	-8.79126
▁있다고	-8.79262
▁되	-8.79312
▁장치	-8.7937
▁맞	-8.79449
▁나와	-8.79473
▁하는데	-8.79601
▁week	-8.79651
▁위해서	-8.79709
▁효과	-8.79824
난	-8.79861
상	-8.80188
▁last	-8.8021
▁곧	-8.80227
▁does	-8.80261
▁soon	-8.80292
▁식사	-8.8033
개의	-8.80389
▁좋아요	-8.80466
원	-8.80503
▁드리고	-8.80684
소	-8.80779
릴	-8.8139
▁무	-8.81647
▁좋겠습니다	-8.81818
▁소개해	-8.81942
▁9	-8.81986
▁e	-8.81992
▁Then	-8.82251
▁최근	-8.82279
▁하루	-8.82389
▁수량	-8.82422
▁50	-8.82545
▁둘	-8.82557
▁관	-8.82648
▁금액	-8.8289
▁만	-8.83182
가요	-8.83277
▁Wow	-8.8341
▁비즈니스	-8.83428
▁있는데	-8.83531
▁거의	-8.83538
many	-8.83601
▁광고	-8.83613
데	-8.83642
▁편	-8.83762
▁받았습니다	-8.83873
▁반	-8.83968
다는	-8.84024
▁만나	-8.84284
▁타	-8.84726
▁후에	-8.84856
▁들었습니다	-8.85067
▁찾	-8.85192
▁업무	-8.8524
▁도움	-8.85321
▁새로	-8.85395
다고	-8.85423
▁기계	-8.85508
식	-8.85579
▁도와	-8.85657
▁강	-8.8577
든	-8.85822
▁중요한	-8.8586
냅	-8.85996
▁조절	-8.86231
잖아요	-8.86265
긴	-8.86322
▁ask	-8.86411
▁발전	-8.86591
▁요즘	-8.86673
▁즉	-8.86725
▁won	-8.86736
▁논의	-8.86831
▁카메라	-8.86833
▁없어요	-8.86834
▁기대	-8.86904
▁방	-8.8694
주세요	-8.86962
▁사용하여	-8.87132
면서	-8.87141
▁되지	-8.87199
▁원래	-8.87337
▁공간	-8.87441
거든요	-8.87454
한테	-8.87958
▁even	-8.87978
▁year	-8.88021
▁중에	-8.88087
▁있겠습니다	-8.8852
▁Do	-8.88583
▁신	-8.88775
▁돼요	-8.8879
적	-8.88795
▁인	-8.88973
▁양	-8.89051
▁컴퓨터	-8.89265
▁열	-8.89304
▁design	-8.89535
▁보관	-8.89757
러	-8.89837
▁Is	-8.8996
▁스마트	-8.9018
▁위	-8.90358
▁있다면	-8.90425
당	-8.90859
님	-8.91236
▁place	-8.91243
▁카탈로그	-8.91482
대로	-8.91529
▁같아	-8.91604
▁납품	-8.91643
▁좋을	-8.91889
▁완전	-8.9189
▁날짜	-8.9189
▁information	-8.91912
▁되게	-8.92076
간	-8.92167
▁곳	-8.92576
▁줍니다	-8.92637
▁가격이	-8.92848
▁누구	-8.92929
▁요구	-8.93108
▁기준	-8.9377
▁완벽	-8.93788
▁마음	-8.938
▁모델	-8.93825
▁추천	-8.93911
▁They	-8.93982
▁예상	-8.94202
▁days	-8.94318
ous	-8.9433
▁유지	-8.94415
▁회사에	-8.94531
▁않을	-8.9489
▁service	-8.94945
▁그거	-8.94952
▁through	-8.95493
▁could	-8.95493
▁different	-8.95493
▁대량	-8.95501
▁contract	-8.95502
▁give	-8.95523
인지	-8.9554
▁성공	-8.95547
▁보내드리겠습니다	-8.95621
▁이건	-8.95663
▁전문	-8.95806
일에	-8.96112
▁취소	-8.96136
▁않은	-8.96257
로부터	-8.96261
▁지역	-8.96354
▁여행	-8.96454
out	-8.9657
▁검사	-8.9669
▁귀사와	-8.96694
드	-8.96932
▁같은데	-8.97256
▁un	-8.97283
▁number	-8.97345
▁작성	-8.97351
▁Hello	-8.97366
▁옵션	-8.97403
개월	-8.97728
▁사용자	-8.97856
▁높	-8.97991
져	-8.98053
▁du	-8.98117
▁마케팅	-8.98162
▁음	-8.98182
주신	-8.98385
하면서	-8.98684
▁포장	-8.98863
예요	-8.98891
▁자료	-8.98919
▁원하시는	-8.99005
▁아이	-8.99009
▁뛰어	-8.99142
▁buy	-8.99229
▁three	-8.99233
▁일주일	-8.9924
▁있으며	-8.99245
▁충분	-8.99319
▁맞아요	-8.99412
▁만들어	-8.99427
▁들어	-8.99774
했던	-8.99787
▁않는	-8.99837
st	-9.00167
▁보세요	-9.00201
▁이해	-9.0042
▁크기	-9.00468
▁설계	-9.0059
▁신청	-9.00655
날	-9.00798
▁수출	-9.00838
사의	-9.00954
▁hope	-9.01164
▁주소	-9.01242
▁way	-9.0126
▁제거	-9.01353
집니다	-9.01378
▁이름	-9.01391
▁보안	-9.01468
▁차량	-9.01494
▁찾고	-9.0155
▁운영	-9.01683
화	-9.01698
▁해요	-9.01719
트	-9.0177
▁주요	-9.01949
▁파일	-9.02001
D	-9.02006
▁인터넷	-9.02024
▁말씀해	-9.02188
▁신뢰	-9.02217
▁B	-9.02523
▁그때	-9.02869
가지	-9.02929
▁안내	-9.02972
▁introduce	-9.03043
▁어느	-9.03119
▁빠르게	-9.03124
▁영상	-9.03171
▁자동차	-9.03236
▁questions	-9.0324
▁그대로	-9.03295
▁이동	-9.03555
▁요리	-9.03729
▁편안	-9.03838
이며	-9.03905
린	-9.03923
▁작동	-9.03948
구나	-9.03986
▁책	-9.04295
▁내에	-9.04413
▁만든	-9.04514
함	-9.04701
▁행사	-9.04852
▁싶은	-9.04912
▁국제	-9.05008
▁자신	-9.05061
▁great	-9.05116
▁대부분	-9.05117
▁보통	-9.05133
▁성능	-9.05138
▁크게	-9.0516
▁원단	-9.05285
▁방지	-9.0547
▁역시	-9.05643
▁아래	-9.05719
▁위험	-9.06055
▁사장님	-9.06079
이라	-9.06447
▁우수	-9.0651
▁맞는	-9.06559
▁상	-9.06922
셔야	-9.07032
▁본사	-9.07092
▁부드러	-9.07156
▁굉장	-9.07156
▁냄새	-9.07156
▁아닙니다	-9.07156
▁had	-9.07159
▁their	-9.07175
▁back	-9.07179
▁부품	-9.0718
▁무선	-9.07232
▁검토	-9.0727
▁눈	-9.0747
▁팀	-9.07589
▁출장	-9.0765
▁보장	-9.07707
▁these	-9.07721
▁간	-9.07738
▁갈	-9.07786
▁매	-9.07839
하시는	-9.07894
▁C	-9.0803
▁나도	-9.08175
▁주에	-9.08484
▁어디	-9.0864
▁귀사에서	-9.0896
▁전체	-9.0905
▁which	-9.0924
▁왜냐하면	-9.09241
▁sorry	-9.09246
▁속도	-9.09248
▁Let	-9.09265
▁연락처	-9.0929
▁Can	-9.09303
▁유명	-9.09365
▁작은	-9.09471
▁환경	-9.09871
▁아니요	-9.09949
였습니다	-9.10077
▁청소	-9.10167
제	-9.10245
▁전기	-9.10393
산	-9.1046
▁자사	-9.10471
▁그래도	-9.10601
▁problem	-9.10809
▁배	-9.10812
▁team	-9.10834
▁사람이	-9.10856
▁간단	-9.10949
▁사무실	-9.11169
▁최선	-9.11367
▁such	-9.11368
▁전혀	-9.11378
▁may	-9.11394
▁정	-9.11463
▁만들	-9.11684
▁some	-9.11746
▁모	-9.11908
▁보내주	-9.11937
▁관계	-9.12153
▁저기	-9.12153
▁프로그램	-9.1216
이고	-9.12395
등	-9.12512
▁없어	-9.12553
▁11	-9.12629
▁feel	-9.12721
▁보험	-9.12901
▁명	-9.12938
▁전달	-9.12939
▁market	-9.12981
▁Korean	-9.13022
▁아마	-9.13163
▁좋다	-9.13193
▁넣	-9.13227
▁특별	-9.1343
▁단	-9.13523
▁갑자기	-9.13541
▁email	-9.13555
▁100%	-9.13564
▁향	-9.13567
종	-9.13629
▁성장	-9.13633
▁사용해	-9.13787
▁수입	-9.13818
▁당신에게	-9.14001
▁재료	-9.14042
십시오	-9.1405
▁거죠	-9.14056
하며	-9.14275
▁적	-9.14462
▁의미	-9.14489
▁사용하는	-9.14492
▁사람들이	-9.14679
▁맞춰	-9.14992
▁기본	-9.15176
▁담당자	-9.15214
군요	-9.15337
▁선적	-9.1545
▁그러	-9.15476
▁water	-9.15705
▁최신	-9.1573
▁낮	-9.15748
▁TV	-9.15767
▁into	-9.15826
▁기다리겠습니다	-9.15827
▁전통	-9.1583
▁하기	-9.15839
▁영향	-9.15865
▁번호	-9.15868
▁today	-9.15882
▁갖고	-9.1595
▁별도	-9.15973
▁일반	-9.16015
▁교환	-9.16131
▁올	-9.16213
▁기능이	-9.16424
▁깨끗	-9.16752
▁받고	-9.16898
▁참여	-9.17
▁만큼	-9.17095
▁궁금	-9.17198
▁않아	-9.17226
in	-9.17544
▁발송	-9.17546
런	-9.17559
▁P	-9.17595
▁들어가	-9.17697
▁포함되어	-9.17871
▁유	-9.18012
▁특정	-9.18036
▁훨씬	-9.18036
▁약속	-9.18045
▁delivery	-9.18065
▁thank	-9.18073
▁Hey	-9.18131
▁가게	-9.1815
▁활동	-9.18199
▁set	-9.18252
▁머리	-9.18343
▁공	-9.18378
▁자리	-9.18663
▁years	-9.18772
▁스타일	-9.1883
▁온도	-9.18855
▁대표	-9.1891
동	-9.19077
▁인상	-9.19189
▁조건	-9.19341
▁조	-9.19355
되고	-9.19401
▁보다	-9.19477
▁주문한	-9.19513
▁자체	-9.19572
배	-9.1973
▁home	-9.19774
▁있지	-9.19804
세	-9.19886
▁느낌	-9.19926
별	-9.20033
▁불	-9.20043
▁기억	-9.2011
▁eat	-9.20136
▁visit	-9.20226
▁오랜	-9.20226
▁귀하께	-9.20243
▁교체	-9.20276
▁시설	-9.20295
▁said	-9.20362
▁확실히	-9.20378
▁주실	-9.20417
▁건물	-9.20423
cm	-9.20432
▁구조	-9.20443
▁어려	-9.20541
▁식품	-9.2064
▁못했습니다	-9.20745
▁looking	-9.20768
▁제공해	-9.20829
▁quality	-9.20904
▁궁금한	-9.20993
음	-9.21018
▁제어	-9.21179
▁마지막	-9.21288
▁먹	-9.21358
▁홈페이지	-9.21397
▁업체	-9.21522
▁통	-9.21593
▁제공하는	-9.21624
▁놓	-9.21776
▁개선	-9.21882
▁이거는	-9.21995
볼	-9.22357
▁food	-9.22392
▁음료	-9.22639
▁차이	-9.22702
▁little	-9.22743
▁why	-9.22743
▁내구성	-9.22765
▁마무리	-9.2277
▁목표	-9.22778
▁고객님께서	-9.22869
▁put	-9.23167
▁지난번	-9.23192
▁앱	-9.23319
▁지연	-9.23331
▁영업	-9.23408
▁세트	-9.23713
▁이미지	-9.23791
▁이익	-9.23998
▁직원들	-9.24091
▁입	-9.24267
▁장소	-9.24413
▁없다	-9.24444
▁몸	-9.24448
▁카드	-9.24936
▁500	-9.2497
▁교육	-9.24994
합니까	-9.25008
▁식당	-9.25051
해요	-9.25075
▁대비	-9.25107
▁O	-9.25125
▁충전	-9.25169
▁영화	-9.25172
▁each	-9.25187
▁must	-9.25203
▁schedule	-9.2521
▁pay	-9.25253
▁special	-9.253
▁컬러	-9.25315
▁필터	-9.2535
부	-9.25371
▁난	-9.25492
▁분석	-9.25515
▁보면	-9.2565
▁궁금하신	-9.25653
▁보여	-9.25689
거	-9.257
▁시간에	-9.25723
▁건가요	-9.25779
▁해결	-9.25822
▁여기서	-9.25971
력	-9.26088
▁조사	-9.26119
▁물건	-9.26343
▁가능할	-9.26418
▁테스트	-9.2645
▁기간	-9.26535
▁메뉴	-9.26599
▁만드는	-9.26625
▁왔습니다	-9.26693
▁되면	-9.26773
▁아니면	-9.26782
▁주문하신	-9.26846
▁최근에	-9.26924
▁감사하겠	-9.26992
▁국내	-9.27138
▁과정	-9.2716
▁서로	-9.27217
▁아이들	-9.27224
천	-9.27335
▁괜찮아	-9.27549
▁발생	-9.27678
▁better	-9.27682
▁current	-9.27712
▁My	-9.27718
se	-9.27718
▁무엇	-9.27725
▁올해	-9.27773
▁제대로	-9.27782
▁전자	-9.27845
단	-9.28117
▁간편	-9.28145
▁특징	-9.28377
▁했는데	-9.28551
g	-9.28579
▁제품들	-9.28704
▁오늘은	-9.29058
a	-9.29139
▁웹사이트	-9.29166
▁아닌	-9.29235
▁남	-9.29238
▁뒤	-9.29248
▁센터	-9.29257
▁은행	-9.29276
▁소	-9.29637
▁없을	-9.29672
▁month	-9.29773
▁먹는	-9.29957
▁부드럽	-9.30087
▁시일	-9.30088
▁엄청	-9.30144
▁date	-9.30144
▁잠깐만	-9.30165
▁여전	-9.30253
▁디지털	-9.30279
▁away	-9.30305
▁대신	-9.30308
▁않았습니다	-9.30339
▁상담	-9.30339
선	-9.30345
▁before	-9.30366
▁Are	-9.30412
▁아까	-9.30514
▁되나요	-9.30547
▁L	-9.30579
▁ordered	-9.30604
▁알게	-9.3061
▁현지	-9.30681
▁then	-9.30702
들의	-9.30858
▁지내	-9.31286
회	-9.3129
▁들	-9.3141
▁person	-9.31667
▁T	-9.31697
고요	-9.31779
▁참	-9.31802
▁있어야	-9.31831
▁드렸습니다	-9.31901
▁드리	-9.31906
위	-9.32125
▁적이	-9.32306
▁비해	-9.32453
▁전화를	-9.3254
▁receive	-9.32826
▁First	-9.32878
▁tell	-9.32878
▁still	-9.32883
▁아이디어	-9.32885
▁forward	-9.32894
▁hard	-9.32902
▁나중에	-9.32907
▁while	-9.32907
▁technology	-9.32908
▁점이	-9.32917
▁payment	-9.32918
▁down	-9.32959
▁received	-9.32978
▁얻	-9.33014
▁25	-9.33019
▁실제로	-9.33052
▁피	-9.33203
▁24	-9.33318
mail	-9.33494
초	-9.33529
씩	-9.33615
더	-9.33659
▁넣어	-9.33708
하십시오	-9.33721
▁기기	-9.33825
▁마음에	-9.3395
▁도매	-9.34029
▁방식	-9.34147
▁p	-9.34154
▁동	-9.34165
▁것에	-9.34176
▁서비스에	-9.34346
▁R	-9.34402
▁AI	-9.34563
▁드려	-9.35119
▁계약서	-9.3518
▁받으	-9.35228
▁한국에	-9.35269
▁집에	-9.35279
▁의견	-9.3528
▁addition	-9.35359
▁홍보	-9.35433
▁40	-9.35563
▁Why	-9.3558
▁꽤	-9.3558
▁taste	-9.3558
▁기반	-9.35584
▁answer	-9.35587
▁그녀	-9.35591
▁에너지	-9.35594
▁상당	-9.356
▁quickly	-9.35602
▁most	-9.35616
▁로봇	-9.35664
▁코로나	-9.35673
▁강력	-9.3568
▁그건	-9.35696
▁운송	-9.35698
▁주는	-9.35711
▁평가	-9.35762
▁생활	-9.35808
▁건조	-9.35853
▁제공하고	-9.35913
▁발	-9.36061
박	-9.36075
되지	-9.3616
kg	-9.36191
밖에	-9.36392
▁vari	-9.36398
▁고객들	-9.36474
▁대로	-9.36657
▁셋	-9.36741
▁인사	-9.36774
ion	-9.3681
었던	-9.36852
▁가족	-9.37383
졌습니다	-9.37394
▁창고	-9.37544
▁무엇을	-9.37645
▁purchase	-9.37695
▁store	-9.37749
류	-9.37846
▁완료	-9.3786
▁최종	-9.3811
▁견적	-9.38209
▁meet	-9.38216
▁she	-9.383
▁결혼	-9.38323
▁있으니	-9.38337
▁keep	-9.38358
▁When	-9.38364
▁course	-9.3839
층	-9.38412
▁sales	-9.38429
▁try	-9.38445
▁알려주세요	-9.38445
▁네가	-9.38454
ce	-9.38607
▁내부	-9.38608
▁있지만	-9.38639
시에	-9.38706
▁찾아	-9.38938
▁임대	-9.39022
낼	-9.39166
▁맛있	-9.39255
▁누	-9.39317
fore	-9.39524
▁대단	-9.39605
▁제품으로	-9.39612
4	-9.39628
▁200	-9.39784
▁속	-9.39796
▁재	-9.39846
le	-9.39877
▁국가	-9.39911
▁발표	-9.39949
▁저희와	-9.3996
▁주문하고	-9.40022
▁가입	-9.4004
므로	-9.40103
▁노	-9.40322
▁F	-9.40384
▁offer	-9.40401
▁깊	-9.40483
ew	-9.40535
▁여	-9.4054
드렸습니다	-9.40886
▁보증	-9.40953
▁커피	-9.40997
▁가능	-9.41088
디	-9.41099
라면	-9.41151
▁bit	-9.41194
▁분위기	-9.41215
▁world	-9.41216
▁세부	-9.41235
▁For	-9.41238
▁덕분	-9.41259
▁자기	-9.41274
▁large	-9.41289
▁보니까	-9.41317
▁엔진	-9.41365
▁where	-9.41377
▁맞습니다	-9.41476
▁서류	-9.41482
▁무게	-9.41493
▁매일	-9.41504
▁긍정적	-9.41505
▁분이	-9.41537
물	-9.4154
▁관련하여	-9.41563
▁먹고	-9.41637
▁free	-9.41667
▁알아	-9.41742
주시기	-9.41883
▁한다	-9.41889
구	-9.42006
▁매장	-9.42125
▁소식을	-9.42294
다면	-9.42497
▁뿐만	-9.42532
▁친구	-9.42554
▁싶어	-9.42559
셨나요	-9.42565
▁어머	-9.42566
▁실	-9.42639
▁process	-9.42746
라도	-9.42866
▁미래	-9.43088
어요	-9.43219
계	-9.43507
터	-9.43601
▁customer	-9.43617
가지고	-9.43655
드릴게요	-9.43801
▁파	-9.43871
▁알려주	-9.43953
▁가는	-9.44025
▁질문	-9.44079
▁always	-9.44156
▁research	-9.44156
▁important	-9.44157
▁따르면	-9.44162
▁amount	-9.44176
▁그렇다면	-9.44192
해주세요	-9.44201
▁걸릴	-9.44214
▁어렵습니다	-9.44226
▁분명	-9.44243
▁same	-9.44248
▁역할	-9.44252
▁대금	-9.44274
드린	-9.44294
▁정확히	-9.44391
▁말이	-9.44457
잖아	-9.44494
▁전원	-9.4458
▁그래요	-9.44615
판	-9.44881
▁돈	-9.4489
▁되고	-9.44951
▁소개합니다	-9.44959
ong	-9.4503
▁확인하고	-9.45429
마	-9.45469
▁고정	-9.45488
▁귀사에	-9.4562
▁가구	-9.45774
▁배송이	-9.45783
▁공장	-9.45862
▁상황이	-9.46009
▁이용해	-9.46068
▁산업	-9.46114
▁옷	-9.46125
▁사용이	-9.46141
줄	-9.46283
▁say	-9.46359
▁확장	-9.46359
▁응	-9.46369
▁주방	-9.46391
▁Se	-9.46465
▁구입	-9.46476
▁car	-9.46521
▁size	-9.46604
▁진	-9.46712
▁심	-9.47051
▁세척	-9.47071
▁인증	-9.47109
▁okay	-9.47187
▁situation	-9.47187
▁kind	-9.47187
▁office	-9.47187
후	-9.47188
▁동시에	-9.47197
▁모발	-9.47203
▁name	-9.47221
▁experience	-9.47222
▁운동	-9.47237
▁혼자	-9.47252
▁마세요	-9.47274
▁소스	-9.47333
▁best	-9.47424
▁고기	-9.47609
기가	-9.47619
ive	-9.47783
▁아이고	-9.47895
했어요	-9.47907
전	-9.4792
▁도매가	-9.48045
동안	-9.48139
ur	-9.48153
답	-9.48201
▁지속	-9.48325
여	-9.48636
▁단계	-9.48769
▁장	-9.48791
▁끝	-9.48934
▁활용	-9.49101
▁하실	-9.49159
▁분야	-9.49311
▁키	-9.49414
tional	-9.49438
▁산	-9.49465
▁휴대	-9.49493
▁이전	-9.49607
왔습니다	-9.49739
미	-9.4979
▁유리	-9.49835
▁선	-9.49898
▁아파트	-9.49911
▁절대	-9.49953
우	-9.49976
이면	-9.49998
o	-9.50057
▁mean	-9.50106
▁적합	-9.50121
▁생각해	-9.50166
▁확신	-9.50166
▁숙박	-9.50295
▁difficult	-9.50306
▁Okay	-9.50312
▁discount	-9.50312
▁비디오	-9.50312
▁이벤트	-9.50312
▁콘텐츠	-9.50312
▁살짝	-9.50313
▁sent	-9.50314
▁근데	-9.50316
▁상세	-9.50329
▁없음	-9.50341
▁10%	-9.50377
▁production	-9.5038
▁요청하신	-9.50385
▁heard	-9.5039
▁케이블	-9.50409
려고	-9.50427
▁높이	-9.50444
▁싶어요	-9.50467
▁대박	-9.50534
▁혹	-9.50544
▁형님	-9.50574
▁자랑	-9.50594
▁한국어	-9.50603
▁여부	-9.50605
려	-9.50636
▁친환경	-9.50662
▁마지막으로	-9.50741
인데요	-9.5094
ting	-9.51085
▁받지	-9.51162
mm	-9.51168
▁가격에	-9.51225
려면	-9.51287
▁지금까지	-9.51308
▁가서	-9.51322
▁장착	-9.51375
▁공유	-9.51378
▁주변	-9.51391
▁힘	-9.51487
하	-9.51713
▁중국	-9.51936
하셨습니다	-9.52264
▁돈을	-9.52311
크	-9.52316
▁저녁	-9.52476
G	-9.52585
▁부족	-9.52618
ear	-9.52649
▁세탁	-9.52744
냐	-9.52782
▁믿	-9.52866
▁제공할	-9.52897
▁등록	-9.52914
▁수준	-9.52948
▁어떠	-9.52957
▁부분이	-9.53012
▁18	-9.53039
▁hear	-9.53064
▁배우	-9.53157
▁서울	-9.53363
▁잘못	-9.53423
▁드	-9.53427
▁뭔가	-9.53537
▁촬영	-9.53537
▁편안함	-9.53607
▁생각이	-9.53626
▁delivered	-9.53645
▁그동안	-9.53696
▁회사와	-9.53764
▁inform	-9.53803
▁All	-9.53844
▁materials	-9.53906
는데요	-9.5408
▁그걸	-9.54113
▁분들이	-9.54142
▁사과	-9.54754
▁re	-9.54769
▁증가	-9.54779
만큼	-9.5494
▁것이라	-9.55117
▁리	-9.55203
▁엄마	-9.55305
▁보입니다	-9.55591
▁잡	-9.55686
▁업데이트	-9.55722
▁show	-9.55898
▁M	-9.55912
▁때는	-9.55964
▁측정	-9.55975
▁최소	-9.56318
▁구축	-9.56319
▁color	-9.5632
▁To	-9.56352
1,	-9.56363
▁당신과	-9.56489
▁초	-9.56519
▁무료	-9.56524
▁질문이	-9.56805
▁함유	-9.56808
▁당연	-9.56815
▁start	-9.56826
▁뭘	-9.56871
▁companies	-9.56871
▁Good	-9.56872
▁hotel	-9.56872
▁월요일	-9.56872
▁easy	-9.56873
▁skin	-9.56874
▁그럴	-9.56874
▁있으시다면	-9.56878
▁기타	-9.5688
▁both	-9.56882
▁피부에	-9.5691
▁괜찮습니다	-9.5697
▁팬	-9.5697
▁data	-9.56975
▁있죠	-9.57019
▁어디서	-9.57129
▁고객님들	-9.57137
▁가죽	-9.57184
것	-9.57256
▁details	-9.57308
▁보시고	-9.57317
감	-9.57331
▁경우에	-9.57396
▁제안서	-9.57427
▁없었	-9.57517
▁아니고	-9.57561
있는	-9.57614
▁뒤에	-9.57689
▁확보	-9.57829
▁문	-9.57954
본	-9.57958
했다	-9.58088
▁공기	-9.58106
▁여기에	-9.58147
▁만족	-9.58191
▁실수	-9.58215
살	-9.58297
▁물품	-9.58378
기는	-9.5853
▁(	-9.58559
▁탑재	-9.58767
▁조정	-9.58973
▁실패	-9.58989
▁드린	-9.59116
▁듯	-9.59274
▁사용하	-9.59391
셔서	-9.59409
▁성분	-9.59557
▁reservation	-9.59674
▁300	-9.59675
▁학습	-9.59716
▁restaurant	-9.59741
▁건설	-9.59744
▁요금	-9.59789
▁클라우드	-9.59857
셨으면	-9.59998
▁고급	-9.60134
▁청구	-9.60169
▁귀	-9.60217
▁charge	-9.60235
▁total	-9.6025
▁광수	-9.60254
▁나온	-9.60262
▁small	-9.60298
건	-9.60305
▁특허	-9.6031
▁Because	-9.60319
▁easily	-9.60319
▁Ah	-9.60321
▁휴가	-9.60322
▁협상	-9.60324
▁아니에요	-9.60326
▁part	-9.60332
▁manager	-9.60332
▁기록	-9.60336
▁available	-9.60341
▁있으신가요	-9.6035
게요	-9.60427
▁제공됩니다	-9.60463
▁자주	-9.60465
▁용량	-9.60465
▁실망	-9.60542
▁음악	-9.60585
▁보내드립니다	-9.60602
▁않으면	-9.6069
5	-9.60776
▁담당	-9.60887
▁working	-9.60982
▁가치	-9.61004
▁거지	-9.61034
호	-9.61046
▁달에	-9.61072
▁손상	-9.61363
▁담	-9.61391
▁참석	-9.61464
▁K	-9.61579
▁이전에	-9.61614
한다	-9.6195
다가	-9.62021
색	-9.6205
▁접	-9.6228
▁입금	-9.62343
▁일본	-9.62415
▁팔	-9.62597
▁정리	-9.62698
자가	-9.62778
하다	-9.62803
에서도	-9.62936
▁오전	-9.63052
▁비슷	-9.63056
해주신	-9.63161
▁소리	-9.63166
▁change	-9.63303
드시	-9.6334
▁room	-9.63341
▁주셨	-9.63342
ther	-9.63356
▁하시는	-9.63359
립니다	-9.63448
른	-9.63498
▁중입니다	-9.63551
▁범위	-9.63668
▁understand	-9.63672
심	-9.63692
▁표준	-9.63877
▁넓은	-9.6389
▁열심히	-9.6389
▁케이스	-9.63891
▁reply	-9.63892
▁송장	-9.63899
▁죄송하지만	-9.63899
twee	-9.63904
▁커버	-9.63905
▁되기	-9.63919
▁performance	-9.63932
▁around	-9.63955
▁석진이	-9.63979
▁저거	-9.63983
▁바닥	-9.64093
▁선물	-9.641
▁파티	-9.64107
제품	-9.64109
▁섬유	-9.6411
▁가방	-9.64146
▁dur	-9.64197
▁end	-9.64233
▁맞게	-9.64253
하시고	-9.64316
▁플라스틱	-9.64501
▁연	-9.64525
▁진행할	-9.64529
▁대상	-9.646
▁수행	-9.64638
▁close	-9.64648
▁의사	-9.64691
▁사전	-9.64746
▁백	-9.64875
▁싶은데	-9.64913
쉬운	-9.65091
▁밥	-9.6517
구요	-9.65319
▁고려	-9.65321
▁다리	-9.65331
▁근처에	-9.6538
▁말고	-9.65456
▁보내드리	-9.65456
ers	-9.65532
더라고요	-9.65598
▁상품이	-9.65616
▁애	-9.65654
▁우	-9.65826
▁보상	-9.65968
▁싶다	-9.6602
▁치료	-9.66048
집	-9.66404
▁interna	-9.66406
래	-9.66414
▁real	-9.66718
l	-9.66978
▁지속적	-9.67088
하는데	-9.67095
▁ma	-9.67101
▁deliver	-9.67425
▁고객님께	-9.67484
듭	-9.67519
▁느끼	-9.67523
▁즐거	-9.67561
▁블랙	-9.67592
▁가벼운	-9.67594
▁솔루션	-9.67594
▁something	-9.67595
▁management	-9.67597
▁find	-9.67597
▁천연	-9.67599
▁yet	-9.67607
▁life	-9.67613
▁차단	-9.67613
▁같네요	-9.67615
▁Mr	-9.67632
▁case	-9.67639
▁적절	-9.67642
▁매출	-9.67644
▁방수	-9.67678
▁삶	-9.67693
▁변화	-9.67758
▁컬	-9.67847
▁맛이	-9.67872
▁care	-9.67879
▁H	-9.67924
▁done	-9.67931
▁집에서	-9.67995
▁파트너	-9.68046
▁밤	-9.68088
▁적합한	-9.68123
▁형이	-9.68124
▁길	-9.6815
▁여성	-9.68222
▁sell	-9.68226
로서	-9.68293
▁통화	-9.68312
▁시장에서	-9.68364
▁추천해	-9.68431
▁중인	-9.6849
▁반응	-9.68582
u	-9.68598
am	-9.68683
▁다르	-9.68707
▁보니	-9.68929
▁스	-9.68998
▁b	-9.69009
▁이내	-9.69252
르	-9.6932
신가요	-9.69323
▁그것들	-9.69438
▁객실	-9.69467
▁받는	-9.69517
수록	-9.69583
▁책임	-9.699
▁생겼	-9.69953
▁배달	-9.70025
▁수분	-9.70031
▁주택	-9.7018
▁어린이	-9.70182
럼	-9.70265
▁얻을	-9.7032
▁일반적	-9.70413
▁얘기를	-9.70531
▁system	-9.70875
▁cost	-9.70927
fter	-9.71056
ation	-9.71287
▁똑같	-9.71345
ic	-9.71352
▁increase	-9.71357
▁외부	-9.71405
팀	-9.71422
마다	-9.7143
▁future	-9.7144
▁hair	-9.7144
▁프리미엄	-9.7144
▁advance	-9.71441
▁left	-9.71441
▁Did	-9.71445
▁앉아	-9.71446
▁him	-9.71446
▁숙소	-9.71447
▁각각	-9.71451
▁친절	-9.71465
▁귀사께서	-9.71528
▁together	-9.71561
▁정부	-9.71633
▁알려드립니다	-9.71649
▁절차	-9.71658
▁per	-9.71668
▁편안하게	-9.71685
▁얼굴	-9.71709
직	-9.71717
▁house	-9.71717
▁먹을	-9.71799
▁저를	-9.71932
▁전략	-9.71987
금	-9.72024
▁its	-9.7207
▁의자	-9.72108
시킬	-9.72168
ment	-9.72224
▁알리	-9.7224
▁됐습니다	-9.72245
▁추적	-9.72287
▁부담	-9.72394
▁넘	-9.72415
ld	-9.72479
▁통합	-9.72516
▁수정	-9.72561
▁진행하고	-9.72575
무	-9.72615
▁생	-9.72927
래도	-9.72957
um	-9.73241
▁추	-9.73336
록	-9.7335
급	-9.73374
▁비용은	-9.73431
▁다만	-9.73583
▁가격으로	-9.74015
▁저번	-9.74127
▁위에	-9.74165
▁한다고	-9.7418
▁착용	-9.74195
▁금요일	-9.74357
▁test	-9.7438
▁커	-9.74429
▁아침	-9.74486
▁talk	-9.74599
▁phone	-9.74722
▁길이	-9.74783
조	-9.74825
▁16	-9.74829
▁갖	-9.74843
▁제한	-9.74885
▁f	-9.75102
▁event	-9.75149
▁도구	-9.75178
▁즐	-9.75193
▁됐어	-9.75314
▁기다려	-9.75316
▁알았어	-9.75317
▁trip	-9.75431
▁LED	-9.7544
▁appreciat	-9.7544
▁enough	-9.7544
▁department	-9.75443
▁nice	-9.75444
▁탁월	-9.75447
▁신속	-9.75449
▁online	-9.75464
▁One	-9.75493
▁일어나	-9.75494
▁대형	-9.75508
▁interested	-9.75514
▁제품과	-9.75559
▁결합	-9.75567
▁Of	-9.7557
▁양해	-9.75576
▁남성	-9.75584
▁나라	-9.75616
▁이번주	-9.75638
▁견적서	-9.7566
▁감지	-9.75674
점을	-9.7579
▁문화	-9.75817
▁기술력	-9.7594
▁주식	-9.76185
▁plan	-9.76238
▁가능성	-9.76291
▁개의	-9.76332
▁생각하고	-9.76482
▁하신	-9.76502
▁G	-9.76529
봐	-9.7654
▁충분한	-9.76548
으로부터	-9.76645
▁구매하고	-9.76685
▁레스토랑	-9.76735
▁공정	-9.76931
▁했어	-9.77
▁기한	-9.77057
BBB	-9.77224
권	-9.77275
보세요	-9.7741
A	-9.77465
▁정도로	-9.77475
▁경	-9.77562
▁재미있	-9.77632
조건	-9.77633
▁걱정이	-9.77738
▁감	-9.77755
지요	-9.77877
▁비용이	-9.77883
▁표시	-9.7791
▁아직도	-9.77937
▁달러	-9.78013
할게요	-9.78151
▁늘	-9.78339
▁여유	-9.78355
온	-9.78356
▁거는	-9.78465
셨어요	-9.78563
성이	-9.78608
▁오일	-9.78651
▁먹어	-9.78727
▁덜	-9.78812
ry	-9.78883
▁개발한	-9.78956
▁sample	-9.79022
▁project	-9.79039
▁주문에	-9.79046
▁thought	-9.79048
지는	-9.79051
▁detail	-9.79061
시기	-9.793
하려면	-9.79325
▁포인트	-9.79362
▁wait	-9.79389
▁support	-9.79471
▁이걸	-9.79479
▁짧	-9.7954
았습니다	-9.79552
▁enjoy	-9.79583
▁기획	-9.7959
칠	-9.79592
▁already	-9.79607
▁excellen	-9.79607
▁모바일	-9.79607
▁뵙겠습니다	-9.79607
▁혜택	-9.79607
▁훌륭	-9.79607
▁학교	-9.79607
▁hold	-9.79609
▁고품질	-9.7961
▁부착	-9.79611
연	-9.79618
▁동물	-9.79621
▁Now	-9.79629
▁이어	-9.7965
▁만들었습니다	-9.79667
▁Eve	-9.79679
▁every	-9.79697
▁명시	-9.79718
▁body	-9.79739
▁인식	-9.79812
▁특별히	-9.79823
▁연락주세요	-9.7985
▁치즈	-9.79852
▁코	-9.79867
▁신경	-9.80019
▁무료로	-9.80054
▁got	-9.80068
▁풀	-9.80075
▁질	-9.80153
공	-9.8018
▁있는데요	-9.8022
▁김	-9.80255
▁입고	-9.80311
▁좋아하는	-9.8034
▁다음에	-9.80354
▁수업	-9.80376
▁love	-9.80411
▁것처럼	-9.80427
하기로	-9.8046
만원	-9.80492
▁유통	-9.80556
▁확인했습니다	-9.80577
▁전문가	-9.80596
▁예정	-9.80617
이지만	-9.80793
▁services	-9.8089
▁향상	-9.80984
▁적은	-9.81048
태	-9.81074
오	-9.811
기에	-9.81207
시켜	-9.81258
ity	-9.81369
▁전부	-9.81794
없이	-9.81815
친	-9.81851
되면	-9.81856
▁이후	-9.81867
▁사용되	-9.81875
라서	-9.8191
less	-9.81932
께	-9.81983
중	-9.8213
▁패키지	-9.82349
량	-9.82356
▁발견	-9.82362
들과	-9.82403
▁같	-9.8251
til	-9.82536
▁아기	-9.82575
▁협업	-9.82796
▁포	-9.828
▁않는다	-9.82854
발	-9.83012
께서	-9.83139
▁나가	-9.83143
est	-9.83159
▁된다	-9.83336
체	-9.83469
▁연락해	-9.83474
▁완성	-9.83607
저	-9.8361
▁연장	-9.8365
▁사양	-9.83651
▁끝나	-9.83759
▁contain	-9.83778
▁건데	-9.83909
▁모드	-9.83919
▁프레젠테이션	-9.8393
▁오픈	-9.83932
기도	-9.83944
▁고무	-9.83949
▁적어	-9.8395
랫	-9.83954
힌	-9.83954
▁reason	-9.83955
▁tomorrow	-9.83955
▁글쎄	-9.83955
▁듣고	-9.83955
▁파이팅	-9.83955
▁벌써	-9.83955
▁those	-9.83956
▁노트북	-9.83956
▁행동	-9.83956
▁맞춤	-9.83957
▁address	-9.83957
▁아시다시피	-9.83963
▁유감	-9.83968
▁become	-9.83996
▁싶	-9.84
▁money	-9.84005
▁언어	-9.84013
▁stay	-9.84014
▁코팅	-9.84025
▁침대	-9.84041
▁편리합니다	-9.84078
▁refund	-9.84093
▁once	-9.84094
▁오류	-9.84116
▁box	-9.84181
▁hours	-9.84202
▁빛	-9.84217
용품	-9.84249
▁통신	-9.8428
▁도시	-9.84298
ies	-9.84342
▁things	-9.84359
▁지난주에	-9.84364
분이	-9.84381
▁핏	-9.84397
▁보시면	-9.84452
▁분야에서	-9.84466
▁U	-9.84476
▁인원	-9.84492
▁계신	-9.84552
▁consider	-9.84595
보	-9.84616
▁송금	-9.84649
▁나오는	-9.84661
피	-9.84661
▁이해해	-9.84693
▁목	-9.84741
십니다	-9.84767
▁보겠습니다	-9.84791
▁가면	-9.84931
▁환자	-9.85029
▁때까지	-9.85144
▁Don	-9.85175
▁용품	-9.85184
▁계획입니다	-9.85245
▁했	-9.85253
▁전용	-9.85455
▁드리려고	-9.85457
▁가져	-9.85477
열	-9.85489
▁대화	-9.8551
표	-9.85707
▁지역에	-9.85713
▁card	-9.85818
▁자연	-9.85847
▁홈	-9.85863
▁치	-9.85872
주셔야	-9.85877
쯤	-9.85984
엔	-9.86093
▁구체적	-9.86152
▁앞	-9.86171
▁기업들	-9.86266
▁보는	-9.86551
뿐만	-9.86601
▁손님	-9.8667
시죠	-9.86688
셨습니다	-9.8675
즈	-9.86833
▁full	-9.86924
▁Ju	-9.86983
h	-9.87038
▁유용	-9.87055
▁부서	-9.87189
셔	-9.8726
▁준비가	-9.87418
▁off	-9.87469
▁않았	-9.87489
▁글	-9.87518
년에	-9.87544
▁하시면	-9.8761
▁공항	-9.87651
▁강화	-9.87656
▁website	-9.87856
▁그렇기	-9.87903
▁프로그램을	-9.87938
▁돌	-9.87959
▁연기	-9.87995
▁늦어	-9.87997
▁병	-9.88022
▁오는	-9.88074
▁area	-9.8814
▁open	-9.88197
▁사랑	-9.88255
겠어요	-9.88326
using	-9.88338
seas	-9.88362
▁쪽	-9.88364
▁원료	-9.88371
이랑	-9.88407
▁request	-9.88426
▁글로벌	-9.885
▁뚜껑	-9.885
킵	-9.885
▁software	-9.885
▁스테인리스	-9.885
▁anything	-9.885
▁안녕하십니까	-9.88501
▁링크	-9.88501
▁rice	-9.88501
▁철저	-9.88502
▁everything	-9.88502
▁safety	-9.88504
▁run	-9.88504
▁서버	-9.88505
▁살균	-9.88505
▁comfortable	-9.88507
▁With	-9.8851
들에게	-9.88515
▁insurance	-9.88515
▁최소화	-9.88517
▁빠르고	-9.88541
▁decided	-9.88543
▁유형	-9.88545
▁디스플레이	-9.88553
▁시계	-9.88556
▁공식	-9.88582
▁ingredients	-9.8859
▁add	-9.88613
▁찾는	-9.8863
▁cold	-9.88637
▁electric	-9.88637
▁화장품	-9.88645
▁비교	-9.8865
문	-9.88673
▁생성	-9.88684
▁within	-9.88749
▁items	-9.8877
▁참고	-9.88907
▁먼지	-9.88974
▁등급	-9.88978
▁처음에	-9.89079
▁저렴한	-9.89093
▁인정	-9.89101
▁곳이	-9.89142
▁없어서	-9.89174
▁유럽	-9.8922
▁만들고	-9.89252
▁물질	-9.89283
▁순	-9.89347
모	-9.89396
이라면	-9.89511
▁와인	-9.89517
▁판단	-9.89866
▁번에	-9.89879
▁수집	-9.89911
▁상업	-9.90178
▁마음이	-9.90184
▁필요할	-9.90241
▁포함된	-9.90262
▁계약서에	-9.90277
▁급	-9.90504
7	-9.90969
꺼	-9.91151
▁이번에는	-9.91176
▁사용하고	-9.9138
▁거기	-9.91446
▁방문해	-9.91548
▁읽	-9.91573
▁상황에	-9.91643
▁드릴게요	-9.91657
ince	-9.91829
▁맺	-9.91883
▁많아	-9.9204
k	-9.92186
하셔서	-9.92325
▁봤	-9.92516
▁납부	-9.92676
▁video	-9.92684
▁material	-9.92716
▁도착하	-9.92727
란	-9.92857
한다는	-9.92862
▁영어	-9.929
▁공급업체	-9.93041
▁반영	-9.93061
▁지지	-9.93071
▁즐기	-9.93085
▁sign	-9.93103
▁좋지	-9.93107
▁달라	-9.93133
▁방법이	-9.93182
▁비싸	-9.93233
▁watch	-9.93238
▁under	-9.93258
▁Also	-9.93262
▁black	-9.93262
▁멋진	-9.93262
▁크리스마스	-9.93262
▁피드백	-9.93262
▁delicious	-9.93263
▁박람회	-9.93263
▁아이템	-9.93263
▁energy	-9.93263
▁스케줄	-9.93264
▁big	-9.93266
▁실행	-9.93266
▁She	-9.93266
▁never	-9.93268
▁검색	-9.93277
▁패드	-9.93277
▁조언	-9.93278
▁방금	-9.9328
▁당장	-9.93281
▁힘든	-9.93285
▁소형	-9.93303
▁음성	-9.93315
▁규모	-9.93318
▁바탕	-9.93328
▁알림	-9.93338
▁소민이	-9.93339
▁ago	-9.93355
▁말씀하신	-9.93377
▁헤드	-9.93412
▁power	-9.93413
▁실험	-9.93432
▁바디	-9.93445
▁물류	-9.93449
▁동일한	-9.93466
▁waiting	-9.93512
▁영역	-9.9352
▁seem	-9.93573
▁알려주시기	-9.93577
▁소음	-9.93593
▁minutes	-9.93599
▁크림	-9.93612
▁김치	-9.9362
이었습니다	-9.9363
▁가자	-9.93631
▁나왔	-9.93746
▁구매할	-9.93842
ped	-9.93854
▁기대합니다	-9.93881
▁방송	-9.93946
▁병원	-9.93965
▁지정	-9.9406
▁않으	-9.94099
ary	-9.94134
▁입력	-9.94173
일까지	-9.94203
▁소요	-9.94212
▁앞에	-9.94244
▁그것에	-9.9429
▁대출	-9.9432
▁않아도	-9.94349
했는데	-9.94404
▁공사	-9.94425
▁못한	-9.94431
납	-9.94537
▁하면서	-9.94623
▁판매하고	-9.94884
▁연구팀	-9.94963
하시나요	-9.9504
해드리겠습니다	-9.95081
I	-9.95118
▁맛있는	-9.95132
▁하나요	-9.95135
▁en	-9.95137
C	-9.95147
▁거리	-9.95219
유	-9.9522
▁설명해	-9.95231
▁기분	-9.9528
▁하자	-9.95325
▁additional	-9.95402
▁경제	-9.95414
▁조리	-9.95491
▁내려	-9.95496
▁시기	-9.95691
▁얘	-9.95756
▁됐다	-9.95934
했	-9.95984
▁희망	-9.9605
▁w	-9.96104
i	-9.96137
업	-9.96178
it	-9.9625
▁순간	-9.96286
▁네트워크	-9.96339
▁지불하	-9.96461
tion	-9.96488
▁변	-9.96538
▁했어요	-9.96545
하시겠	-9.96572
일이	-9.96577
내	-9.966
▁새롭	-9.96712
▁갖추	-9.96828
▁돕	-9.96842
한다고	-9.96945
▁플랫폼	-9.97029
▁취	-9.97096
▁효율적	-9.97146
▁준비해	-9.97177
▁서	-9.97248
▁힘들	-9.97274
▁clean	-9.97349
▁노래	-9.97357
▁카	-9.97374
▁전환	-9.9748
▁시즌	-9.97483
▁그리	-9.97539
▁품목	-9.97576
▁따뜻	-9.97617
▁second	-9.97653
▁식	-9.97696
▁라인	-9.97733
▁괜찮	-9.9782
ok	-9.97931
▁워	-9.97956
▁편하	-9.98097
▁닿	-9.98137
▁ship	-9.98151
▁지효	-9.98164
▁매니저	-9.98177
▁조명	-9.98179
▁natural	-9.98187
▁install	-9.98256
▁perfect	-9.98262
▁기쁘	-9.98262
▁업그레이드	-9.98262
▁found	-9.98262
▁나머지	-9.98262
▁proceed	-9.98263
▁단백질	-9.98264
▁finish	-9.98264
▁모니터링	-9.98265
▁마스크	-9.98267
▁언니	-9.9827
▁드론	-9.98282
▁색깔	-9.9829
▁steel	-9.98321
▁choos	-9.98332
▁attached	-9.98351
▁프로	-9.98375
▁his	-9.98388
▁쓸	-9.98394
▁allow	-9.98398
▁자극	-9.98402
▁매운	-9.98408
▁사용하기	-9.98418
▁exist	-9.98423
▁저한테	-9.98523
▁마감	-9.98621
▁티	-9.9868
▁소식	-9.98698
▁부인	-9.98734
프	-9.98785
▁60	-9.98862
▁수요	-9.98921
▁진짜로	-9.98938
▁서명	-9.98983
▁과정에서	-9.99038
▁colors	-9.99101
▁하려고	-9.99102
시는	-9.99124
▁sure	-9.9921
O	-9.99211
▁드리는	-9.99238
▁나이	-9.99245
▁봐봐	-9.99271
▁바라	-9.99425
▁물량	-9.99467
▁N	-9.99645
▁세련	-9.99776
▁종	-9.99788
▁천	-9.99802
▁월	-9.99835
▁하하	-9.99926
▁용이	-9.99934
링	-9.99935
▁단가	-10.0008
시고	-10.0011
석	-10.0013
▁게임을	-10.0018
▁것들	-10.0019
▁doing	-10.0029
명이	-10.003
▁드실	-10.0043
▁시작할	-10.0047
학	-10.0058
개가	-10.0068
하셨던	-10.0072
▁학생들	-10.0075
▁협의	-10.0077
▁행복	-10.008
▁보여주	-10.0094
▁불가능	-10.0095
▁팀이	-10.0115
외	-10.0119
▁배송해	-10.0119
▁진출	-10.0123
▁되는데	-10.0126
퍼	-10.0133
림	-10.0136
▁둘이	-10.0141
▁소비자	-10.0146
▁채	-10.0169
▁제시	-10.0171
▁de	-10.0174
세트	-10.0175
▁배치	-10.0205
▁당	-10.0235
▁팀장님	-10.0236
주로	-10.0247
▁많다	-10.0258
▁라벨	-10.0261
▁허리	-10.0269
▁review	-10.0274
▁On	-10.0278
▁겨울	-10.0285
▁선명	-10.0286
▁주문이	-10.0289
ally	-10.0292
▁밀	-10.0296
▁헤어	-10.0299
▁building	-10.0302
▁북미	-10.031
▁반려동물	-10.0316
▁실제	-10.032
▁13	-10.0326
데요	-10.0329
▁recommend	-10.0333
▁어울	-10.0333
▁부장님	-10.0336
시나요	-10.0338
임	-10.0339
▁협조	-10.0342
▁according	-10.0344
▁첨부해	-10.0346
▁health	-10.0348
▁연출	-10.035
들에	-10.0351
▁영양	-10.0351
▁country	-10.0352
▁convenient	-10.0353
▁독특	-10.0353
▁어쩔	-10.0353
▁옆에	-10.0353
▁쟤	-10.0353
▁체결	-10.0353
▁cool	-10.0353
▁four	-10.0353
▁happy	-10.0353
▁일찍	-10.0353
▁그렇군요	-10.0353
▁usually	-10.0353
▁종종	-10.0354
▁attend	-10.0354
▁편집	-10.0354
▁의향	-10.0354
▁도와드릴까요	-10.0354
▁sound	-10.0354
▁반갑습니다	-10.0354
▁factory	-10.0354
▁safe	-10.0356
▁다릅니다	-10.0357
▁다음주	-10.0357
▁가능하다면	-10.0358
▁화학	-10.0359
▁own	-10.0361
▁코드	-10.0362
▁게다가	-10.0362
▁called	-10.0364
▁중요합니다	-10.0365
▁정신	-10.0367
▁제조업체	-10.037
▁출력	-10.0371
▁소금	-10.0373
▁싶지	-10.0375
▁벽	-10.0379
▁스포츠	-10.038
▁continue	-10.038
▁불만	-10.0381
▁사이에서	-10.0388
▁누나	-10.0388
▁조치	-10.039
▁보실	-10.0392
▁top	-10.0393
▁없고	-10.0395
▁점심	-10.0397
파	-10.0399
▁주제	-10.0399
▁부분에	-10.0404
▁사원	-10.0404
그	-10.0409
▁중에서	-10.0412
▁가스	-10.0428
▁바르	-10.0432
이죠	-10.0434
▁않게	-10.0435
▁include	-10.0437
▁coming	-10.0448
▁수요가	-10.0449
▁wanted	-10.0451
▁있으실	-10.0453
▁face	-10.0453
사는	-10.0454
▁메일에	-10.0461
십니까	-10.0461
▁찍어	-10.0462
▁고민	-10.0471
▁수요일	-10.0473
▁와서	-10.0493
▁고객님들께	-10.0496
영	-10.0496
보고	-10.0498
▁시켜	-10.0502
▁계획이	-10.0503
▁왜요	-10.0503
포	-10.051
▁느낌이	-10.0512
▁live	-10.0518
사에서	-10.0519
▁variet	-10.0524
▁년	-10.0527
▁far	-10.0531
▁일상	-10.0533
an	-10.0543
▁못하고	-10.0544
▁공개	-10.0548
w	-10.0556
▁주시고	-10.0564
▁뜻	-10.0569
바	-10.058
▁도전	-10.0585
▁공격	-10.0588
▁직	-10.0592
▁혁신	-10.0595
▁어우	-10.061
▁상품에	-10.0612
▁비타민	-10.0618
▁사이트	-10.0619
▁주문서	-10.0621
▁전해	-10.0622
▁enter	-10.0625
러운	-10.0635
관리	-10.0651
▁홈페이지에	-10.0661
or	-10.0662
▁한다는	-10.0673
▁연구소	-10.0674
▁진행하는	-10.0678
K	-10.0693
▁별	-10.0704
▁판	-10.0704
▁못해	-10.0715
▁써	-10.0729
▁주인	-10.0745
▁긴	-10.0753
▁사항에	-10.0754
▁표	-10.0756
en	-10.0764
▁수익	-10.0765
▁해결할	-10.0768
이기	-10.078
▁잡아	-10.0784
▁필수	-10.0792
회사	-10.0793
▁몰라	-10.0794
▁의료	-10.0798
▁기술이	-10.0809
▁책상	-10.0813
▁있었	-10.0821
▁문제에	-10.0821
▁현장	-10.0829
갈	-10.0832
있습니다	-10.0837
▁필요하다	-10.084
▁확인해보	-10.0842
▁space	-10.0844
▁신선	-10.0846
▁content	-10.0848
▁지나	-10.0854
0%	-10.086
min	-10.0862
▁밖에	-10.0864
▁카페	-10.0864
▁fit	-10.087
▁대학	-10.0877
▁방문하	-10.0879
▁account	-10.0885
▁잠깐	-10.0894
▁디자인이	-10.0895
셨던	-10.0895
▁하니	-10.0899
▁since	-10.0906
춘	-10.0906
▁discuss	-10.0906
품	-10.0908
&	-10.0908
▁apologize	-10.0908
▁dollars	-10.0908
▁mistake	-10.0908
▁quantity	-10.0908
▁브러시	-10.0908
▁어쨌든	-10.0908
▁왔다	-10.0908
▁좋고	-10.0908
▁wonder	-10.0908
▁첨부파일	-10.0908
▁oil	-10.0908
▁cooperation	-10.0908
▁도입	-10.0908
living	-10.0908
▁마늘	-10.0908
▁another	-10.0909
▁첫째	-10.0909
▁소중	-10.0909
▁무역	-10.0909
▁menu	-10.091
▁five	-10.091
▁압니다	-10.091
▁신호	-10.091
▁실내	-10.0911
▁센서	-10.0911
두	-10.0912
▁관해	-10.0912
▁play	-10.0913
▁completed	-10.0913
▁개별	-10.0913
▁실시간	-10.0913
▁자전거	-10.0915
▁시험	-10.0915
▁냉장고	-10.0915
▁파악	-10.0915
▁미세	-10.0916
▁produce	-10.0916
▁yes	-10.0916
▁보낸	-10.0916
▁있음	-10.0918
▁신용	-10.0918
▁조건에	-10.0918
▁오케이	-10.0918
▁쉽습니다	-10.092
▁생일	-10.0923
▁목록	-10.0929
▁문자	-10.0931
▁렌즈	-10.0937
▁생기	-10.0937
▁보험료	-10.0938
▁생긴	-10.0939
▁안경	-10.094
▁최적화	-10.0942
▁understanding	-10.0943
▁과학	-10.0947
▁프로젝트에	-10.095
▁주차	-10.0952
▁초기	-10.0955
▁같은데요	-10.0955
▁텐데	-10.0961
인치	-10.0965
▁c	-10.0966
▁시트	-10.0968
▁결	-10.0971
▁came	-10.0972
▁들어서	-10.0975
▁거기에	-10.0985
이라도	-10.0986
▁뒤로	-10.0987
▁그렇지만	-10.0988
▁알아야	-10.0991
▁line	-10.1001
▁구독	-10.1017
▁깔끔하	-10.1021
▁보고서	-10.1023
▁미국에서	-10.1024
▁months	-10.1031
▁이쪽	-10.1031
▁드릴까요	-10.1035
▁book	-10.1046
▁픽업	-10.1074
▁온라인으로	-10.1075
▁조용	-10.1075
P	-10.1077
▁구매해	-10.1079
감이	-10.1082
▁곳에	-10.1082
▁버튼을	-10.109
걸	-10.1092
통	-10.1094
▁화면	-10.11
▁일하고	-10.1137
정	-10.1142
▁그랬	-10.1147
▁관리자	-10.1148
▁눈에	-10.116
▁호환	-10.116
으신가요	-10.1166
▁통해서	-10.1167
▁제게	-10.1171
▁정보는	-10.1185
▁집중	-10.1185
별로	-10.1188
▁이후에	-10.1195
재	-10.1209
백	-10.1211
▁만들어졌	-10.1216
지도	-10.1237
▁저장	-10.1251
▁원활	-10.1259
▁걱정하	-10.1268
▁깨	-10.1269
▁하였습니다	-10.1275
▁모르겠	-10.1279
갑	-10.129
액	-10.1295
년간	-10.1297
▁사람은	-10.13
▁바쁘	-10.1315
▁보내드릴	-10.1316
▁fabric	-10.1319
▁보냈	-10.1325
▁보유하	-10.133
▁문의해	-10.1333
▁쓰	-10.1343
▁판매하	-10.1356
▁IT	-10.1363
▁표면	-10.1365
론	-10.1368
▁코스	-10.1372
해주시기	-10.1376
일로	-10.1379
는지	-10.138
T	-10.1385
▁V	-10.1386
한다면	-10.1398
▁call	-10.1399
▁외	-10.1404
▁표현	-10.1413
▁팬츠	-10.1424
▁turn	-10.1425
▁남자	-10.1427
▁요소	-10.1435
▁brand	-10.1435
▁사업이	-10.1436
▁device	-10.1439
▁높아	-10.1443
▁thing	-10.1443
어야	-10.1454
▁effect	-10.1457
복	-10.1471
▁돌려	-10.1474
▁칼	-10.1475
하셔	-10.1477
이니	-10.1478
▁진정	-10.148
▁화상	-10.1482
▁싸	-10.1483
▁인쇄	-10.1483
▁오랜만	-10.1485
▁소매	-10.1487
mber	-10.149
원합니다	-10.1492
▁Go	-10.1494
▁안녕	-10.1495
▁grow	-10.1496
▁Current	-10.1496
▁children	-10.1496
▁explain	-10.1496
▁front	-10.1496
▁industry	-10.1496
▁similar	-10.1496
▁supply	-10.1496
▁yesterday	-10.1496
▁늦게	-10.1496
▁최초	-10.1496
▁특수	-10.1496
▁꼼꼼	-10.1496
▁느낄	-10.1496
▁전소민	-10.1496
▁불구하고	-10.1496
▁드라이브	-10.1496
▁풍부	-10.1497
▁볼륨	-10.1497
▁computer	-10.1497
▁솔직히	-10.1497
▁시리즈	-10.1497
▁주행	-10.1497
▁applied	-10.1498
▁later	-10.1498
▁planning	-10.1498
▁가끔	-10.1498
▁released	-10.1499
▁단단	-10.1499
▁maintain	-10.1499
▁계신가요	-10.1499
▁파손	-10.15
▁보조	-10.1501
▁접수	-10.1501
▁원하신다면	-10.1501
▁low	-10.1502
▁인간	-10.1502
▁사과드립니다	-10.1503
▁맛있어요	-10.1503
▁달리	-10.1504
▁her	-10.1505
▁응용	-10.1505
▁환영합니다	-10.1509
▁스마트폰	-10.151
▁이틀	-10.1512
▁폼	-10.1515
▁어렵	-10.1515
▁head	-10.1515
▁에이	-10.1517
▁모터	-10.1517
▁soft	-10.1518
▁잘못된	-10.1518
▁started	-10.1519
▁해주	-10.152
▁믿습니다	-10.1523
▁가질	-10.1532
▁drinks	-10.1532
▁예쁘다	-10.1534
▁분리	-10.1535
▁출발	-10.1535
▁손해	-10.1535
▁비행기	-10.1539
▁necessary	-10.154
▁asked	-10.1542
▁능력	-10.1544
▁세미나	-10.1544
줘	-10.1549
해주시면	-10.155
▁테이블	-10.1551
▁로고	-10.1555
▁올리	-10.1556
출	-10.1557
▁가야	-10.1567
▁인력	-10.1567
▁오신	-10.1569
▁때마다	-10.1576
▁공부	-10.1579
▁광	-10.1585
▁괜찮은	-10.1587
▁아침에	-10.1588
▁주고	-10.1594
▁번호로	-10.1594
▁정상	-10.1601
▁성과	-10.1601
▁전문으로	-10.1604
▁봐요	-10.1615
▁거라고	-10.1615
드리려고	-10.1627
▁못하	-10.1638
▁우리에게	-10.164
말	-10.1644
▁않다	-10.1647
▁같다	-10.1648
▁있었다	-10.1662
▁안내해	-10.1664
방	-10.1674
카	-10.1681
▁저녁에	-10.1687
S	-10.1696
평	-10.17
▁일정에	-10.1707
▁관리할	-10.1714
▁버	-10.1721
▁해결해	-10.1744
▁캠핑	-10.175
▁기름	-10.1756
역	-10.1766
▁수리	-10.1777
▁알려주시	-10.178
▁싶으	-10.1781
▁축하	-10.1786
▁살아	-10.1791
▁나오	-10.1792
▁가능하	-10.1794
▁시원	-10.1795
▁좋았	-10.1799
▁갔	-10.1799
▁거라	-10.18
▁유지할	-10.181
▁욕실	-10.1813
▁내용이	-10.1827
▁위로	-10.1831
쳐	-10.1837
토	-10.1848
▁계시	-10.1854
▁근처	-10.1863
▁섭취	-10.1874
▁orders	-10.1878
쉽고	-10.1881
낙	-10.1881
억	-10.1881
되	-10.1883
▁답	-10.1883
▁계약에	-10.1897
2,	-10.1906
ical	-10.1906
▁일정이	-10.191
보니	-10.1912
▁버튼	-10.1927
▁들어갈	-10.1939
▁사회	-10.1941
▁보이지	-10.1943
▁좋아해	-10.1944
거리	-10.1945
▁설립	-10.1965
▁드렸	-10.1984
▁밖	-10.1992
▁악	-10.1995
▁충격	-10.1997
▁현대	-10.1998
▁때문이	-10.2006
▁술	-10.2014
▁잠	-10.2019
▁남아	-10.2021
락	-10.2028
▁놀	-10.2032
ight	-10.2034
▁민감	-10.2035
▁미션	-10.2038
으며	-10.2047
▁leave	-10.2057
▁matter	-10.2058
▁레	-10.206
▁model	-10.2064
▁현	-10.2065
임을	-10.2066
▁휴대폰	-10.2069
었으면	-10.2077
▁develop	-10.2083
x	-10.2085
▁가볍	-10.2086
▁골프	-10.2089
▁list	-10.2093
▁hav	-10.2094
▁mak	-10.2099
▁식물	-10.21
▁쿠션	-10.2104
▁운전	-10.2109
료	-10.2109
▁삼	-10.2112
ful	-10.2112
▁잠시	-10.2113
▁체험	-10.2118
▁control	-10.212
▁air	-10.2121
▁create	-10.2121
▁여름	-10.2121
▁딸기	-10.2121
▁실리콘	-10.2121
▁액세서리	-10.2121
▁어차피	-10.2121
▁인테리어	-10.2121
▁재활용	-10.2121
▁천천히	-10.2121
▁스트레스	-10.2121
▁액세스	-10.2121
▁혼합	-10.2121
▁sir	-10.2121
▁마우스	-10.2121
▁worry	-10.2122
▁키보드	-10.2122
▁battery	-10.2122
▁가까운	-10.2122
▁컨트롤러	-10.2122
▁착오	-10.2122
▁직업	-10.2122
관	-10.2123
▁회전	-10.2123
▁치아	-10.2123
▁가이드	-10.2124
▁단위	-10.2124
▁따른	-10.2125
▁접근	-10.2125
▁대답	-10.2125
▁sincere	-10.2126
▁stain	-10.2126
▁hot	-10.2126
▁confirmed	-10.2127
▁유사	-10.2128
▁노하우	-10.2129
▁채널	-10.2129
▁상승	-10.2129
▁연료	-10.2129
▁합리적	-10.213
▁확인하시고	-10.2131
▁sold	-10.2134
▁메시지	-10.2135
▁보내드렸습니다	-10.2135
▁50%	-10.2136
▁recommended	-10.2136
▁투	-10.2139
▁토	-10.2139
▁그림	-10.214
▁뭐예요	-10.214
▁쌀	-10.2141
▁수수료	-10.2141
▁아웃	-10.2142
▁재석이	-10.2144
▁손실	-10.2144
stic	-10.2146
▁모양	-10.2148
▁화물	-10.2148
▁해보	-10.2149
▁문서	-10.2151
▁가정에서	-10.2153
▁문의사항	-10.2163
▁제공되	-10.2166
▁담아	-10.2166
▁results	-10.217
▁성공적	-10.2173
▁쉽지	-10.2174
딩	-10.2176
▁잔	-10.2176
▁잡고	-10.2189
▁light	-10.2189
▁나무	-10.2191
▁주시겠	-10.2195
▁방식으로	-10.22
▁유지하	-10.2203
▁패턴	-10.2219
▁X	-10.222
▁rooms	-10.222
▁거래처	-10.2222
▁되었	-10.2224
▁급한	-10.2226
▁wear	-10.2228
일부터	-10.2229
법	-10.2243
▁얼	-10.226
▁타사	-10.2267
▁않기	-10.2269
▁뿐	-10.2274
▁있을지	-10.2282
▁암	-10.2285
▁된다고	-10.229
▁tea	-10.2294
▁14	-10.2298
▁어디에	-10.2309
▁t	-10.2313
으실	-10.2317
지지	-10.232
▁non	-10.2325
▁갑	-10.2334
▁물론입니다	-10.2348
▁상황에서	-10.2354
▁너무나	-10.2357
루	-10.2361
▁수술	-10.2377
▁확대	-10.2379
▁각도	-10.2385
▁저게	-10.2396
불	-10.2414
▁살펴보	-10.2423
▁명확	-10.2427
▁handle	-10.2429
워	-10.2431
▁Thanks	-10.244
▁고대	-10.2451
▁할게요	-10.2455
쓰고	-10.2467
망	-10.2479
▁되는지	-10.248
▁발생하	-10.2494
▁시장에	-10.2502
달	-10.2503
▁사이	-10.2519
▁편의	-10.2521
▁작	-10.2522
양	-10.2527
타	-10.253
▁해외에서	-10.2532
속	-10.2541
▁개최	-10.2545
디어	-10.2547
각	-10.2561
이므로	-10.2562
중에	-10.2562
▁시스템은	-10.257
▁들어오	-10.257
▁가고	-10.2574
보험	-10.2577
세대	-10.2581
때문에	-10.2592
번째	-10.261
▁사실은	-10.2611
하시기	-10.2617
not	-10.2618
하셨나요	-10.2624
▁며칠	-10.2634
▁손잡이	-10.264
▁베트남	-10.265
▁업계	-10.2655
▁basic	-10.2669
▁라면	-10.2674
▁돌아	-10.2676
▁interest	-10.2681
팅	-10.2689
증	-10.2695
▁짜	-10.2701
시키	-10.2705
력이	-10.2708
▁거고	-10.2713
▁어려움	-10.2718
▁계산	-10.2726
▁suit	-10.2733
▁냉동	-10.2739
된다면	-10.2739
▁short	-10.2754
▁rent	-10.2757
▁조립	-10.2758
지어	-10.2762
▁주시	-10.2763
▁창	-10.277
▁delay	-10.2775
▁조직	-10.2777
raw	-10.2778
▁올려	-10.2781
튼	-10.2786
▁근육	-10.2787
▁빨간	-10.2787
▁Yeah	-10.2788
▁countries	-10.2788
▁금융	-10.2788
▁의뢰	-10.2788
▁훈련	-10.2788
▁simple	-10.2788
▁inventory	-10.2788
▁스틸	-10.2788
▁프로모션	-10.2788
▁아버지	-10.2788
▁center	-10.2788
▁Look	-10.2788
▁영광	-10.2788
▁opportunity	-10.2788
▁스크린	-10.2788
▁wireless	-10.2788
▁proposal	-10.2788
▁floor	-10.2788
▁export	-10.2788
▁Today	-10.2789
▁Really	-10.2789
▁비밀	-10.2789
▁directly	-10.2789
▁fine	-10.2789
▁장갑	-10.2789
▁택배	-10.2789
▁대한민국	-10.2789
▁가능하십니다	-10.2789
▁강철	-10.2789
▁보증금	-10.279
▁참조	-10.279
▁프리	-10.279
▁bring	-10.279
▁연간	-10.2791
▁좋겠어요	-10.2791
▁멋있다	-10.2791
▁스위치	-10.2791
▁공동	-10.2791
▁씨가	-10.2791
▁1000	-10.2793
▁전액	-10.2793
▁supplies	-10.2794
▁white	-10.2796
▁스피커	-10.2796
▁스트랩	-10.2796
▁report	-10.2797
▁inside	-10.2798
▁화장실	-10.2798
▁반품	-10.28
▁strong	-10.28
V	-10.28
▁조회	-10.2801
▁developed	-10.2801
▁자금	-10.2802
▁과일	-10.2804
▁features	-10.2805
▁가상	-10.2809
▁stock	-10.281
▁원하시면	-10.281
▁발주	-10.281
▁wide	-10.2811
▁bas	-10.2819
▁side	-10.282
▁되나	-10.2821
▁유일	-10.2821
▁위하여	-10.2821
▁매트	-10.2822
▁양식	-10.2822
▁프레임	-10.2823
▁만두	-10.2825
▁내역	-10.2825
▁손쉽	-10.2827
▁준비되어	-10.2829
▁방향	-10.2832
▁환불해	-10.2832
▁19	-10.2835
▁사용하세요	-10.2835
▁집이	-10.2835
▁types	-10.2836
▁세제	-10.2837
▁쪽에서	-10.2838
▁출시된	-10.2854
▁선물로	-10.2856
▁제공하기	-10.2856
▁그다음에	-10.286
드릴	-10.2862
▁위성	-10.2863
하다고	-10.2864
▁definite	-10.2875
▁봤어요	-10.2875
▁하셨는데	-10.2876
▁수납	-10.2881
▁용기	-10.2883
▁g	-10.2883
▁않아서	-10.289
▁고르	-10.2892
▁측	-10.2892
▁여기까지	-10.2894
시까지	-10.2901
▁악기	-10.2901
▁5%	-10.2909
▁선수	-10.2912
▁갔다	-10.2919
▁신고	-10.2933
▁회신해	-10.2934
▁이거를	-10.2935
▁선배님	-10.2942
▁금	-10.2945
지를	-10.2955
▁권	-10.2967
▁원인	-10.2968
▁들어가는	-10.2968
▁하죠	-10.2974
시키는	-10.2974
▁분야에	-10.2975
▁상태로	-10.2976
겠네요	-10.2979
▁양사	-10.2986
▁세상	-10.3014
▁법	-10.3015
▁지점	-10.3021
▁의해	-10.3021
▁공간이	-10.3026
▁보완	-10.3028
▁그럼요	-10.3031
▁가정	-10.3033
ach	-10.3035
▁문의하고	-10.3041
내에	-10.3042
B	-10.305
▁명이	-10.3054
을까요	-10.3057
▁출시한	-10.306
용으로	-10.3062
야지	-10.3064
▁품질이	-10.3066
▁외국인	-10.307
▁별로	-10.3073
L	-10.3079
▁안전한	-10.3084
▁구현	-10.3084
▁근무	-10.3093
▁인도	-10.3094
▁고객이	-10.3098
▁진짜요	-10.3098
▁나서	-10.3116
▁이루어	-10.3127
▁needs	-10.313
▁걸어	-10.3146
안	-10.3147
▁hand	-10.3154
▁보내주시	-10.3155
▁출고	-10.3165
▁닭	-10.318
▁사이트에	-10.3184
▁알려드리	-10.3187
▁솔	-10.3201
▁인하	-10.3204
▁친	-10.322
▁견고	-10.3221
시다	-10.3232
자는	-10.3239
처리	-10.3241
었는데	-10.3244
ted	-10.3254
돼	-10.3258
투	-10.3269
▁사이에	-10.3269
at	-10.3275
▁깔끔	-10.3276
겠죠	-10.3279
시켰	-10.3288
on	-10.3288
폭	-10.3295
널	-10.3296
▁이사	-10.3297
▁회의에	-10.3302
▁그에	-10.3305
▁하세요	-10.3313
▁Y	-10.3313
▁규정	-10.3316
▁제출	-10.332
us	-10.3328
▁점은	-10.3336
▁필요하신	-10.3341
10	-10.3341
▁주문할	-10.3341
▁초대	-10.335
▁동의	-10.3351
으니까	-10.3375
▁쉬	-10.3379
▁진행해	-10.3384
▁소개해드리	-10.3405
▁인공지능	-10.3409
었어	-10.3423
▁goods	-10.3427
▁시대	-10.3428
▁exchange	-10.3431
▁보았	-10.3433
▁국물	-10.3433
▁경쟁	-10.3433
▁app	-10.3441
▁가공	-10.3444
▁game	-10.3445
▁result	-10.3447
▁확	-10.3453
▁point	-10.3455
렇게	-10.3455
▁어린	-10.3456
▁음식이	-10.3458
▁최적	-10.3459
▁박스	-10.3461
▁꾸준	-10.3467
▁그러니	-10.3467
▁벌	-10.3474
▁150	-10.3474
▁Th	-10.3475
▁고객분들	-10.3475
▁평균	-10.3478
▁learn	-10.3479
닐	-10.3482
▁connect	-10.3487
▁return	-10.3488
:00	-10.3491
▁바람	-10.3492
▁equip	-10.3501
▁하게	-10.3501
▁idea	-10.3502
자마자	-10.3502
▁엔지니어	-10.3502
▁아름다	-10.3502
눌	-10.3502
▁common	-10.3502
▁블루	-10.3502
▁오븐	-10.3502
▁CCTV	-10.3502
▁global	-10.3502
▁inconvenience	-10.3502
▁녹음	-10.3502
▁다섯	-10.3502
▁다운로드	-10.3502
▁바쁜	-10.3502
▁뽑아	-10.3502
▁샴푸	-10.3502
▁초콜릿	-10.3502
▁핵심	-10.3502
▁group	-10.3502
▁consist	-10.3502
▁particular	-10.3502
▁USB	-10.3502
▁job	-10.3502
▁sleep	-10.3502
▁강아지	-10.3502
▁environment	-10.3502
▁earlier	-10.3502
▁클래식	-10.3502
▁depend	-10.3502
▁화요일	-10.3502
▁통기성	-10.3502
▁chance	-10.3502
▁사부님	-10.3502
▁지석진	-10.3502
▁탄탄	-10.3502
▁양념	-10.3502
▁pretty	-10.3502
▁사운드	-10.3503
▁소민아	-10.3503
▁탄소	-10.3503
▁채팅	-10.3503
▁초안	-10.3503
▁leader	-10.3504
▁합성	-10.3504
▁그래픽	-10.3504
▁equipment	-10.3504
▁수영장	-10.3505
▁정답	-10.3505
▁다름	-10.3506
▁무엇인지	-10.3506
▁축하드립니다	-10.3506
▁변동	-10.3507
▁선택할	-10.3507
▁답장	-10.3508
▁meat	-10.3509
▁드라마	-10.3511
▁영국	-10.3511
▁lower	-10.3511
▁교재	-10.3512
▁머물	-10.3512
▁메인	-10.3513
▁2000	-10.3514
▁올라가	-10.3515
▁20%	-10.3515
▁기원합니다	-10.3516
▁healthy	-10.3517
▁맛있다	-10.3518
▁시스템이	-10.3519
▁reduce	-10.352
▁아유	-10.3523
▁안정성	-10.3524
리는	-10.3525
▁끼	-10.3525
▁좋은데	-10.3527
▁수령	-10.3527
▁진단	-10.3528
▁pro	-10.353
▁유해	-10.353
▁경쟁력	-10.353
▁pre	-10.3531
▁태	-10.3533
▁employees	-10.3533
▁미니	-10.3535
▁청구서	-10.3535
▁봤는데	-10.3539
▁바이러스	-10.354
▁speed	-10.3541
▁내장	-10.3544
▁쓰지	-10.3544
▁level	-10.3556
▁자유롭	-10.356
▁clear	-10.3563
▁아직까지	-10.3565
▁보면서	-10.3567
▁계좌	-10.3569
▁지구	-10.3573
▁마련	-10.3574
받았습니다	-10.3576
▁이중	-10.3577
▁Fro	-10.3579
▁지났	-10.3587
▁것인지	-10.3597
▁미치	-10.3598
▁main	-10.3601
▁예전에	-10.3604
▁도로	-10.361
▁times	-10.362
레	-10.3621
▁여자	-10.3622
▁전력	-10.3625
▁중심	-10.3626
▁전송	-10.3637
▁효과적	-10.3639
져서	-10.3643
▁잡을	-10.3643
었어요	-10.3647
▁마치	-10.3652
▁소유	-10.3652
▁번만	-10.3661
▁신발	-10.3662
처	-10.3664
▁Well	-10.3665
지가	-10.3668
▁모습	-10.367
▁계	-10.3672
▁바지	-10.3676
▁깊이	-10.368
▁크	-10.3681
▁원한다	-10.3682
▁비교해	-10.3685
▁De	-10.3687
▁손으로	-10.3691
해진	-10.3694
▁언급	-10.3694
했다고	-10.3699
▁소개하고	-10.3701
▁분들께	-10.3701
▁용도	-10.3702
▁재생	-10.3703
▁폭	-10.3705
향	-10.3706
▁충전기	-10.3707
▁편리	-10.3718
▁배출	-10.3727
▁움직이	-10.373
▁납	-10.3743
▁싫어	-10.3755
▁weeks	-10.3768
강	-10.3771
▁주의	-10.3788
▁도매상	-10.3791
▁전국	-10.3792
▁색	-10.3803
to	-10.3812
▁looks	-10.3816
듯이	-10.3816
▁없는데	-10.3819
▁디자인과	-10.3832
▁피자	-10.385
▁짐	-10.3852
▁못할	-10.3859
막	-10.3869
▁준	-10.3885
▁보이	-10.3885
절	-10.3888
노	-10.3891
▁대략	-10.3893
▁나를	-10.3914
▁혁신적	-10.3923
0	-10.3949
▁회계	-10.3959
▁사용한	-10.3963
코	-10.3989
▁집은	-10.3994
▁받았	-10.3996
▁Ji	-10.4016
▁이용하	-10.4017
▁방법은	-10.4019
▁전달해	-10.4022
였	-10.4025
▁대표님	-10.4027
▁울	-10.4027
▁항목	-10.4034
뿐	-10.4034
인가	-10.4042
충	-10.4042
▁기존에	-10.4049
철	-10.4056
▁날씨	-10.4061
올	-10.4062
암	-10.4067
책	-10.407
FFF	-10.4076
▁디	-10.4081
▁ga	-10.4085
▁드리지	-10.4086
▁났	-10.4092
탄	-10.4098
으나	-10.4104
▁나누	-10.4105
▁군	-10.4114
하죠	-10.4116
▁활성화	-10.4119
▁17	-10.412
▁fun	-10.4124
▁효율	-10.4138
▁기사	-10.4151
▁W	-10.4153
▁쓰는	-10.4157
▁old	-10.4158
▁smart	-10.4161
▁받아보	-10.4164
▁tri	-10.4169
ty	-10.4169
▁목적	-10.4184
▁외국	-10.4184
▁됐	-10.4188
▁그다음	-10.4189
▁피해	-10.4205
light	-10.4206
▁platform	-10.4207
▁camera	-10.421
▁내년	-10.4211
▁image	-10.4213
▁내부에	-10.4219
▁형성	-10.422
▁중간	-10.4222
▁마이크	-10.4236
사가	-10.4237
▁팩	-10.4241
▁minute	-10.4241
▁study	-10.4247
▁알아보	-10.4253
▁비누	-10.4257
▁도와주	-10.4257
▁왔어	-10.4257
▁whe	-10.4259
▁quick	-10.4265
term	-10.4266
▁젊은	-10.4268
▁wholesale	-10.4268
▁유연	-10.4269
▁비싼	-10.427
▁밴드	-10.427
▁최상	-10.4271
▁태양	-10.4271
:	-10.4271
▁SNS	-10.4272
▁South	-10.4272
▁coffee	-10.4272
▁family	-10.4272
▁professional	-10.4272
▁quit	-10.4272
▁remember	-10.4272
▁surface	-10.4272
▁toothpaste	-10.4272
▁wrong	-10.4272
▁나눠	-10.4272
▁냄비	-10.4272
▁녹차	-10.4272
▁메이크업	-10.4272
▁밝은	-10.4272
▁알루미늄	-10.4272
▁영수증	-10.4272
▁오디오	-10.4272
▁최우선	-10.4272
▁특성	-10.4272
▁하드웨어	-10.4272
껏	-10.4272
▁relationship	-10.4272
▁value	-10.4272
▁morning	-10.4272
▁아이스크림	-10.4272
▁식탁	-10.4272
▁million	-10.4272
▁CEO	-10.4272
▁security	-10.4272
▁CCC	-10.4272
▁popular	-10.4272
▁반려견	-10.4272
▁액체	-10.4272
▁automatic	-10.4272
▁limit	-10.4272
▁조합	-10.4272
▁pork	-10.4272
▁보습	-10.4272
▁벨트	-10.4272
▁everyone	-10.4272
▁스탠드	-10.4272
▁자연스럽게	-10.4272
▁Kim	-10.4273
▁버전	-10.4273
▁below	-10.4273
▁달려	-10.4273
▁소통	-10.4273
▁매달	-10.4273
▁무서워	-10.4273
▁장난감	-10.4273
▁잠금	-10.4273
▁질병	-10.4273
▁자외선	-10.4273
▁팩스	-10.4273
▁감사드리며	-10.4274
▁메모리	-10.4274
▁잠시만	-10.4274
▁여쭤봐	-10.4275
▁그룹	-10.4276
▁carefully	-10.4276
▁table	-10.4277
▁deal	-10.4277
▁신용카드	-10.4278
▁의류	-10.4278
▁눌러	-10.4278
▁백신	-10.4278
▁아예	-10.4279
▁자꾸	-10.4279
▁마사지	-10.4279
▁구비	-10.428
▁쓰레기	-10.428
▁프로세스	-10.4281
▁risk	-10.4281
▁쿠폰	-10.4281
▁saw	-10.4281
▁그렇습니다	-10.4281
▁expected	-10.4281
▁어떨까요	-10.4281
▁금속	-10.4281
▁original	-10.4281
▁상상	-10.4283
▁채소	-10.4283
▁read	-10.4285
▁보이는	-10.4285
▁하시	-10.4285
▁납기	-10.4285
▁나왔어요	-10.4287
▁있네	-10.4287
▁현실	-10.429
▁type	-10.429
▁오셔서	-10.4291
▁종국이	-10.4291
▁거기서	-10.4292
▁이때	-10.4294
▁팁	-10.4297
▁탄력	-10.4299
하셨다	-10.4308
▁했던	-10.4309
▁유기	-10.4309
▁들어와	-10.431
경	-10.4314
▁봅니다	-10.4315
년이	-10.4316
▁물어보	-10.4319
▁일어	-10.432
▁않아요	-10.4321
▁진행하기	-10.4325
▁키트	-10.4325
▁같아서	-10.4327
ique	-10.4329
▁떨어지	-10.4329
▁놓치	-10.433
▁너는	-10.4331
▁진실	-10.4333
▁만나보	-10.4342
▁대면	-10.4342
one	-10.4345
p	-10.4349
▁지방	-10.4352
▁operate	-10.4359
▁빵	-10.4363
▁remove	-10.4364
▁sea	-10.4364
▁꽃	-10.4367
▁골	-10.4368
▁이해합니다	-10.4368
▁다니	-10.4369
▁배송비	-10.437
▁확인하기	-10.4372
▁케어	-10.4388
▁통과	-10.439
▁맞지	-10.4392
▁외에	-10.4396
▁금액이	-10.4404
▁만들기	-10.4408
▁0	-10.4432
▁상태에서	-10.4432
▁청	-10.4434
▁개발하고	-10.4436
▁처음으로	-10.4451
el	-10.4451
▁줄이	-10.4454
▁바다	-10.446
▁Hi	-10.4467
▁내년에	-10.4475
▁적응	-10.4478
▁problems	-10.4482
▁불편함	-10.4487
▁move	-10.4502
▁하나만	-10.4518
▁된다면	-10.4532
▁들었어	-10.4545
▁들을	-10.4558
대를	-10.4566
▁미래에	-10.457
얼	-10.4579
▁쪽으로	-10.4596
티	-10.4598
▁감동	-10.4609
▁주기	-10.4617
▁죄송하	-10.4628
▁현상	-10.463
▁m	-10.463
▁hands	-10.4632
▁업로드	-10.4637
했어	-10.4638
▁장기적	-10.4647
▁less	-10.4648
드려요	-10.4657
▁PC	-10.4658
▁승인	-10.4662
▁손님들	-10.4666
▁모니터	-10.4666
▁장기	-10.4667
▁채워	-10.4668
b	-10.4668
▁아는	-10.4684
▁모르	-10.4691
▁가요	-10.4706
▁share	-10.4712
▁봐야	-10.4715
▁지급	-10.4718
생	-10.4718
▁그거는	-10.4723
ine	-10.4724
으세요	-10.4725
▁혼	-10.4736
버	-10.4737
▁패션	-10.4738
▁상자	-10.474
▁학생	-10.474
▁cause	-10.4742
19	-10.4748
▁아니다	-10.4753
▁꿈	-10.4754
▁박	-10.4757
키	-10.4761
▁inter	-10.4765
었다	-10.4774
▁자산	-10.4778
▁진행되	-10.4798
▁저렴	-10.4803
▁자재	-10.4807
톤	-10.4807
▁호텔이	-10.4808
▁상품으로	-10.4811
업체	-10.4812
▁증가하	-10.4813
결	-10.4814
밥	-10.4818
킹	-10.4824
▁내어	-10.4845
약	-10.4851
봉	-10.4854
탕	-10.4868
농	-10.4882
▁메	-10.4885
▁경험해	-10.4886
▁기대하	-10.4889
센터	-10.4895
▁구매한	-10.4901
▁돌아가	-10.4902
time	-10.4905
quality	-10.4907
▁차가	-10.4919
▁담당자님	-10.4921
볼게요	-10.4926
▁선택이	-10.493
▁적극	-10.4938
▁includ	-10.4943
킬	-10.4944
▁당사에	-10.4946
▁얘기해	-10.4948
▁Co	-10.4949
▁미디어	-10.4963
the	-10.4963
▁단지	-10.4967
으로도	-10.4979
▁넉넉	-10.4992
is	-10.5001
▁아빠	-10.5018
빈	-10.5023
▁70	-10.5023
▁주말	-10.5024
▁나한테	-10.5026
▁재미	-10.503
▁다해	-10.5031
▁준비한	-10.5038
▁temperature	-10.5041
▁뉴스	-10.5042
▁여러분들	-10.5043
▁site	-10.5045
▁function	-10.5045
▁application	-10.5046
▁vehicle	-10.5046
▁알았	-10.5047
▁machine	-10.5048
▁question	-10.5051
▁베	-10.5058
▁하여	-10.5074
▁놀라	-10.5075
▁형태	-10.5079
▁그립	-10.5086
주신다면	-10.5087
▁adjust	-10.5089
▁고마워	-10.509
닌	-10.5091
▁아닌데	-10.5092
▁seat	-10.5093
▁dig	-10.5095
▁require	-10.5097
▁나왔어	-10.5097
▁decide	-10.5097
▁면	-10.5098
▁끝난	-10.5098
▁pick	-10.5099
▁Wi	-10.5101
▁manage	-10.5103
함으로써	-10.5103
틴	-10.5104
▁허브	-10.5104
▁import	-10.5105
큽	-10.5105
▁칭찬	-10.5105
▁According	-10.5105
▁Internet	-10.5105
▁cover	-10.5105
▁entire	-10.5105
▁fresh	-10.5105
▁gift	-10.5105
▁response	-10.5105
▁staff	-10.5105
▁규칙	-10.5105
▁나쁜	-10.5105
▁목소리	-10.5105
▁밑에	-10.5105
▁바꿔	-10.5105
▁캐나다	-10.5105
▁display	-10.5105
▁Japan	-10.5105
▁method	-10.5105
▁스스로	-10.5105
▁괜찮으시다면	-10.5105
▁remain	-10.5105
▁더불어	-10.5105
▁스트리밍	-10.5105
▁휴식	-10.5105
▁번거롭	-10.5105
▁regular	-10.5105
▁mind	-10.5105
▁묻	-10.5105
▁연습	-10.5105
▁뷰티	-10.5105
▁소셜	-10.5105
▁trust	-10.5105
▁이어폰	-10.5105
▁결국	-10.5105
▁Come	-10.5105
▁presentation	-10.5105
▁관찰	-10.5105
▁김종국	-10.5106
▁도시락	-10.5106
▁solve	-10.5106
▁감각	-10.5106
▁attention	-10.5106
▁신규	-10.5106
▁의약품	-10.5106
▁listen	-10.5106
▁원하십니까	-10.5106
▁어깨	-10.5106
▁마침	-10.5106
▁Sure	-10.5106
▁도보	-10.5107
▁지키	-10.5107
▁신용장	-10.5108
▁고속	-10.5108
▁touch	-10.5109
▁separately	-10.5109
▁침실	-10.5109
▁불러	-10.511
▁completely	-10.5111
▁10,000	-10.5111
▁soup	-10.5111
▁연주	-10.5111
▁향후	-10.5112
▁경영	-10.5113
▁나올	-10.5113
▁나노	-10.5113
▁누르면	-10.5113
▁writing	-10.5114
▁expensive	-10.5115
▁location	-10.5115
▁납입	-10.5115
▁바이오	-10.5115
▁프로필	-10.5115
▁패널	-10.5115
▁압력	-10.5115
▁두피	-10.5116
▁급여	-10.5116
▁1,000	-10.5116
▁goes	-10.5118
▁착용감	-10.5118
▁복잡한	-10.5119
▁싶었습니다	-10.5119
▁생명	-10.512
거든	-10.512
▁30%	-10.5121
▁부위	-10.5121
▁가져다	-10.5121
▁중단	-10.5123
▁갖다	-10.5123
▁주문해	-10.5124
▁알았습니다	-10.5124
▁칫솔	-10.5124
▁끝까지	-10.5125
▁실적	-10.5125
▁washing	-10.5125
▁늘어	-10.5126
▁Here	-10.5127
▁성함	-10.5129
▁냈	-10.513
ml	-10.513
▁되세요	-10.5132
▁있잖아요	-10.5132
▁성인	-10.5133
▁무엇이	-10.5133
▁state	-10.5135
▁구매하시면	-10.5138
▁누락	-10.5138
▁둘째	-10.5139
점이	-10.5139
▁공학	-10.514
▁지켜	-10.5141
▁패	-10.5141
▁자연스러	-10.5146
▁hit	-10.5146
▁상관없	-10.515
▁부부	-10.515
phy	-10.515
▁정식	-10.5151
▁conditions	-10.5156
▁되죠	-10.5158
▁관련해서	-10.5158
들고	-10.5158
na	-10.5159
▁설계되었	-10.5165
▁할인해	-10.5169
▁그래야	-10.5171
▁points	-10.5171
▁점수	-10.5175
▁튼튼	-10.5175
하지만	-10.5176
▁매장에서	-10.5177
▁시작했습니다	-10.5179
▁분들에게	-10.5181
▁되도록	-10.5189
▁했다	-10.519
▁사무실에	-10.5193
▁깔끔한	-10.5203
▁heart	-10.5205
▁작가	-10.5205
▁침	-10.5206
▁무상	-10.5207
▁위치하고	-10.5207
▁원가	-10.5209
▁이루어지	-10.5212
▁받습니다	-10.5212
▁설명서	-10.5216
악	-10.5226
▁있나	-10.5232
▁선정	-10.5236
▁정도면	-10.5242
▁좋다고	-10.5244
▁일하는	-10.5255
▁회의실	-10.5261
ness	-10.5261
▁마음으로	-10.5265
▁크기로	-10.5269
▁시작합니다	-10.5269
▁시작하기	-10.5271
▁느껴	-10.5273
▁기능성	-10.5279
달라고	-10.5283
▁거실	-10.5289
▁되겠	-10.5297
▁싶어서	-10.5298
준	-10.5303
▁지불할	-10.5305
월에	-10.5306
▁아마도	-10.5311
▁하니까	-10.5312
▁오전에	-10.5326
된다	-10.5326
▁교통	-10.5335
▁이유로	-10.5336
▁몸이	-10.5352
▁예약할	-10.5356
이든	-10.5359
▁남은	-10.536
▁찾기	-10.5367
▁색상으로	-10.5371
▁재배	-10.5372
ch	-10.538
▁기관	-10.5384
▁할까요	-10.5384
▁세탁기	-10.5396
▁절	-10.5407
▁대기	-10.5431
▁건조기	-10.5431
받	-10.5433
▁흡수	-10.5442
기로	-10.5463
▁세계적	-10.5464
국	-10.5491
▁내에서	-10.5498
▁사정	-10.5505
▁고객과	-10.5509
▁필요로	-10.5514
▁위생적	-10.5519
▁종이	-10.552
▁access	-10.5521
▁Hu	-10.5521
▁읽어	-10.5533
▁예정이	-10.5535
▁해야지	-10.554
▁당사에서	-10.5557
▁표정	-10.5565
▁말씀이	-10.5572
▁없기	-10.5575
놓	-10.5578
해주실	-10.5594
▁재질	-10.5596
▁개발에	-10.5606
언	-10.5608
병	-10.5614
▁소식이	-10.5618
selling	-10.5618
▁참고하시	-10.5625
▁들어간	-10.5628
▁invite	-10.5649
근	-10.565
▁활용한	-10.5652
▁발라	-10.5654
분들	-10.5657
▁이메일에	-10.5667
등이	-10.5668
▁지속되	-10.5693
▁색상이	-10.5701
▁몰랐	-10.571
▁Be	-10.5716
▁착	-10.5725
▁떡	-10.5729
▁긴장	-10.573
▁성	-10.5746
하네	-10.5754
광	-10.5756
▁잘했어	-10.5758
청	-10.5758
▁황	-10.5761
다니	-10.5762
▁kg	-10.5764
day	-10.5766
희	-10.5766
주시고	-10.577
▁Un	-10.577
▁가능한지	-10.577
Fi	-10.5772
▁역	-10.5772
▁가능하신	-10.5778
글	-10.5783
▁내용에	-10.5784
▁동료	-10.5784
혀	-10.5787
▁찍	-10.5792
찬	-10.5798
창	-10.5807
ese	-10.5811
었죠	-10.5812
PS	-10.5819
건가요	-10.5821
8	-10.5823
▁평	-10.5828
▁선택해	-10.5837
▁대응	-10.5839
원이	-10.5854
▁그러네	-10.587
▁목요일	-10.5882
▁존재	-10.5902
▁단순	-10.5903
▁주시는	-10.5904
▁싶으신	-10.5911
▁하이	-10.5911
션	-10.5913
으니	-10.5918
니깐	-10.5934
▁arrive	-10.5937
밍	-10.5941
6	-10.5945
▁야외	-10.5949
▁choice	-10.595
▁supplier	-10.595
▁관광	-10.5951
▁program	-10.5953
50	-10.5953
▁자리에	-10.5954
▁condition	-10.5956
률	-10.5957
▁좋게	-10.5958
▁driv	-10.5958
▁drink	-10.5959
▁item	-10.596
째로	-10.5964
▁괜찮을	-10.5965
▁발생하는	-10.5968
▁입장에서	-10.5972
▁하던	-10.5978
▁먼	-10.5985
▁생겨	-10.5986
▁season	-10.5986
▁예방	-10.5987
▁prevent	-10.5989
▁감소	-10.5995
▁기념	-10.5995
▁괜찮으	-10.5995
▁익	-10.5997
▁120	-10.5998
▁걸리	-10.5999
▁complete	-10.5999
▁먹어야	-10.6005
▁호	-10.6008
ility	-10.6011
▁제발	-10.6011
▁추출	-10.6013
▁built	-10.6014
▁minim	-10.6014
▁캐릭터	-10.6014
▁monitor	-10.6014
▁powder	-10.6014
▁respond	-10.6014
▁달걀	-10.6014
▁라이선스	-10.6014
▁레시피	-10.6014
▁벤처	-10.6014
▁붙어	-10.6014
▁블루투스	-10.6014
▁숫자	-10.6014
▁유재석	-10.6014
▁획득	-10.6014
▁fair	-10.6014
▁immediately	-10.6014
▁쾌적	-10.6014
▁motor	-10.6014
▁라디오	-10.6014
▁스캔	-10.6014
▁페인트	-10.6014
▁디테일	-10.6014
▁general	-10.6014
▁facilities	-10.6014
▁refer	-10.6014
▁smell	-10.6014
▁transportation	-10.6014
▁clothes	-10.6014
▁애플리케이션	-10.6014
▁멀티	-10.6014
▁화이트	-10.6014
▁동영상	-10.6014
▁local	-10.6014
▁요새	-10.6014
▁안타깝게도	-10.6014
▁트레일러	-10.6014
▁shipping	-10.6014
▁염색	-10.6014
▁귀엽	-10.6014
▁발효	-10.6014
▁스프레이	-10.6014
▁Last	-10.6014
▁영감	-10.6014
▁파트너십	-10.6014
▁비롯	-10.6014
▁양측	-10.6015
▁외관	-10.6015
▁균형	-10.6015
▁종료	-10.6015
▁몇몇	-10.6015
▁계십니다	-10.6015
▁부채	-10.6015
▁완화	-10.6015
▁가짜	-10.6015
▁임대료	-10.6015
있게	-10.6015
▁Right	-10.6015
▁소포	-10.6016
▁있으므로	-10.6016
▁선박	-10.6017
▁주문했었	-10.6017
합시다	-10.6017
▁anytime	-10.6017
▁어때요	-10.6017
▁상호	-10.6017
▁보충	-10.6018
▁세찬이	-10.6018
▁인공	-10.6018
▁결론	-10.6018
▁지퍼	-10.6018
▁past	-10.6018
▁유연성	-10.6019
▁책정	-10.6019
ital	-10.6019
▁Have	-10.602
▁feet	-10.602
▁사본	-10.6022
▁뇌	-10.6025
▁rich	-10.6025
▁조금씩	-10.6025
▁좌석	-10.6025
▁어머니	-10.6025
▁raise	-10.6025
▁습관	-10.6026
▁통관	-10.6027
▁warm	-10.6027
▁바라며	-10.6029
▁song	-10.6029
▁Uni	-10.603
▁줘	-10.603
▁보내드린	-10.6032
▁맛집	-10.6032
스트	-10.6032
▁털	-10.6032
▁하나씩	-10.6032
▁cooking	-10.6032
▁환	-10.6032
▁계약이	-10.6034
▁itself	-10.6034
▁부산	-10.6035
▁각질	-10.6036
▁허가	-10.604
▁red	-10.604
▁added	-10.604
▁requested	-10.604
이네	-10.604
▁독자	-10.6041
▁않는다면	-10.6043
▁dai	-10.6043
▁투명	-10.6043
▁씁	-10.6044
▁트럭	-10.6044
▁작품	-10.6045
▁우유	-10.6045
▁준비하겠습니다	-10.6048
▁과장님	-10.605
▁민	-10.6052
▁영업팀	-10.6053
▁조식	-10.6053
▁28	-10.6053
▁편의성	-10.6054
▁홀	-10.6057
▁benefits	-10.606
▁방향으로	-10.6061
▁고급스러	-10.6061
▁측에서	-10.6062
▁춤	-10.6063
▁단체	-10.6064
▁알려드리고	-10.6065
▁가볍고	-10.6066
▁적용하여	-10.6066
▁아시아	-10.6066
▁괜찮아요	-10.6067
▁예산	-10.6067
▁게시	-10.6068
▁열리는	-10.6069
▁투어	-10.6071
▁덕	-10.6073
▁machines	-10.6076
▁functions	-10.6076
▁편리한	-10.6076
▁어울리는	-10.6077
▁받아야	-10.6078
▁fan	-10.6079
▁끝내	-10.6081
▁타입	-10.6083
▁찰	-10.6083
▁바퀴	-10.6084
▁다수	-10.6084
▁맞추어	-10.6085
▁앞에서	-10.6085
▁그날	-10.609
▁relat	-10.6091
▁ra	-10.6095
▁마시고	-10.6096
▁습기	-10.61
▁뭐라고	-10.6101
c	-10.6103
▁뼈	-10.6103
▁3%	-10.6104
▁books	-10.6106
▁스튜디오	-10.6109
▁펜	-10.6111
▁wash	-10.6111
▁제공되는	-10.6113
▁주말에	-10.6117
▁음식점	-10.6119
▁needed	-10.6121
로우	-10.6121
▁합의	-10.6122
▁개념	-10.6127
▁노고	-10.6131
▁들리	-10.6136
▁터치	-10.6144
▁사업에	-10.6147
▁변경하고	-10.6149
▁costs	-10.6152
▁없게	-10.6154
▁검토해	-10.6157
▁정리해	-10.6157
▁용	-10.6158
해보세요	-10.6159
▁하신다면	-10.6159
▁둔	-10.6163
▁질환	-10.6163
권을	-10.6164
▁활용도	-10.6167
▁21	-10.617
▁Du	-10.6174
드릴까요	-10.618
▁맨	-10.6181
▁팔리	-10.6189
▁끝에	-10.6199
▁매장에	-10.62
더라고	-10.6203
▁환경에서	-10.6203
▁자원	-10.6211
▁file	-10.6213
▁전면	-10.6216
▁수치	-10.6216
age	-10.6218
▁지역에서	-10.6218
▁그렇다	-10.622
▁가져가	-10.6221
▁창고에	-10.6223
으셔	-10.623
ig	-10.6231
▁말씀하시는	-10.6234
▁받아들	-10.6244
▁부모님	-10.6251
▁병원에	-10.6257
▁측정기	-10.626
▁고객님들이	-10.6267
▁거를	-10.627
▁확인하는	-10.6271
▁샘플과	-10.6276
▁추진	-10.6281
▁왕	-10.6281
▁상관	-10.6291
▁퍼	-10.6295
▁형식	-10.6306
▁compare	-10.6306
▁찾아보	-10.632
▁먹어보	-10.633
▁시공	-10.633
님께서	-10.6336
▁돼지	-10.6336
▁거리에	-10.6337
전에	-10.6349
de	-10.6352
▁곳에서	-10.636
▁작업이	-10.637
▁후기	-10.6371
▁일자	-10.6379
▁생각한다	-10.6382
▁이곳	-10.6391
▁중요	-10.6398
▁님	-10.6408
▁제조사	-10.6409
▁감상	-10.6421
nd	-10.6422
▁꺼	-10.6423
렸습니다	-10.6428
9	-10.6438
▁그쪽	-10.6442
▁절감	-10.6442
▁form	-10.6453
▁것보다	-10.6456
▁확인해야	-10.651
▁그때는	-10.6515
김	-10.6516
▁뭐지	-10.654
술	-10.654
▁걸로	-10.6541
▁즐겨	-10.6553
▁시도	-10.6576
▁반응이	-10.6582
ng	-10.6589
▁믿을	-10.6612
▁기분이	-10.6631
▁점에	-10.6636
▁보자	-10.6647
▁제주	-10.6654
민	-10.6663
ar	-10.6663
▁Re	-10.6665
▁투자자	-10.6667
▁페이지	-10.6667
▁주변에	-10.6668
▁화	-10.6669
▁사용하시	-10.6674
▁일단은	-10.6674
커	-10.6676
▁간편하	-10.6683
▁움직	-10.6686
▁없으	-10.669
시로	-10.6697
▁안으로	-10.671
▁해주세요	-10.6713
잉	-10.6715
▁호텔에	-10.6718
▁낼	-10.6718
골	-10.6719
▁취급	-10.672
기술	-10.6723
손	-10.6725
박스	-10.674
▁하나로	-10.6743
▁아래에	-10.6744
▁본인	-10.6754
▁투입	-10.6761
장치	-10.6761
▁물이	-10.6763
▁회복	-10.6767
오니	-10.6786
▁맞추	-10.6788
▁디자인에	-10.6789
▁heat	-10.6793
▁테	-10.6795
곡	-10.6798
번호	-10.681
잔	-10.6812
special	-10.6817
▁프로그램에	-10.6821
▁조작	-10.6822
▁체크	-10.6824
럽게	-10.6831
W	-10.6831
▁구입할	-10.6833
▁역사	-10.6835
바로	-10.6839
▁super	-10.6841
다른	-10.6843
nce	-10.6846
ated	-10.6851
하네요	-10.6854
▁간다	-10.6867
▁논	-10.6882
▁슬	-10.6898
기만	-10.6902
▁매물	-10.6906
▁구매하신	-10.6908
▁스파	-10.692
▁합	-10.6925
▁동작	-10.6927
▁22	-10.6929
▁invoice	-10.6943
▁transaction	-10.6943
▁bank	-10.6943
▁지난주	-10.6948
▁이상적	-10.6952
▁final	-10.6956
렸	-10.6965
됐습니다	-10.6965
더라도	-10.6969
be	-10.697
▁줄여	-10.698
이네요	-10.6982
▁focus	-10.6986
롭게	-10.6987
▁모르는	-10.6989
▁환영	-10.6992
▁build	-10.6992
▁35	-10.6993
▁나타	-10.6994
▁press	-10.6996
▁이력	-10.6997
▁일에	-10.6999
▁suggest	-10.6999
▁지하철	-10.7
▁deposit	-10.7
▁expect	-10.7001
▁회원	-10.7004
▁웃	-10.7004
▁purpose	-10.7004
▁교	-10.701
ance	-10.7011
곤	-10.7012
▁glass	-10.7012
▁컨트롤	-10.7013
▁있으니까	-10.7013
▁multi	-10.7014
▁catalog	-10.7014
▁Two	-10.7014
▁afternoon	-10.7014
▁guarantee	-10.7014
▁increasing	-10.7014
▁major	-10.7014
▁manufacturing	-10.7014
▁participate	-10.7014
▁period	-10.7014
▁position	-10.7014
▁positive	-10.7014
▁spoon	-10.7014
▁wow	-10.7014
▁넓어	-10.7014
▁뭔지	-10.7014
▁브러쉬	-10.7014
▁양세찬	-10.7014
▁왼쪽	-10.7014
▁저작권	-10.7014
▁태블릿	-10.7014
▁피규어	-10.7014
▁피아노	-10.7014
꽉	-10.7014
▁difference	-10.7014
▁financial	-10.7014
▁가성비	-10.7014
▁아무것도	-10.7014
▁용접	-10.7014
▁고양이	-10.7014
▁벌칙	-10.7014
▁얼룩	-10.7014
▁steam	-10.7014
▁싱글	-10.7014
▁nervous	-10.7014
▁Would	-10.7014
▁원자재	-10.7014
▁Who	-10.7014
▁매트리스	-10.7014
▁single	-10.7014
▁dome	-10.7014
▁레이저	-10.7014
▁절약	-10.7014
▁슬림	-10.7014
▁trade	-10.7014
▁range	-10.7014
▁토요일	-10.7014
▁texture	-10.7015
▁맛있겠다	-10.7015
▁credit	-10.7015
▁어묵	-10.7015
▁빨간색	-10.7015
▁운반	-10.7015
▁맨날	-10.7015
▁경량	-10.7015
▁terms	-10.7015
▁cut	-10.7016
▁직물	-10.7016
▁필요하시다면	-10.7016
▁true	-10.7016
▁멀리	-10.7016
▁재무	-10.7016
▁metal	-10.7016
▁actually	-10.7016
▁소량	-10.7016
▁baby	-10.7017
▁사례	-10.7017
▁권장	-10.7017
▁계란	-10.7017
▁택시	-10.7017
▁early	-10.7017
▁States	-10.7017
▁미쳤다	-10.7018
▁60%	-10.7018
▁traditional	-10.7018
▁대안	-10.7018
▁가전제품	-10.7018
▁누군가	-10.7019
▁worn	-10.7019
▁예정인가요	-10.7019
▁용어	-10.7019
▁응원	-10.7019
▁break	-10.7019
▁만족스러	-10.7019
▁ready	-10.702
▁가능하니	-10.7021
▁원두	-10.7021
▁dry	-10.7021
▁원하시나요	-10.7021
▁마련되어	-10.7022
▁$	-10.7023
▁manufacture	-10.7023
▁영지	-10.7024
▁공연	-10.7026
▁한옥	-10.7026
▁와이프	-10.7026
▁인프라	-10.7026
▁쥐	-10.7026
▁셔츠	-10.7026
▁demand	-10.7026
▁핸드폰	-10.7026
▁safely	-10.7027
▁퇴근	-10.7027
▁connection	-10.7027
▁층	-10.7028
▁와우	-10.7028
▁건축	-10.7028
▁선사합니다	-10.7028
▁consumers	-10.7029
▁role	-10.7029
▁사장님께서	-10.703
▁타임	-10.7031
▁에어	-10.7031
▁By	-10.7031
▁않지만	-10.7032
▁재산	-10.7032
▁AS	-10.7032
▁meal	-10.7032
▁맥주	-10.7032
▁동현이	-10.7033
▁weather	-10.7033
▁이겨	-10.7034
▁documents	-10.7035
▁잘해	-10.7036
▁공용	-10.7036
▁식기	-10.7037
▁대리점	-10.7038
▁드시고	-10.7038
▁view	-10.704
▁90	-10.704
▁없지만	-10.704
▁signed	-10.7041
▁처음부터	-10.7042
▁마찬가지로	-10.7043
▁Ha	-10.7043
▁베개	-10.7043
▁감성	-10.7043
▁40%	-10.7044
▁운동화	-10.7047
▁빅	-10.7047
▁half	-10.7047
▁stop	-10.7047
▁플러그	-10.7047
▁신문	-10.705
▁응답	-10.705
▁자신감	-10.7051
▁대체	-10.7051
히려	-10.7052
▁가수	-10.7054
▁met	-10.7056
▁중요성	-10.7056
▁육수	-10.7056
▁장사	-10.7057
▁누구야	-10.7057
▁의심	-10.7058
▁끝났어	-10.7059
▁연락드렸	-10.7059
sical	-10.7061
▁적당한	-10.7061
▁거잖아요	-10.7061
▁마이크로	-10.7062
▁염	-10.7063
▁독	-10.7064
▁넘어가	-10.7064
▁오면	-10.7064
▁shape	-10.7064
▁장점이	-10.7064
▁가능하여	-10.7065
▁안타깝	-10.7065
▁바라보	-10.7067
▁27	-10.7068
눈이	-10.707
▁생겨서	-10.707
▁없다면	-10.707
▁형태로	-10.7071
▁부문	-10.7073
▁수립	-10.7073
▁저랑	-10.7074
▁법인	-10.7074
▁부탁드리	-10.7076
▁provided	-10.7077
▁좋겠	-10.7079
▁확실한	-10.708
▁업체들	-10.7081
▁드시는	-10.7084
▁class	-10.7085
▁리스트를	-10.7085
▁활성	-10.7085
▁각자	-10.7086
▁식감	-10.7088
▁나가는	-10.7088
▁쭉	-10.7091
▁룸	-10.7091
▁남기	-10.7093
ife	-10.7094
▁대리	-10.7095
▁공장에서	-10.7097
▁평소에	-10.7099
▁이후로	-10.7103
▁music	-10.7106
▁테니	-10.7109
▁아침입니다	-10.7114
▁pressure	-10.7115
▁성분으로	-10.7115
▁이해하고	-10.7115
▁estimate	-10.7117
▁취소하고	-10.7118
▁느	-10.7119
▁국물이	-10.7127
▁업계에서	-10.7127
▁매물이	-10.7128
했으며	-10.7132
▁운영하	-10.7136
▁gra	-10.715
▁되니까	-10.7151
▁많아서	-10.7153
▁셀	-10.7154
▁안심	-10.7157
▁차질	-10.7164
▁systems	-10.7167
▁높여	-10.7169
▁안전하고	-10.7171
드리며	-10.7173
▁몰	-10.7175
▁점검	-10.7181
▁changes	-10.7181
▁그러고	-10.7181
▁으	-10.7183
▁주시겠어요	-10.7185
▁gas	-10.7187
▁망	-10.7187
▁놀이	-10.7187
▁재료로	-10.719
▁참석해	-10.7193
▁걸리지	-10.7195
▁했고	-10.7197
▁안에서	-10.7204
▁찾아야	-10.7206
▁조금만	-10.7206
▁다루	-10.7208
▁대단한	-10.7213
▁좋아서	-10.7214
▁알지	-10.7227
sure	-10.7229
▁열고	-10.7233
▁integrat	-10.7237
▁그릇	-10.7239
▁받기	-10.724
▁근	-10.7245
방향	-10.7245
스터	-10.7245
▁빈	-10.7262
▁증명	-10.7263
▁대접	-10.7265
되었	-10.7268
▁선생님이	-10.7269
E	-10.7272
▁보유	-10.7275
▁드셔	-10.7276
▁감사하고	-10.7277
▁해주는	-10.7284
lid	-10.7292
▁재정적	-10.7296
것이	-10.7298
▁height	-10.7302
번에	-10.7304
▁기업으로	-10.7304
▁불량	-10.7306
▁죽	-10.7306
▁예약해	-10.7311
▁널	-10.7313
▁전반	-10.7325
▁접속	-10.7332
▁소비자들	-10.7343
겠지만	-10.7346
▁시스템에	-10.7349
▁leas	-10.7354
▁취향	-10.7358
▁제거해	-10.7363
▁나면	-10.7382
▁선택을	-10.7383
▁드리면	-10.7386
주는	-10.7386
▁씨는	-10.7395
▁시청자	-10.7398
▁때문	-10.7399
▁주목	-10.74
▁위치에	-10.7408
▁골라	-10.7437
▁서비스로	-10.7439
웠습니다	-10.7451
▁선보	-10.7472
▁수소	-10.7478
▁은은	-10.748
▁그에게	-10.7488
▁맛도	-10.749
▁요	-10.7496
▁안심하	-10.7506
▁전문가들	-10.751
▁기능으로	-10.7514
▁prices	-10.7524
▁rate	-10.7524
▁나오면	-10.7526
▁소개시켜	-10.7531
▁오리	-10.7532
▁탈	-10.7533
어서	-10.7533
some	-10.7535
▁봐도	-10.754
went	-10.7552
▁열어	-10.7561
분들한테	-10.7561
▁준다	-10.7574
▁80	-10.7582
보시는	-10.7582
▁안정적	-10.7585
▁연락드리	-10.7586
▁빠	-10.7586
▁오빠가	-10.7587
▁쓰이	-10.7587
▁생각입니다	-10.7597
▁멤버	-10.7602
▁급하	-10.7604
▁책이	-10.761
▁port	-10.7612
▁정해	-10.7614
▁정의	-10.7621
▁깨끗하	-10.7624
▁fe	-10.763
▁하시고	-10.7632
▁아니지	-10.7633
치는	-10.7633
▁전자레인지에	-10.7643
▁다가	-10.765
▁작가님	-10.7651
▁재정	-10.7652
▁이리	-10.7654
▁지연이	-10.767
▁매력적	-10.7683
▁업무에	-10.7684
팀은	-10.7684
▁고민이	-10.7695
▁안쪽	-10.7701
▁하루에	-10.7702
▁임	-10.7713
길래	-10.7716
드리고	-10.7722
▁형은	-10.7726
▁질문을	-10.773
▁구매하기	-10.7741
짐	-10.7746
▁전화기	-10.7752
▁남겨	-10.776
▁보시	-10.7767
▁결혼식	-10.777
▁충족하	-10.7773
▁방이	-10.7778
▁뜨거	-10.7794
릿	-10.7796
상의	-10.7816
▁199	-10.7817
정도	-10.7828
▁hel	-10.7831
플	-10.7832
▁되잖아	-10.7832
▁i	-10.7835
▁확정	-10.7839
v	-10.7839
▁전시회	-10.784
ten	-10.7842
▁가득	-10.7845
▁담당하	-10.7846
▁mail	-10.7851
▁구매하	-10.7856
힐	-10.7857
빙	-10.7863
군	-10.7867
싱	-10.7868
설	-10.7883
작	-10.7894
friendly	-10.7901
교	-10.7911
▁인체	-10.7913
▁페	-10.7914
▁입을	-10.7914
값	-10.7916
세포	-10.7917
맨	-10.792
▁계정	-10.7929
▁플레이	-10.7935
▁400	-10.7937
coming	-10.7941
▁주스	-10.7951
▁ones	-10.7955
▁톤	-10.7959
이지	-10.796
up	-10.7964
함이	-10.7967
▁도서	-10.7968
▁필요하	-10.7981
▁o	-10.7987
▁마이	-10.7987
미터	-10.7997
▁이름이	-10.8001
▁예술	-10.8002
▁연말	-10.8006
▁지원하는	-10.8009
하십니다	-10.8015
5%	-10.8015
치를	-10.8019
▁조건이	-10.8026
▁filter	-10.8026
율	-10.8031
▁노출	-10.8034
▁수확	-10.8049
plastic	-10.8052
▁hospital	-10.8054
▁lose	-10.8054
▁250	-10.8055
▁solution	-10.8061
▁warehouse	-10.8061
▁operation	-10.8061
▁co	-10.8062
▁비행	-10.8063
▁주름	-10.8065
▁button	-10.8065
▁robot	-10.8067
▁partner	-10.8067
▁프로그램이	-10.8067
relate	-10.8068
▁benefit	-10.8069
▁unit	-10.8075
▁작년	-10.8081
▁숨	-10.8096
례	-10.8096
▁도와드릴	-10.8098
▁di	-10.81
▁screen	-10.81
▁뭐냐	-10.8102
▁purchas	-10.8103
▁cook	-10.8104
쳤	-10.8104
▁Some	-10.8106
▁빨라	-10.8109
▁정비	-10.811
▁좋네	-10.811
▁어떨까	-10.8111
▁apply	-10.8113
▁뿌리	-10.8114
▁fact	-10.8115
▁창립	-10.8116
▁신경써	-10.8117
▁cancel	-10.8117
▁manual	-10.8117
▁bar	-10.8118
▁late	-10.8121
▁건지	-10.8122
▁제외	-10.8122
▁tax	-10.8123
▁branch	-10.8123
랍니다	-10.8125
▁guess	-10.8125
▁COVID	-10.8125
▁English	-10.8125
▁Friday	-10.8125
▁Philippines	-10.8125
▁beautiful	-10.8125
▁clients	-10.8125
▁confidence	-10.8125
▁easier	-10.8125
▁either	-10.8125
▁essential	-10.8125
▁expenses	-10.8125
▁honor	-10.8125
▁husband	-10.8125
▁maintenance	-10.8125
▁message	-10.8125
▁opinion	-10.8125
▁representative	-10.8125
▁가깝	-10.8125
▁듣는	-10.8125
▁볶아	-10.8125
▁송지효	-10.8125
▁쌓아	-10.8125
▁여쭙고	-10.8125
▁입소문	-10.8125
▁잇몸	-10.8125
▁최첨단	-10.8125
▁카달로그	-10.8125
▁커뮤니티	-10.8125
▁컬렉션	-10.8125
▁테이프	-10.8125
▁토마토	-10.8125
▁특화	-10.8125
▁핸들	-10.8125
▁individual	-10.8125
▁launch	-10.8125
▁detect	-10.8125
▁located	-10.8125
▁paper	-10.8125
▁voice	-10.8125
▁cheap	-10.8125
▁warranty	-10.8125
▁2022	-10.8125
▁moisture	-10.8125
▁communication	-10.8125
▁갑작스	-10.8125
▁애니메이션	-10.8125
▁deadline	-10.8125
▁매뉴얼	-10.8125
▁블로그	-10.8125
▁스프링	-10.8125
▁Seoul	-10.8125
▁boss	-10.8125
▁검증	-10.8125
▁spray	-10.8125
▁알맞	-10.8125
▁durability	-10.8125
▁독립	-10.8125
▁힌트	-10.8125
▁직관적	-10.8125
▁45	-10.8125
▁beef	-10.8125
▁chat	-10.8125
▁sauce	-10.8125
▁copy	-10.8125
▁무거운	-10.8125
▁청결	-10.8125
▁급격	-10.8126
▁green	-10.8126
▁소독	-10.8126
▁실현	-10.8126
▁귀여워	-10.8126
▁단독	-10.8126
▁흡연	-10.8126
▁eco	-10.8126
▁금방	-10.8126
▁정밀	-10.8126
▁치약	-10.8126
▁낮추	-10.8126
▁급속	-10.8126
▁로션	-10.8126
▁패스	-10.8126
▁반죽	-10.8126
▁평판	-10.8126
▁shipped	-10.8126
▁니트	-10.8126
▁연속	-10.8126
▁절반	-10.8126
▁어느정도	-10.8126
▁fall	-10.8126
▁초보자	-10.8126
▁investment	-10.8127
▁잔디	-10.8127
▁회수	-10.8127
▁다행이네요	-10.8127
▁도달	-10.8127
▁통증	-10.8127
▁취미	-10.8127
▁화재	-10.8127
▁BB	-10.8127
래요	-10.8127
▁소파	-10.8127
▁busy	-10.8128
▁inquiry	-10.8128
▁양말	-10.8128
▁aware	-10.8128
▁초대장	-10.8128
▁꺼내	-10.8128
▁백업	-10.8128
▁자격	-10.8128
▁요청드리고	-10.8128
▁와이드	-10.8129
▁자율	-10.8129
▁배려	-10.813
▁generate	-10.813
▁얼음	-10.813
▁plate	-10.813
▁채권	-10.813
▁bad	-10.813
▁지갑	-10.813
▁변형	-10.813
▁물론이죠	-10.813
▁계세요	-10.813
▁lead	-10.8131
▁이슈	-10.8131
▁입증	-10.8132
▁engineering	-10.8132
▁게스트	-10.8133
▁happened	-10.8133
▁입금해	-10.8134
▁조심해	-10.8134
▁아시겠지만	-10.8134
▁내장되어	-10.8134
▁감사해요	-10.8135
▁required	-10.8136
▁있었는데	-10.8137
▁yourself	-10.8137
▁나타났	-10.8137
▁present	-10.8138
▁확률	-10.8138
▁가격표	-10.8138
▁search	-10.8139
▁곰팡이	-10.8139
▁알코올	-10.8139
▁어댑터	-10.8139
▁avoid	-10.8139
▁step	-10.8139
▁accept	-10.8139
▁style	-10.8139
▁대규모	-10.8139
▁리뷰	-10.8139
▁발행	-10.8139
▁영업사원	-10.8139
▁포켓	-10.8139
▁움직임	-10.814
▁암호화	-10.814
▁development	-10.814
▁열정	-10.8141
▁23	-10.8141
▁다녀	-10.8141
▁내부적으로	-10.8141
▁동일	-10.8142
▁원격	-10.8142
▁플레이어	-10.8142
▁제휴	-10.8143
▁wind	-10.8143
▁유선	-10.8144
▁필요해요	-10.8145
▁있었어요	-10.8146
▁맞죠	-10.8146
▁Le	-10.8147
▁설립된	-10.8147
▁농업	-10.8148
▁beans	-10.8149
▁늘어나	-10.815
▁억제	-10.815
겠다	-10.8151
▁취소해야	-10.8151
▁육	-10.8152
▁향상시키	-10.8153
▁dogs	-10.8155
▁세팅	-10.8155
▁스토리지	-10.8156
▁무드	-10.8156
▁있거든요	-10.8156
▁말씀드리고	-10.8157
▁없네요	-10.8157
▁오늘날	-10.8158
▁가전	-10.8158
▁축	-10.8159
▁부스	-10.8159
▁보내주실	-10.816
▁produced	-10.8161
층에	-10.8161
▁fields	-10.8162
▁key	-10.8163
▁앤	-10.8163
▁터빈	-10.8163
▁changed	-10.8163
▁round	-10.8164
▁홀더	-10.8164
▁기후	-10.8164
▁버터	-10.8164
▁fish	-10.8165
▁ball	-10.8166
▁developing	-10.8166
▁금지	-10.8167
▁오염	-10.8168
▁calling	-10.8169
▁실력	-10.817
▁이루	-10.8171
▁데리	-10.8172
▁기부	-10.8177
▁않습니까	-10.8177
되며	-10.8177
▁즐기기	-10.818
▁units	-10.8182
▁dis	-10.8183
▁출판사	-10.8183
▁알았어요	-10.8183
▁왔어요	-10.8184
▁읽기	-10.8186
▁사건	-10.8186
▁비전	-10.8187
▁쇼	-10.8187
▁사람들에게	-10.8187
▁오피스텔	-10.8187
▁소유자	-10.8189
Jae	-10.819
▁있네요	-10.8192
▁서울에	-10.8195
▁기구	-10.8195
▁설계된	-10.8195
▁토지	-10.8198
▁증	-10.8198
주년	-10.8199
▁누르	-10.8199
▁보기	-10.8201
▁틀	-10.8202
▁나라에서	-10.8205
▁칩	-10.8211
▁기재	-10.8215
▁games	-10.8216
ization	-10.8217
▁공간에	-10.8217
▁환기	-10.8218
▁권한	-10.8218
▁경고	-10.8227
▁초점	-10.8232
▁곤란	-10.8232
▁정성	-10.8234
▁작동하는	-10.8234
▁갈아	-10.8235
▁개발하여	-10.8236
▁콩	-10.8236
▁이걸로	-10.8243
ol	-10.8247
▁적당	-10.8248
▁발생할	-10.8256
▁붙이	-10.8258
▁believe	-10.8259
▁되네	-10.8261
▁쓰기	-10.8264
서비스	-10.8267
▁evening	-10.8281
▁projects	-10.8284
▁개발된	-10.8285
▁무대	-10.8287
▁피로	-10.829
▁가족이	-10.8291
▁내리	-10.8295
더라구요	-10.8295
seok	-10.8301
▁설	-10.8306
▁하는지	-10.8307
▁얘가	-10.8311
▁만족도	-10.8311
들로	-10.8317
▁클릭	-10.8321
▁팀과	-10.8326
▁작용	-10.8329
▁제작되어	-10.8329
▁양자	-10.8334
▁값	-10.8336
▁보드	-10.834
▁곡	-10.8342
▁checking	-10.8343
▁당일	-10.8344
▁Me	-10.8352
▁가능해	-10.8353
▁공장에	-10.8356
ant	-10.8356
z	-10.8356
▁하다	-10.8358
▁불안	-10.8365
▁시에는	-10.8366
▁땅	-10.8367
▁금액으로	-10.8371
전자	-10.8372
▁찬	-10.8379
▁소리가	-10.8383
▁공지	-10.8384
명과	-10.8385
▁처리해	-10.8388
되었다는	-10.8389
▁식으로	-10.8395
mer	-10.8402
▁foods	-10.8407
린다	-10.8408
▁시작한	-10.8411
▁제작되었	-10.842
▁본사에서	-10.8421
▁출시되었	-10.8424
▁처	-10.8424
자리	-10.8431
▁guide	-10.8433
▁vi	-10.8434
여서	-10.8436
▁신발을	-10.8437
▁art	-10.8441
▁Man	-10.8445
낸	-10.8453
ned	-10.8454
▁흰색	-10.8455
▁케	-10.8476
▁아들	-10.8481
▁과정은	-10.8482
▁지금도	-10.8483
▁상품들	-10.849
▁거쳐	-10.8493
▁만든다	-10.8495
브	-10.8513
▁당사와	-10.853
할까요	-10.8532
▁불가	-10.8534
N	-10.8535
하셨어요	-10.8538
목	-10.8541
인용	-10.8543
▁소개하	-10.855
▁좋아할	-10.8559
▁등에	-10.8561
▁폭발	-10.8565
▁질문에	-10.8571
fully	-10.8572
명의	-10.8572
▁지도	-10.8589
거죠	-10.8592
▁사용하시면	-10.86
때	-10.8606
▁믿어	-10.861
▁가동	-10.8618
▁살려	-10.8622
머	-10.8627
▁웹사이트에	-10.8629
립	-10.8629
▁전자레인지	-10.8631
▁정도는	-10.8636
▁어머님	-10.8657
▁하시겠	-10.8673
▁물에	-10.8675
▁추가할	-10.8687
▁만에	-10.8689
▁그렇	-10.8701
▁해명	-10.8709
ang	-10.872
▁1,	-10.8723
▁환경에	-10.8728
▁pe	-10.8729
▁하셨	-10.8733
▁객실에	-10.8741
ah	-10.8741
▁wi	-10.8762
▁personal	-10.8764
▁가격대	-10.8778
으시면	-10.8781
▁국가에	-10.8781
격	-10.8783
▁기가	-10.8786
ize	-10.8791
▁분을	-10.8803
반	-10.8803
▁손님이	-10.8808
▁나갈	-10.8816
▁구매자	-10.882
▁시야	-10.8842
▁Ma	-10.885
▁올라	-10.8864
▁안감	-10.8879
▁힘이	-10.8887
나마	-10.8888
▁해봐	-10.8889
▁이해를	-10.8891
▁부터	-10.8893
▁생체	-10.8899
ul	-10.8901
▁컵	-10.8907
▁싶었	-10.8911
▁그거를	-10.8936
▁가정용	-10.8947
폰	-10.895
▁상의	-10.8955
ate	-10.8964
하신다면	-10.897
이란	-10.8981
▁시작하	-10.8982
명으로	-10.8984
▁있으신	-10.8986
십	-10.8991
ter	-10.9014
▁높였	-10.9015
핑	-10.9033
으	-10.9033
▁걸려	-10.9035
주시겠어요	-10.9037
▁먹었	-10.9043
염	-10.9044
▁강의	-10.9046
▁것들이	-10.9048
보드	-10.9054
팩	-10.9057
▁오고	-10.9061
족	-10.9067
되기	-10.9068
▁가시	-10.9072
였다	-10.9074
▁제안해	-10.9074
▁모델에	-10.9081
▁휴대전화	-10.9094
▁고객센터	-10.9095
▁입장	-10.91
으신	-10.9104
너	-10.9105
시스템	-10.911
▁Bo	-10.911
▁설비	-10.9111
야죠	-10.9113
▁기간이	-10.9116
▁용도로	-10.912
필	-10.9124
옥	-10.9125
주일	-10.9127
알	-10.9129
틀	-10.913
▁안되	-10.9131
사와	-10.9132
릅니다	-10.9133
단계	-10.914
했으니	-10.9144
환	-10.9145
▁닫	-10.9147
ju	-10.9149
담	-10.9158
거야	-10.9162
승	-10.9162
컵	-10.9166
몰	-10.917
둔	-10.9171
X	-10.9173
케어	-10.9173
했지만	-10.9174
질환	-10.9174
셋	-10.9176
중인	-10.9176
▁펀드	-10.9177
free	-10.9177
계획	-10.9178
겁니다	-10.9179
정보	-10.9179
거에요	-10.9181
장비	-10.9182
시설	-10.9184
▁중앙	-10.9185
하니	-10.9185
거라	-10.9192
▁고생	-10.9195
▁pr	-10.9212
▁세대	-10.9212
▁말해	-10.9215
▁박사	-10.9218
동식	-10.922
▁항공	-10.923
실한	-10.9238
▁한식	-10.9241
▁옛날	-10.9246
▁짓	-10.9248
▁우리도	-10.9249
더군요	-10.9251
jin	-10.9254
▁고려하	-10.9259
▁des	-10.9261
▁write	-10.9269
▁입구	-10.9272
▁소프트웨어에	-10.9274
는지요	-10.9274
▁업체에	-10.9286
▁지원해	-10.9287
▁정수	-10.9294
움	-10.9294
▁잡지	-10.9295
▁strength	-10.9295
▁베이스	-10.9298
장에서	-10.9303
이요	-10.9305
▁improve	-10.9308
▁바를	-10.9309
▁생각하는	-10.9309
▁대표님께	-10.931
▁번역	-10.931
▁pack	-10.931
▁오시는	-10.9312
▁샤워	-10.9314
▁accident	-10.9314
▁human	-10.9316
▁우리나라	-10.9316
▁employee	-10.9319
▁letter	-10.9322
째	-10.9323
▁차지	-10.9331
라인	-10.9334
▁ver	-10.9338
▁마찬가지	-10.9339
self	-10.9345
블	-10.9349
▁말씀드렸	-10.935
▁런닝맨	-10.935
▁walk	-10.9352
▁pass	-10.9353
▁불평	-10.9355
▁record	-10.9355
▁까	-10.9356
▁link	-10.9358
▁separate	-10.9358
▁경비	-10.936
▁confirm	-10.9363
▁좋았어	-10.9366
▁deep	-10.9367
기업	-10.9367
▁recent	-10.9369
▁express	-10.9369
▁careful	-10.937
▁옛날에	-10.9371
▁comfort	-10.9373
▁깜짝	-10.9373
▁match	-10.9373
▁text	-10.9373
▁ex	-10.9374
▁specific	-10.9374
▁defect	-10.9374
▁우편	-10.9374
▁잉크	-10.9374
▁면역	-10.9375
▁innovati	-10.9375
▁스킨	-10.9375
∙	-10.9375
▁double	-10.9375
▁expand	-10.9375
▁mouth	-10.9375
▁weird	-10.9375
▁내추럴	-10.9375
▁만나뵙	-10.9375
▁하얀	-10.9375
resistant	-10.9375
▁bottom	-10.9375
▁capacity	-10.9375
▁cooperate	-10.9375
▁mix	-10.9375
▁student	-10.9375
▁가위바위보	-10.9375
▁광범위	-10.9375
▁기숙사	-10.9375
▁낫다	-10.9375
▁녹색	-10.9375
▁닦아	-10.9375
▁디자이너	-10.9375
▁디저트	-10.9375
▁리조트	-10.9375
▁모듈	-10.9375
▁뭔데	-10.9375
▁미끄럼	-10.9375
▁미뤄	-10.9375
▁박테리아	-10.9375
▁밸런스	-10.9375
▁밸브	-10.9375
▁부사장님	-10.9375
▁브레이크	-10.9375
▁빌딩	-10.9375
▁식기세척기	-10.9375
▁아닙니까	-10.9375
▁얇은	-10.9375
▁어떻습니까	-10.9375
▁재입고	-10.9375
▁접촉	-10.9375
▁즐겁	-10.9375
▁첨단	-10.9375
▁촉감	-10.9375
▁포뮬러	-10.9375
렛	-10.9375
▁kitchen	-10.9375
▁throw	-10.9375
▁농산물	-10.9375
▁시각화	-10.9375
▁인터페이스	-10.9375
▁차라리	-10.9375
▁options	-10.9375
▁노이즈	-10.9375
▁else	-10.9375
▁extra	-10.9375
▁gaming	-10.9375
▁chicken	-10.9375
▁때때로	-10.9375
▁차별화	-10.9375
▁제자리에	-10.9375
▁foreign	-10.9375
clock	-10.9375
▁public	-10.9375
▁홍콩	-10.9375
▁wish	-10.9375
▁Everyone	-10.9375
▁hello	-10.9375
▁fix	-10.9375
▁iron	-10.9375
▁베어링	-10.9375
▁interior	-10.9375
▁breakfast	-10.9375
▁requirements	-10.9375
▁검은색	-10.9375
▁애완	-10.9375
▁이탈리아	-10.9375
▁트렌드	-10.9375
▁플러스	-10.9375
▁암호화폐	-10.9375
▁의논	-10.9375
▁property	-10.9375
▁지붕	-10.9375
▁China	-10.9375
▁소프트	-10.9375
▁까다로	-10.9375
▁모험	-10.9375
▁milk	-10.9375
▁간략	-10.9375
▁탄생	-10.9375
▁아울러	-10.9375
▁further	-10.9375
▁1~2	-10.9375
▁moment	-10.9375
▁설탕	-10.9375
▁ground	-10.9375
▁스타일리시	-10.9375
▁선글라스	-10.9375
▁dishes	-10.9375
▁상쾌	-10.9375
▁추세	-10.9376
▁입찰	-10.9376
▁housing	-10.9376
▁헤드폰	-10.9376
▁죄송한데	-10.9376
▁패딩	-10.9376
▁stew	-10.9376
▁송부	-10.9376
▁오른쪽	-10.9376
▁복구	-10.9376
▁panel	-10.9376
▁원칙	-10.9376
▁있었어	-10.9376
▁포근	-10.9376
▁서빙	-10.9376
▁느려	-10.9376
▁spicy	-10.9376
▁잡혀	-10.9376
▁만남	-10.9376
▁모릅니다	-10.9376
▁상환	-10.9376
▁자녀	-10.9376
▁펜션	-10.9376
▁정교	-10.9376
▁Where	-10.9377
▁단골	-10.9377
▁출신	-10.9377
▁gain	-10.9377
▁installation	-10.9377
▁원재료	-10.9377
▁항공편	-10.9377
▁임상	-10.9377
▁예능	-10.9377
▁솔직하게	-10.9377
▁properly	-10.9377
▁지침	-10.9377
▁successfully	-10.9377
▁국내외	-10.9378
▁issue	-10.9378
▁fire	-10.9378
▁명품	-10.9378
▁스타일링	-10.9378
▁complaint	-10.9378
▁자켓	-10.9378
▁채택	-10.9378
▁식별	-10.9378
▁승진	-10.9378
▁월세	-10.9378
▁경력	-10.9378
▁유감스럽게	-10.9378
▁장려	-10.9379
▁모공	-10.9379
▁너희	-10.9379
▁고려해	-10.9379
▁진동	-10.9379
▁headquarters	-10.9379
▁station	-10.9379
▁이용료	-10.9379
▁굴	-10.938
▁세부사항	-10.938
▁선별	-10.938
taking	-10.938
▁곡선	-10.938
▁됐네요	-10.938
▁나이스	-10.938
▁일으	-10.9381
▁weak	-10.9382
▁recently	-10.9382
▁물체	-10.9382
▁rest	-10.9382
▁진지하게	-10.9382
▁durable	-10.9383
▁factor	-10.9383
▁다행히	-10.9383
▁인물	-10.9383
▁입어	-10.9383
▁CD	-10.9384
▁경주	-10.9384
▁생길	-10.9384
▁고맙습니다	-10.9384
▁보온성	-10.9384
▁기초	-10.9385
▁가능하며	-10.9385
▁매치	-10.9385
▁믿음	-10.9386
▁동네	-10.9387
▁분산	-10.9387
▁드세요	-10.9388
▁passed	-10.9388
▁15%	-10.9389
▁복합	-10.9389
▁예쁘게	-10.9389
▁correct	-10.9391
▁떡볶이	-10.9391
▁파우더	-10.9391
▁introduction	-10.9391
다리	-10.9391
▁pot	-10.9391
▁감염	-10.9391
주실	-10.9392
▁파스타	-10.9392
▁역량	-10.9392
▁mark	-10.9392
▁prepared	-10.9393
▁토론	-10.9393
▁추출물	-10.9393
▁모던	-10.9394
▁치료제	-10.9394
▁암호	-10.9395
▁package	-10.9395
▁여러가지	-10.9395
▁cap	-10.9395
▁인형	-10.9395
▁신체	-10.9396
▁전구	-10.9397
▁웃긴	-10.9397
▁나타나	-10.9397
-19	-10.9399
▁구분	-10.9399
▁해상도	-10.94
▁delayed	-10.94
▁레드	-10.94
▁같아서요	-10.94
▁사료	-10.9401
▁training	-10.9401
▁떨어져	-10.9401
km	-10.9403
▁willing	-10.9403
▁increased	-10.9403
▁불고기	-10.9403
▁광수야	-10.9403
▁본체	-10.9404
▁prepare	-10.9404
▁한달	-10.9405
▁색감	-10.9407
▁Ve	-10.9407
▁적용되	-10.9408
▁궁금해	-10.9409
▁안정	-10.9409
▁없죠	-10.9409
▁만드	-10.9411
▁국	-10.9412
▁opened	-10.9412
▁생각하면	-10.9413
▁그렇고	-10.9414
▁주력	-10.9416
▁구매가	-10.9416
▁깔	-10.9417
▁지불해야	-10.9417
▁퀄리티	-10.9418
▁넷	-10.9418
▁board	-10.9418
▁투표	-10.9419
▁안정적으로	-10.942
▁앞서	-10.9421
▁모자	-10.9423
▁극한	-10.9423
▁chang	-10.9424
▁연회장	-10.9424
▁loss	-10.9425
▁많은데	-10.9425
▁제공하지	-10.9427
▁purchased	-10.9429
▁받으시면	-10.9431
▁가도	-10.9433
▁책자	-10.9433
▁계약금	-10.9434
id	-10.9434
▁cleaning	-10.9435
▁요인	-10.9435
▁조화	-10.9435
▁막아	-10.9435
하시죠	-10.9435
▁introduced	-10.9435
▁모르고	-10.9436
nt	-10.9437
▁watching	-10.9437
long	-10.9439
▁지연되	-10.944
▁opening	-10.944
▁구성품	-10.9441
▁제주도	-10.9444
▁Or	-10.9444
▁structure	-10.9446
▁현황	-10.9446
▁권리	-10.9446
▁맛있다고	-10.9447
▁머신	-10.9448
▁차례	-10.9448
▁잠깐만요	-10.9449
년대	-10.945
▁높일	-10.9452
▁선택하여	-10.9453
▁참고해	-10.9453
▁나오고	-10.9453
▁체인	-10.9453
▁올리고	-10.9454
▁줄이고	-10.9457
▁주었습니다	-10.9458
▁대하여	-10.9464
▁아니죠	-10.9469
▁정수기	-10.9469
▁무리	-10.947
▁본인이	-10.9471
▁노동	-10.9472
▁턱	-10.9474
▁가능하게	-10.9475
▁출시했습니다	-10.9476
▁재미있는	-10.9479
▁유효	-10.9488
자들이	-10.949
▁세정	-10.9491
▁장소에서	-10.9491
▁가능하다	-10.9493
▁경로	-10.9496
▁편하신	-10.9496
▁플래	-10.9501
▁라이트	-10.9502
▁devices	-10.9502
stable	-10.9503
▁이루어져	-10.9504
▁cu	-10.9505
▁넘는	-10.9505
▁eating	-10.9505
던데	-10.9506
▁저쪽	-10.951
▁지식	-10.951
▁이행	-10.9513
▁어려움이	-10.9514
▁과거에	-10.9517
▁말라고	-10.9519
▁이하	-10.9523
▁푸	-10.9523
이럴	-10.9526
▁바꾸	-10.9527
▁구워	-10.9528
▁핀	-10.953
▁고용	-10.9531
▁단순한	-10.9533
▁생산량	-10.9533
▁만들어진	-10.9538
▁내면	-10.9539
▁sever	-10.9539
량이	-10.954
▁됐어요	-10.9548
▁업체에서	-10.9549
짜리	-10.955
▁얻어	-10.9557
▁전까지	-10.9559
▁중간에	-10.9559
▁asking	-10.956
▁거품	-10.9561
▁잡았	-10.9562
▁돌아올	-10.9573
▁모아	-10.9574
▁이불	-10.9574
▁국내에서	-10.9574
▁효과적인	-10.9575
▁한데	-10.9579
▁수면	-10.9583
닝	-10.9587
▁최소한	-10.959
▁판매가	-10.9594
▁예정인데	-10.9595
인이	-10.9597
화를	-10.9597
▁중량	-10.9611
▁Ms	-10.9612
▁속도로	-10.9612
▁무엇인가	-10.9618
▁지금부터	-10.962
▁아우	-10.9621
▁정책	-10.9621
▁At	-10.9624
▁경기	-10.9624
▁다음주에	-10.9631
▁파일로	-10.9632
▁밀도	-10.9636
▁적극적	-10.9637
▁초대해	-10.9638
▁말했다	-10.9638
▁개발자	-10.9651
▁행사에	-10.9651
▁너그러	-10.9655
▁마리	-10.9659
▁곳입니다	-10.9663
▁담은	-10.9666
▁도착하는	-10.9667
▁좋겠다	-10.967
▁생기면	-10.9673
▁기능에	-10.9674
▁관리하고	-10.9679
▁모델이	-10.9687
▁보셨	-10.9688
▁한국인들	-10.97
려는	-10.9705
▁되어야	-10.9712
▁시기에	-10.9713
▁제품이라	-10.9715
▁변환	-10.9728
▁카탈로그에	-10.9729
▁연동	-10.9743
▁집으로	-10.9748
이젠	-10.9754
▁수거	-10.9755
▁사야	-10.9759
M	-10.9761
▁귀사에게	-10.9763
▁차지하	-10.9769
▁까지	-10.9774
▁발이	-10.978
▁사랑하	-10.9784
▁제안이	-10.9791
ver	-10.9792
▁방법으로	-10.9799
▁잘라	-10.98
▁먹으	-10.9805
▁편한	-10.9806
▁회사들	-10.9812
용할	-10.9813
▁적용해	-10.9813
▁시간대	-10.9816
▁places	-10.9817
▁강도	-10.9821
▁옷이	-10.983
▁식당이	-10.984
하다가	-10.9845
▁기일	-10.9847
▁되었다	-10.9848
▁방식이	-10.9849
▁시스템입니다	-10.9858
했는지	-10.9858
이드	-10.9868
▁son	-10.9878
드려도	-10.9879
▁온다	-10.988
▁하셔서	-10.9884
▁플라	-10.9901
▁얻는	-10.9902
▁석	-10.9902
▁유발	-10.993
▁결과에	-10.9946
▁부여	-10.9955
▁생산할	-10.997
▁적합할	-10.9985
▁단점	-10.9991
▁즐겨보	-10.9992
▁보여드리	-10.9998
▁Je	-11
▁Not	-11.0001
▁대중	-11.0005
▁아이가	-11.0015
▁수명	-11.0025
▁좋아한다	-11.0028
분께서	-11.0036
▁맡겨	-11.0037
▁비율	-11.0038
내는	-11.004
주고	-11.0046
▁기술자	-11.0058
▁works	-11.0061
▁받아보았	-11.0064
▁안전성	-11.0068
리라	-11.0069
▁거절	-11.0075
▁주셔	-11.0097
▁켜	-11.0099
▁들어있	-11.0111
▁위생	-11.0114
▁않았다	-11.0132
▁편리하	-11.0142
▁시에	-11.0144
▁시행	-11.0144
▁너도	-11.0153
▁인터넷에	-11.0186
▁건으로	-11.0187
▁stand	-11.0192
▁넘어	-11.0193
시겠어요	-11.0206
man	-11.0209
▁Fe	-11.021
▁요약	-11.021
▁이곳에	-11.0224
▁화면에	-11.023
▁handl	-11.0233
명을	-11.0235
돈	-11.0236
했다는	-11.0241
ried	-11.0244
▁기계는	-11.025
▁해드릴	-11.0256
줘야	-11.026
▁과정이	-11.0281
▁결함이	-11.0325
▁될지	-11.0325
▁하셔	-11.0326
ably	-11.0331
상자	-11.034
▁사랑해	-11.0346
해서요	-11.0354
추	-11.0367
▁살았	-11.0369
▁전반적	-11.0372
▁쉽	-11.0375
▁명의	-11.039
▁생각한	-11.0391
+	-11.0395
▁팀원	-11.0414
▁말씀이신	-11.042
이신	-11.0422
북	-11.043
냈	-11.0432
▁미국에	-11.0433
▁자유	-11.0436
리고	-11.0438
분석	-11.0446
▁조심	-11.0446
▁프린터	-11.0448
왕	-11.0461
▁sp	-11.0478
침	-11.0481
받는	-11.0488
om	-11.0489
▁문제인	-11.0496
식으로	-11.0497
매	-11.0505
▁ten	-11.0518
▁친화적	-11.0523
테	-11.0529
▁남았	-11.053
듯	-11.0534
끔	-11.0536
5,000	-11.0543
▁예정이라	-11.055
율이	-11.0551
기간	-11.0552
▁음식에	-11.0552
like	-11.0554
슬	-11.0554
▁환자들	-11.0556
▁받으시는	-11.0556
▁냉각	-11.0561
되었다	-11.0566
▁정상적	-11.0569
압	-11.0571
▁기간에	-11.0571
예	-11.0571
▁놀랐	-11.0572
▁AA	-11.0573
come	-11.0575
걸이	-11.0578
▁이래	-11.0581
범	-11.0583
풀	-11.0592
잎	-11.0594
셀	-11.0596
펜	-11.0599
ship	-11.0599
벌	-11.06
밤	-11.06
스타	-11.0601
옷	-11.0602
put	-11.0602
face	-11.0603
둘	-11.0607
사이즈	-11.0607
터치	-11.0607
함께	-11.0612
▁pu	-11.0613
▁영	-11.0618
았어요	-11.0622
머리	-11.0623
보겠습니다	-11.0626
개발	-11.0626
님이	-11.0628
▁기울	-11.0632
▁예전	-11.0634
▁pl	-11.0637
계약	-11.0643
수가	-11.0651
▁활	-11.0652
▁예쁘	-11.0656
하길	-11.0665
방지	-11.067
▁드라이	-11.0671
▁절단	-11.0671
▁확실	-11.0671
시장	-11.0676
▁더해	-11.0679
▁마케팅부	-11.068
▁먹겠	-11.0692
▁대박이	-11.0697
▁극	-11.0697
ure	-11.0703
▁print	-11.0707
▁세기	-11.0708
▁장점	-11.0714
▁350	-11.0719
▁목에	-11.0728
▁보내기	-11.0729
▁bu	-11.0729
부에	-11.0733
▁window	-11.0733
▁cake	-11.0733
▁cafe	-11.0735
▁dryer	-11.0736
▁bill	-11.0736
▁계시는	-11.0741
▁도착했	-11.0742
▁picture	-11.0742
▁region	-11.0744
▁owner	-11.0745
▁standard	-11.0746
▁word	-11.0753
▁배포	-11.0755
▁해드리	-11.0756
차로	-11.0756
▁습	-11.0759
▁member	-11.0762
▁스토리	-11.0764
규	-11.0767
듬	-11.0769
▁OOO	-11.077
▁reach	-11.077
▁무엇보다	-11.0771
▁하하하	-11.0775
ory	-11.0775
▁receiv	-11.0775
▁혼란	-11.0778
▁의료기기	-11.0781
▁아프	-11.0782
▁그만	-11.0782
▁carry	-11.0784
▁cable	-11.0784
▁반대	-11.0785
▁성사	-11.0785
▁초청	-11.0786
주의	-11.0789
▁사장님께	-11.079
▁내놓	-11.0791
▁agree	-11.0791
▁정기적	-11.0793
▁measure	-11.0793
▁본격	-11.0794
▁recognize	-11.0795
▁축적	-11.0795
▁sit	-11.0797
▁그랬어	-11.0798
▁어울리	-11.0798
▁상표	-11.0799
▁near	-11.0799
▁메모	-11.08
▁publish	-11.08
▁봤어	-11.0801
럭	-11.0801
▁보답	-11.0802
▁protect	-11.0803
·	-11.0804
hyo	-11.0804
proof	-11.0804
▁affect	-11.0804
▁average	-11.0804
▁certain	-11.0804
▁coupon	-11.0804
▁distance	-11.0804
▁distribution	-11.0804
▁drop	-11.0804
▁efficiency	-11.0804
▁error	-11.0804
▁exercis	-11.0804
▁famous	-11.0804
▁kimchi	-11.0804
▁loan	-11.0804
▁nature	-11.0804
▁postpone	-11.0804
▁smartphone	-11.0804
▁storage	-11.0804
▁가슴	-11.0804
▁달콤	-11.0804
▁듣기	-11.0804
▁머리카락	-11.0804
▁메타버스	-11.0804
▁미네랄	-11.0804
▁섞어	-11.0804
▁수도꼭지	-11.0804
▁스커트	-11.0804
▁실루엣	-11.0804
▁알레르기	-11.0804
▁엉덩이	-11.0804
▁에어컨	-11.0804
▁옆으로	-11.0804
▁예쁜	-11.0804
▁유니크	-11.0804
▁유닛	-11.0804
▁유튜브	-11.0804
▁이끌어	-11.0804
▁인보이스	-11.0804
▁주머니	-11.0804
▁칼국수	-11.0804
▁커뮤니케이션	-11.0804
▁트리트먼트	-11.0804
▁프로그래밍	-11.0804
▁프리젠테이션	-11.0804
▁할머니	-11.0804
▁획기적	-11.0804
▁example	-11.0804
▁lost	-11.0804
▁women	-11.0804
▁까다롭	-11.0804
▁끓여	-11.0804
▁녹화	-11.0804
▁늦은	-11.0804
▁리모델링	-11.0804
▁백종원	-11.0804
▁탈부착	-11.0804
▁튀김	-11.0804
▁competition	-11.0804
▁laugh	-11.0804
▁textbook	-11.0804
▁블레이드	-11.0804
▁파이프	-11.0804
▁sensiti	-11.0804
▁collaboration	-11.0804
▁cotton	-11.0804
▁dinner	-11.0804
▁Number	-11.0804
▁이승기	-11.0804
▁콘솔	-11.0804
▁혈압	-11.0804
▁설득	-11.0804
▁성취	-11.0804
▁SEO	-11.0804
▁school	-11.0804
▁nothing	-11.0804
▁크라우드	-11.0804
charging	-11.0804
▁봉투	-11.0804
▁열쇠	-11.0804
▁오프라인	-11.0804
▁brain	-11.0804
▁디젤	-11.0804
▁Kwang	-11.0804
▁놀랍	-11.0804
▁핑크	-11.0804
▁sharp	-11.0804
▁Maybe	-11.0804
▁catalogue	-11.0804
▁모기지론	-11.0804
▁brother	-11.0804
▁vacation	-11.0804
▁든든	-11.0804
▁crazy	-11.0804
▁미역국	-11.0804
▁남녀	-11.0804
▁포착	-11.0804
▁Jong	-11.0804
▁베스트	-11.0804
▁손바닥	-11.0804
▁귀여운	-11.0804
▁비밀번호	-11.0804
▁Park	-11.0804
▁관람	-11.0804
▁크레	-11.0804
▁measurement	-11.0804
▁apartment	-11.0804
▁logo	-11.0804
▁agent	-11.0804
▁block	-11.0804
▁쉬워	-11.0804
▁출간	-11.0804
▁크루	-11.0804
▁소름	-11.0805
nfortunately	-11.0805
▁데일리	-11.0805
▁절연	-11.0805
▁patient	-11.0805
▁앉으세요	-11.0805
▁certifie	-11.0805
▁화려	-11.0805
▁hall	-11.0805
▁child	-11.0805
▁다용도	-11.0805
▁협회	-11.0805
▁목재	-11.0805
▁현금	-11.0805
▁승기	-11.0805
▁음반	-11.0805
▁주식회사	-11.0805
▁파워	-11.0805
▁불량품	-11.0805
▁latest	-11.0806
▁해결책	-11.0806
▁치열	-11.0806
▁사무용	-11.0806
▁harm	-11.0806
▁예측	-11.0806
▁someone	-11.0806
▁보충제	-11.0806
▁체형	-11.0806
▁배경	-11.0806
▁손목	-11.0806
▁도료	-11.0806
▁treatment	-11.0806
▁익숙하지	-11.0806
▁올라오	-11.0806
▁괜찮으신가요	-11.0807
▁구경	-11.0807
▁원룸	-11.0807
▁인생	-11.0807
▁여쭤보고	-11.0807
▁almost	-11.0807
▁스판	-11.0807
▁eight	-11.0808
▁세탁물	-11.0808
▁growth	-11.0808
▁solar	-11.0808
▁예정대로	-11.0809
▁파견	-11.0809
▁물어봐	-11.0809
▁신중	-11.0809
▁고안	-11.0809
▁알았는데	-11.0809
▁1500	-11.081
▁파산	-11.081
▁tight	-11.081
▁명절	-11.081
▁문의드리고	-11.081
▁agreement	-11.081
▁고유	-11.0811
▁상단	-11.0812
▁padd	-11.0813
▁명함	-11.0813
▁있으세요	-11.0813
▁사유	-11.0813
▁고집	-11.0814
▁소요될	-11.0814
▁우려	-11.0815
기까지	-11.0815
▁어디든	-11.0815
▁세심	-11.0815
▁도장	-11.0815
▁우주	-11.0815
▁뉴	-11.0816
▁whole	-11.0816
▁소비	-11.0817
▁eyes	-11.0817
▁skills	-11.0817
▁성질	-11.0817
istics	-11.0818
▁배울	-11.0818
▁당시	-11.0818
▁기울여	-11.0819
▁힘들어	-11.0819
▁가까이	-11.082
▁어두	-11.082
▁면접	-11.0821
▁flow	-11.0821
▁광택	-11.0822
▁밴딩	-11.0822
▁체크인	-11.0822
▁슈퍼	-11.0822
▁bottle	-11.0822
▁잭	-11.0822
▁베이지	-11.0822
▁펫	-11.0822
▁현미경	-11.0822
▁치킨	-11.0822
▁밀가루	-11.0822
▁구멍	-11.0822
▁흘리	-11.0823
▁author	-11.0823
▁GPS	-11.0823
▁인수	-11.0824
▁신상품	-11.0824
▁난방	-11.0824
▁도어	-11.0825
▁올림	-11.0825
▁longer	-11.0825
▁adjusted	-11.0827
▁모시고	-11.0827
▁무사	-11.0827
▁엔터	-11.0827
ought	-11.0828
▁status	-11.0828
side	-11.0828
▁단어	-11.0828
▁엄지	-11.0828
▁설문지	-11.0828
▁park	-11.0828
▁slow	-11.0829
▁laws	-11.083
▁drive	-11.0831
▁잔금	-11.0833
▁브라	-11.0833
▁차이점	-11.0834
▁키우	-11.0834
▁편의점	-11.0834
▁알러지	-11.0834
▁practice	-11.0835
▁잡으	-11.0835
▁advantages	-11.0835
▁추천드립니다	-11.0836
▁방안	-11.0837
▁prob	-11.0837
▁확인하십시오	-11.0837
ike	-11.0837
시킨	-11.0838
▁모르게	-11.0838
▁간식	-11.0838
▁다중	-11.0838
▁버스	-11.0839
▁charged	-11.084
▁귀국	-11.084
▁그루	-11.0841
▁weight	-11.0841
dong	-11.0841
▁장점입니다	-11.0842
▁초대하고	-11.0843
▁일종	-11.0843
via	-11.0844
▁often	-11.0844
사에	-11.0844
econd	-11.0846
▁주위	-11.0848
▁준비할	-11.0848
▁medic	-11.0849
▁글자	-11.085
▁애들	-11.085
▁작동하지	-11.085
▁많아요	-11.085
▁비중	-11.0851
▁부식	-11.0851
▁결과적으로	-11.0852
▁foot	-11.0853
▁friends	-11.0853
▁고추장	-11.0854
▁묵	-11.0854
▁register	-11.0854
▁폐	-11.0854
▁3,000	-11.0854
▁호흡	-11.0854
▁벌레	-11.0854
▁순서	-11.0855
▁단맛	-11.0855
▁그립감	-11.0855
▁음식물	-11.0857
▁뜨거워	-11.0857
▁주무	-11.0858
▁통하여	-11.0859
▁members	-11.0862
▁standards	-11.0862
▁드려야	-11.0864
▁엄청나	-11.0864
▁분류	-11.0869
느냐	-11.087
▁기원	-11.0871
▁지사	-11.0871
▁죄송하게	-11.0872
▁container	-11.0872
▁과장	-11.0873
▁운전자	-11.0873
▁올바	-11.0874
▁오토	-11.0876
▁그전에	-11.0876
▁효율성	-11.0876
▁있던	-11.0877
llow	-11.088
▁words	-11.088
▁알아요	-11.088
▁목적으로	-11.0884
▁보신	-11.0884
▁자회사	-11.0885
▁거울	-11.0885
▁주어	-11.0885
▁알려진	-11.0885
▁감자	-11.0886
▁현장에서	-11.0886
▁boil	-11.0886
▁night	-11.0886
▁팀에	-11.0888
▁전기차	-11.0888
▁상기	-11.0889
▁작년에	-11.0889
▁왔는데	-11.0889
▁talking	-11.0891
▁보여요	-11.0891
▁optimize	-11.0892
▁엄	-11.0893
신다면	-11.0893
▁했는데요	-11.0895
▁공원	-11.0896
▁할인율	-11.0904
▁ability	-11.0905
▁though	-11.0905
▁놔	-11.0906
rd	-11.0911
▁돕고	-11.0913
▁반면	-11.0913
▁협력해	-11.0915
▁하단에	-11.0918
▁의학	-11.0918
▁샷	-11.0919
▁펌프	-11.0919
▁끝나는	-11.092
▁했었는데	-11.0921
▁영어로	-11.0922
▁조달	-11.0923
기능	-11.0924
▁이체	-11.0924
▁간장	-11.0926
▁면에서	-11.0929
▁두었습니다	-11.0931
▁결정할	-11.0932
▁바람에	-11.0938
▁이기	-11.0939
▁내내	-11.094
▁출판	-11.0941
▁화가	-11.0941
▁협력사	-11.0942
나는	-11.0943
▁나와요	-11.0948
▁An	-11.0949
▁끈	-11.095
▁effects	-11.0952
gu	-11.0953
▁took	-11.0955
▁색이	-11.0956
▁그러다	-11.0959
nal	-11.0963
▁칼라	-11.0965
▁responsib	-11.097
▁말씀드리	-11.0971
▁드셔보	-11.0972
▁하냐	-11.0975
일지	-11.0979
두에	-11.098
▁방지하고	-11.0984
▁라	-11.0984
▁픽	-11.0984
▁페이스	-11.0987
▁videos	-11.0988
▁업체와	-11.099
▁자랑하고	-11.0992
▁애들이	-11.0993
▁개요	-11.0996
▁소진되었	-11.0998
▁등장	-11.0998
▁라인에	-11.1
▁승	-11.1001
▁같지	-11.1001
티브	-11.1003
▁인도네시아	-11.1004
▁중국에서	-11.1014
▁sides	-11.1016
▁오실	-11.1018
▁잎	-11.1018
▁5,000	-11.1021
▁추구하	-11.1028
질이	-11.1033
되는지	-11.1034
▁극대화	-11.1037
▁감정	-11.1039
line	-11.1043
nk	-11.1045
▁했지만	-11.1051
▁해주신	-11.1052
▁선택하	-11.1052
▁거에요	-11.1054
▁어떠신	-11.1055
▁restaurants	-11.1061
▁철	-11.1068
▁높다	-11.1068
▁레스토랑이	-11.1071
▁약품	-11.1072
▁관계로	-11.1073
▁시점	-11.1077
▁사용법	-11.1078
▁커지	-11.1084
▁세포	-11.1093
▁항	-11.1095
▁상자에	-11.11
▁쇼핑	-11.1102
진다	-11.1102
▁저렴하다	-11.1103
▁끝났	-11.1104
▁플랫폼에	-11.1118
▁몰랐어	-11.1122
▁해외에	-11.1128
▁가족들	-11.1133
▁지불해	-11.114
▁입지	-11.1142
▁찍을	-11.1148
이지요	-11.115
▁부과	-11.115
▁미팅에서	-11.1154
만으로	-11.1158
▁내려가	-11.1165
▁연기하	-11.1165
▁문의하	-11.1166
니까요	-11.1169
▁이거야	-11.117
▁발송해	-11.117
▁개성	-11.1173
▁많지	-11.1174
였는데	-11.1174
▁ho	-11.1175
▁관계자들	-11.1178
▁farm	-11.1181
▁탄	-11.1192
되어야	-11.1194
▁낙	-11.1195
▁충	-11.1196
▁줄게	-11.1196
스럽	-11.1205
ian	-11.1206
▁터	-11.1211
▁구매하는	-11.1211
트를	-11.1211
ia	-11.1217
▁금요일에	-11.1222
▁가보	-11.1225
▁급증하	-11.1227
▁참가	-11.1232
su	-11.1233
▁살펴	-11.1236
▁잠재적	-11.1237
서요	-11.1241
▁브랜드에	-11.1252
▁같고	-11.1258
려서	-11.1268
▁영업부	-11.127
▁체중	-11.1271
▁log	-11.1281
ug	-11.1284
▁VR	-11.1285
▁ID	-11.1289
fe	-11.1297
▁유전	-11.1298
▁상사	-11.1308
▁팀원들	-11.131
▁날씨에	-11.1311
분들이	-11.1316
▁선호하	-11.1321
MP	-11.1324
▁불어	-11.1324
▁많았	-11.1325
▁일일	-11.1327
▁Mad	-11.1327
▁designs	-11.1328
▁개설	-11.1331
▁드는	-11.1346
▁사용하기에	-11.1364
지역	-11.1364
▁되셨	-11.1367
▁컴퓨터에	-11.1367
▁무기	-11.1372
▁해주실	-11.1379
ple	-11.1384
▁요청해	-11.1386
▁인지	-11.1393
▁바이어	-11.1393
▁은행에	-11.1398
▁mov	-11.1405
▁이러고	-11.1406
▁체	-11.1416
▁어려웠	-11.1419
달러에	-11.1421
▁오시	-11.1428
▁넣는	-11.143
▁세로	-11.1433
▁향기	-11.1444
▁주면	-11.1452
▁가져왔	-11.1456
성과	-11.1458
▁주신다	-11.1464
▁고객님과	-11.1468
▁다음은	-11.1474
▁쌍	-11.1477
▁재료들	-11.1489
▁편지	-11.149
▁눈치	-11.15
▁보호하	-11.15
▁쪽에	-11.1501
▁페이지에	-11.1512
▁드시	-11.1526
▁운	-11.1529
지로	-11.1534
▁쓰면	-11.1538
ust	-11.1562
▁캠페인	-11.1564
▁욕실에	-11.1577
▁의도	-11.1579
▁당황	-11.159
이자	-11.1602
▁주저	-11.1607
red	-11.1608
▁Tak	-11.1608
▁아쉽	-11.1613
▁양이	-11.1623
ut	-11.1624
▁도와드리	-11.163
▁활용하	-11.1635
▁요리에	-11.1637
ue	-11.1637
▁빠져	-11.1649
▁이들	-11.1658
했잖아요	-11.1664
▁선사	-11.1676
▁차에	-11.1676
셨다고	-11.1685
▁아니라고	-11.169
▁ch	-11.1695
됐	-11.1697
냐고	-11.1702
지고	-11.1714
▁감안	-11.172
▁상점	-11.1721
▁이로	-11.1725
▁기름이	-11.1733
중입니다	-11.1734
되므로	-11.1737
져요	-11.174
▁트	-11.1744
▁사회적	-11.1748
▁주문량	-11.1749
▁가르쳐	-11.1751
▁참석하	-11.1763
장이	-11.1763
▁배송하기	-11.1764
로운	-11.1766
▁미루	-11.1774
▁그러시	-11.1777
겨	-11.1781
▁회	-11.1783
▁그레이	-11.1796
▁가려	-11.1812
▁걱정되	-11.1813
생산	-11.1819
▁친구들	-11.1824
▁출연	-11.1824
▁안부	-11.1826
▁문제없	-11.1842
▁news	-11.1848
nch	-11.1852
었나요	-11.1867
포트	-11.1868
ium	-11.1871
▁검토해보	-11.1874
▁미팅에	-11.1881
sion	-11.1887
▁위기	-11.1888
eded	-11.1894
▁중지	-11.1898
대요	-11.1913
카로	-11.1929
룸	-11.193
▁31	-11.1931
▁강조	-11.1934
▁느껴보	-11.1938
보십시오	-11.1957
▁trans	-11.1963
해보고	-11.1963
▁secure	-11.1964
▁선호	-11.1967
▁기업이	-11.1969
겠지	-11.1972
▁가로	-11.1983
▁난다	-11.1985
▁수록	-11.1987
▁ca	-11.1989
▁실수로	-11.2004
▁급증	-11.2013
술을	-11.2013
▁남편	-11.2013
end	-11.2014
ating	-11.2019
▁많고	-11.2019
▁방해	-11.2022
봤어요	-11.2026
60	-11.2028
▁serv	-11.2032
▁변경해	-11.2038
▁충돌	-11.2038
▁넣었어	-11.2039
▁물기	-11.2043
▁떠나	-11.2057
▁신기하	-11.2061
▁창문	-11.2086
▁중고	-11.2087
▁되어서	-11.2088
사항	-11.209
▁Wa	-11.2096
▁rid	-11.2097
육	-11.2106
▁물량이	-11.2116
▁출장이	-11.2119
▁적합합니	-11.2126
▁통제	-11.2134
▁결과는	-11.2137
▁등산	-11.215
신다고	-11.215
▁흥분	-11.2151
지에	-11.2154
견	-11.2157
▁제기	-11.2163
▁이상이	-11.2167
죽	-11.2172
▁것임	-11.2184
쪽에	-11.2186
밀	-11.2187
▁알려드릴	-11.2191
▁흥미	-11.2192
시간이	-11.2192
ni	-11.2193
순	-11.2197
▁시청	-11.2198
▁지점에	-11.2199
관계	-11.2203
▁들어갔	-11.2207
기관	-11.2208
드려서	-11.2212
▁걸리는	-11.2218
com	-11.2223
습	-11.2228
▁수락	-11.2231
항	-11.2236
딜	-11.2236
있어	-11.2238
차원	-11.2238
균	-11.2239
숙	-11.2245
둥	-11.2249
현	-11.2249
이니까	-11.225
환경	-11.2252
옵	-11.2253
▁건강에	-11.2254
멀	-11.2256
픽	-11.2256
롤	-11.2257
▁한국인	-11.2257
빵	-11.2257
핀	-11.2262
▁봉사	-11.2263
▁재개	-11.2263
털	-11.2265
식품	-11.2266
작업	-11.2268
came	-11.2273
▁마을	-11.2273
호텔	-11.2274
법으로	-11.2276
▁젤	-11.2282
ake	-11.2283
공장	-11.2297
▁인정받	-11.2297
▁juice	-11.23
cial	-11.2309
었잖아요	-11.2313
▁web	-11.2314
▁wor	-11.2314
▁고구마	-11.2318
tic	-11.2319
▁하며	-11.2323
▁책임지	-11.2323
르게	-11.2327
▁평소	-11.2328
▁provid	-11.2328
▁지적	-11.2329
겠는데	-11.2331
▁덮	-11.2332
이상	-11.2341
일에서	-11.2356
했고	-11.2359
▁문제점	-11.2361
결제	-11.2367
▁transfer	-11.237
▁happen	-11.2373
▁하단	-11.2373
대에	-11.2375
▁팀장	-11.2379
▁측면	-11.2383
▁추억	-11.2387
▁engine	-11.239
▁burn	-11.2394
름	-11.2395
▁wrap	-11.2395
▁bag	-11.2401
▁friend	-11.2406
▁drug	-11.2406
▁institute	-11.2406
▁chemical	-11.2406
▁network	-11.2406
아야	-11.2407
▁sensor	-11.2407
▁균일	-11.2407
▁teach	-11.2407
▁세균	-11.2409
▁prepar	-11.2409
▁chair	-11.2411
▁leg	-11.2412
▁입주	-11.2412
▁field	-11.2414
▁travel	-11.2417
▁말씀드릴	-11.2419
▁하네	-11.242
▁완료되	-11.2423
▁숙	-11.2424
▁면도	-11.2427
▁serve	-11.2428
▁가운데	-11.2429
▁계실	-11.243
▁비상	-11.2433
▁예뻐	-11.2433
▁lack	-11.2442
▁클라이언트	-11.2447
▁면허	-11.2447
▁paint	-11.2448
▁리스트	-11.2449
▁invest	-11.2452
▁attach	-11.2453
뇨	-11.2454
켓	-11.2456
▁stage	-11.2459
▁주입	-11.246
▁방지하	-11.2461
▁balance	-11.2461
스러웠	-11.2461
▁트랙	-11.2462
혔	-11.2462
▁achieve	-11.2462
끼리	-11.2463
▁룩	-11.2464
▁LA	-11.2467
irport	-11.2467
틱	-11.2467
▁기다렸	-11.2468
parent	-11.2469
▁키워	-11.247
외선	-11.247
쪼	-11.247
칭	-11.247
▁disappoint	-11.247
▁shop	-11.247
▁suffer	-11.247
▁컨디셔너	-11.247
▁Association	-11.247
▁CPU	-11.247
▁Next	-11.247
▁October	-11.247
▁Saturday	-11.247
▁abroad	-11.247
▁accommodation	-11.247
▁accumulate	-11.247
▁accurate	-11.247
▁activities	-11.247
▁alcohol	-11.247
▁artificial	-11.247
▁behind	-11.247
▁blue	-11.247
▁budget	-11.247
▁circumstances	-11.247
▁education	-11.247
▁glad	-11.247
▁honest	-11.247
▁impossible	-11.247
▁instead	-11.247
▁language	-11.247
▁laptop	-11.247
▁poor	-11.247
▁refrigerator	-11.247
▁registration	-11.247
▁retail	-11.247
▁six	-11.247
▁surge	-11.247
▁surprised	-11.247
▁sweet	-11.247
▁teeth	-11.247
▁vacuum	-11.247
▁겪었	-11.247
▁그곳에서	-11.247
▁긁힘	-11.247
▁기쁜	-11.247
▁껍질	-11.247
▁끓이	-11.247
▁눈썹	-11.247
▁당첨	-11.247
▁뒷면	-11.247
▁뚜왈기	-11.247
▁뜯어	-11.247
▁말레이시아에	-11.247
▁멋스러	-11.247
▁뵙는	-11.247
▁불어넣	-11.247
▁빈티지	-11.247
▁빼고	-11.247
▁뽀뽀	-11.247
▁삭제	-11.247
▁샌드위치	-11.247
▁서둘러	-11.247
▁애완동물	-11.247
▁양세형	-11.247
▁어쩌	-11.247
▁여섯	-11.247
▁촉박	-11.247
▁캘리포니아	-11.247
▁컨디션	-11.247
▁컨테이너	-11.247
▁컴팩트	-11.247
▁코코넛	-11.247
▁클렌저	-11.247
▁튀기	-11.247
▁특약	-11.247
▁파프리카	-11.247
▁프랑스	-11.247
▁하이브리드	-11.247
▁횟수	-11.247
둡	-11.247
뻤	-11.247
쏙	-11.247
▁funny	-11.247
▁middle	-11.247
▁regard	-11.247
▁빌려	-11.247
▁초고속	-11.247
▁프라이팬	-11.247
춥	-11.247
▁boast	-11.247
▁estate	-11.247
▁hurry	-11.247
▁lens	-11.247
▁properties	-11.247
▁고화질	-11.247
▁원두커피	-11.247
▁일회용	-11.247
@	-11.247
▁Alright	-11.247
▁마운트	-11.247
▁범죄	-11.247
▁conduct	-11.247
▁suppose	-11.247
▁부속품	-11.247
▁사우나	-11.247
▁channel	-11.247
▁culture	-11.247
▁anti	-11.247
▁summer	-11.247
▁형수님	-11.247
▁furniture	-11.247
▁립스틱	-11.247
▁neck	-11.247
▁twist	-11.247
▁트렌디	-11.247
▁exhibition	-11.247
▁압축	-11.247
▁폐쇄	-11.247
▁락스	-11.247
▁seminar	-11.247
▁스위트룸	-11.247
▁악취	-11.247
▁유익	-11.247
▁호스텔	-11.247
▁다이얼	-11.247
LCD	-11.247
▁spent	-11.247
▁모른다	-11.247
▁ERP	-11.247
▁세찬아	-11.247
▁emotion	-11.247
xim	-11.247
▁spend	-11.247
▁기쁨	-11.247
▁희생	-11.247
▁Master	-11.247
▁fruit	-11.247
▁존경	-11.247
▁유통기한	-11.2471
▁reliable	-11.2471
▁졸업	-11.2471
▁마그네	-11.2471
▁cash	-11.2471
▁스킨케어	-11.2471
▁download	-11.2471
▁130	-11.2471
▁돼지고기	-11.2471
▁스타트업	-11.2471
▁춤추	-11.2471
▁flavor	-11.2471
▁반도체	-11.2471
▁stone	-11.2471
▁고속도로	-11.2471
▁견학	-11.2471
▁일상생활	-11.2471
▁주의사항	-11.2471
▁검정색	-11.2471
▁promotion	-11.2471
▁루즈	-11.2471
▁attractive	-11.2471
▁sister	-11.2471
▁미치겠네	-11.2471
▁여보	-11.2471
▁연애	-11.2471
▁통조림	-11.2471
랜드	-11.2471
▁산뜻	-11.2471
▁익혀	-11.2471
▁percent	-11.2471
▁파란색	-11.2471
▁funds	-11.2471
▁radi	-11.2471
▁바꿀	-11.2471
▁중소기업	-11.2471
nual	-11.2471
▁Sir	-11.2471
▁처방	-11.2471
▁impressive	-11.2471
▁충족시킬	-11.2471
▁pants	-11.2471
▁완비	-11.2471
▁평평	-11.2471
▁satisfied	-11.2471
▁금전적	-11.2471
▁수익률	-11.2471
▁논문	-11.2471
▁oh	-11.2471
▁강렬	-11.2471
▁exter	-11.2471
▁명령	-11.2471
▁extend	-11.2471
▁합금	-11.2471
▁블랙박스	-11.2471
▁카레	-11.2472
▁청중	-11.2472
▁sophisticated	-11.2472
▁창업	-11.2472
▁받았으며	-11.2472
▁anywhere	-11.2472
▁생생	-11.2472
▁잘됐네요	-11.2472
▁select	-11.2472
▁600	-11.2472
▁미칩니	-11.2472
▁코딩	-11.2472
▁ideal	-11.2472
▁미치겠다	-11.2472
▁보행	-11.2472
▁중요하지만	-11.2472
▁레이스	-11.2472
▁과연	-11.2473
▁camping	-11.2473
▁물리적	-11.2473
▁타이어	-11.2473
▁Uh	-11.2473
▁grade	-11.2473
하시다면	-11.2473
▁소속	-11.2473
▁힘내	-11.2473
▁채우	-11.2473
▁임원진	-11.2473
▁history	-11.2473
▁잠재력	-11.2473
▁확산	-11.2474
▁실외	-11.2474
▁번거로	-11.2474
▁신약	-11.2474
▁전자파	-11.2474
▁president	-11.2474
▁공통	-11.2474
▁26	-11.2474
▁진공	-11.2474
▁구강	-11.2474
▁장르	-11.2474
▁Try	-11.2474
▁마스터	-11.2475
▁notification	-11.2475
▁집약	-11.2475
▁amazing	-11.2475
▁무방	-11.2475
▁Too	-11.2475
▁2019	-11.2475
▁90%	-11.2475
▁인재	-11.2476
▁damaged	-11.2476
▁중개인	-11.2476
▁유지시켜	-11.2476
▁됐는데	-11.2476
▁exactly	-11.2476
▁유래	-11.2476
▁noodles	-11.2476
▁Other	-11.2476
▁칫솔질	-11.2477
▁5000	-11.2477
▁통계	-11.2477
▁tired	-11.2477
▁장난	-11.2477
▁가져오	-11.2477
▁May	-11.2477
▁운행	-11.2477
▁바삭	-11.2478
게도	-11.2478
mobile	-11.2478
▁침체	-11.2478
▁인조	-11.2478
▁enable	-11.2478
▁부피	-11.2478
▁Min	-11.2478
▁바보	-11.2479
▁장식	-11.248
▁산소	-11.248
▁종합	-11.2481
▁맛있어	-11.2481
▁시료	-11.2481
▁심장	-11.2481
▁제때	-11.2481
▁참치	-11.2482
▁있잖아	-11.2482
였어요	-11.2482
▁긴급	-11.2483
▁기여	-11.2483
▁ahead	-11.2483
▁부탁드려요	-11.2483
▁호평	-11.2483
▁다음달	-11.2483
▁지향	-11.2483
▁전망	-11.2483
▁소비자들에게	-11.2484
▁달력	-11.2484
▁중증	-11.2485
▁보석	-11.2485
▁자율주행	-11.2485
▁fast	-11.2486
▁collect	-11.2486
▁의료용	-11.2486
▁세우	-11.2486
▁25%	-11.2486
▁오버	-11.2486
▁savings	-11.2487
▁shoes	-11.2487
▁약물	-11.2487
▁길어	-11.2488
▁죽어	-11.2488
▁들으	-11.2488
▁실시	-11.2489
▁당근	-11.2489
▁과실	-11.2489
▁성격	-11.2489
thous	-11.249
▁onions	-11.2492
▁toy	-11.2492
▁shipment	-11.2492
▁썬	-11.2492
▁삼겹살	-11.2492
▁아미노산	-11.2492
▁펀딩	-11.2492
▁흑	-11.2492
▁펴	-11.2492
▁좋아하는데	-11.2492
▁기상	-11.2492
▁direction	-11.2492
▁Wait	-11.2493
▁평생	-11.2493
▁풍력	-11.2493
▁치매	-11.2493
▁좋네요	-11.2493
▁2020	-11.2493
▁설마	-11.2493
▁곡물	-11.2494
▁배추	-11.2494
▁replacement	-11.2494
▁UV	-11.2494
▁아버님	-11.2495
▁inspection	-11.2495
▁유연제	-11.2495
AC	-11.2495
▁반찬	-11.2495
▁증상	-11.2495
▁glasses	-11.2496
▁캐	-11.2496
▁센스	-11.2496
▁관절	-11.2496
▁party	-11.2496
▁감시	-11.2497
▁반사	-11.2497
▁비닐	-11.2497
▁양해해	-11.2497
▁열리	-11.2497
▁carrying	-11.2498
▁중점을	-11.2498
▁구두	-11.2498
▁순대	-11.2498
▁wire	-11.2498
▁아파	-11.2498
▁출원	-11.2498
▁독서	-11.2498
▁맞네	-11.2498
▁이력서	-11.2498
mi	-11.2499
▁짧아	-11.2499
▁줄어	-11.2499
▁제외하고	-11.25
▁자부	-11.25
▁감사드리고	-11.25
▁사이드	-11.25
▁넣어야	-11.25
RM	-11.25
▁제품군	-11.2501
▁테니스	-11.2501
▁reduced	-11.2502
▁체내	-11.2502
▁gold	-11.2502
▁정제	-11.2503
▁잠시만요	-11.2504
▁넣으면	-11.2504
▁전화해	-11.2504
▁콘도	-11.2505
▁created	-11.2505
▁열리지	-11.2505
▁요구사항	-11.2506
▁dust	-11.2506
▁있으니까요	-11.2507
하였으니	-11.2509
그램	-11.251
rosis	-11.2511
▁성실	-11.2512
▁아이스	-11.2512
▁00	-11.2513
▁closed	-11.2514
▁시차	-11.2515
▁있든	-11.2516
▁Sound	-11.2517
▁멋있어	-11.2517
▁몰라요	-11.2517
▁장면	-11.2518
▁pieces	-11.2518
▁마당	-11.2519
▁활용하여	-11.2519
▁users	-11.252
하셨다면	-11.252
▁마시기	-11.252
▁확인하시는	-11.2521
▁소주	-11.2522
▁action	-11.2523
▁라운드	-11.2524
▁비어	-11.2525
▁좋아하시는	-11.2526
▁included	-11.2527
▁정품	-11.2527
▁알지만	-11.2527
▁treat	-11.2528
▁가실	-11.2528
▁결과물	-11.2529
▁해주셔야	-11.2529
▁해가지고	-11.2529
▁legs	-11.2529
▁catch	-11.253
▁옥수수	-11.253
▁꿀	-11.253
▁랩	-11.253
▁강화된	-11.2531
▁망고	-11.2534
▁어머나	-11.2535
▁좋은데요	-11.2536
▁lighting	-11.2536
▁넘치	-11.2537
▁1%	-11.2537
▁연구소에서	-11.2538
▁이분	-11.2538
ized	-11.2539
▁인구	-11.254
▁bills	-11.254
▁찍고	-11.2542
▁어려워	-11.2544
▁accounting	-11.2544
▁인지도	-11.2546
▁issues	-11.2551
▁만들었다	-11.2551
▁음료수	-11.2553
▁빠르면	-11.2555
▁소문	-11.2556
▁활용하기	-11.2557
▁중형	-11.2557
으셨어요	-11.2557
▁사랑받	-11.2557
▁Won	-11.2559
▁함유량	-11.256
▁robots	-11.2561
▁partners	-11.2561
▁노트	-11.2561
▁뛰어나	-11.2563
▁요일	-11.2566
▁조심해야	-11.2566
▁고급스럽	-11.2567
▁뷰	-11.2568
▁내려오	-11.257
▁동요	-11.2572
▁돋보이	-11.2572
▁들었는데	-11.2573
천만	-11.2574
▁크지	-11.2574
▁예약해야	-11.2574
▁제작진	-11.2575
▁HD	-11.2575
▁아악	-11.2575
외에도	-11.2577
▁공유하고	-11.2577
▁seen	-11.2578
▁shake	-11.2579
▁optic	-11.2579
▁말이야	-11.258
▁기술에	-11.258
▁첨가	-11.2581
▁고소	-11.2583
운이	-11.2584
▁미용	-11.2584
일곱	-11.2584
▁Sha	-11.2586
▁그러게	-11.2592
▁보내세요	-11.2593
▁치과	-11.2593
▁vehicles	-11.2594
▁관광지	-11.2594
▁나랑	-11.2594
▁showing	-11.2596
▁보이고	-11.2597
▁주방에서	-11.2599
▁품절	-11.2599
▁알아봐	-11.2599
▁정전	-11.2601
▁먹게	-11.2602
▁관해서	-11.2602
ide	-11.2602
▁소개되어	-11.2603
▁images	-11.2604
▁구독자	-11.2605
▁듀	-11.2608
▁기장	-11.2609
▁82	-11.2611
▁사업체	-11.2611
▁추워	-11.2611
▁번씩	-11.2614
▁바꾸는	-11.2614
▁못했	-11.2615
부를	-11.2616
▁조개	-11.2616
▁그린	-11.2618
▁하거든요	-11.262
▁36	-11.2623
▁Out	-11.2627
▁제조기	-11.2627
▁오세요	-11.2629
ft	-11.2629
▁공항에서	-11.263
▁포인트로	-11.2633
▁창고에서	-11.2635
▁models	-11.2637
▁퇴	-11.2643
▁손님들이	-11.2645
▁입자	-11.2645
▁분에게	-11.2647
▁사용될	-11.2647
▁탑	-11.2647
▁척	-11.2649
▁연말에	-11.2659
▁거대	-11.2663
ma	-11.2664
▁Final	-11.2672
▁올라갈	-11.2673
▁낙지	-11.2675
▁출고가	-11.2675
▁이상한	-11.2682
▁전역	-11.2683
▁롤	-11.2687
▁나누어	-11.2692
▁절대로	-11.2692
▁온다고	-11.2694
▁여행용	-11.2697
▁이야기하고	-11.2698
▁달라지	-11.2699
수를	-11.2699
▁버리	-11.2707
▁부작용이	-11.2707
▁심플	-11.2709
▁공항에	-11.2711
▁변기	-11.2711
▁포트	-11.2715
▁봐서	-11.2719
▁오차	-11.2721
▁브	-11.2721
▁inquire	-11.2721
▁비서	-11.2722
제품은	-11.2723
▁samples	-11.2724
▁제품인가요	-11.2726
▁그렇기에	-11.2728
▁발생한	-11.2729
▁공급하고	-11.2731
▁plans	-11.2732
▁모르겠다	-11.2734
▁돕는	-11.2736
님께	-11.2742
▁찾으	-11.2743
셨구나	-11.2743
▁필	-11.2747
os	-11.2748
ond	-11.2749
▁입국	-11.275
▁놀랐어	-11.2751
▁자랑스럽	-11.2754
▁흥미로	-11.2757
▁가정에	-11.2758
▁세계에서	-11.2758
▁아시	-11.2768
dy	-11.2774
▁보려고	-11.2779
분기	-11.278
▁아니라면	-11.2781
▁선반	-11.2782
▁벌어	-11.2782
때마다	-11.2786
F	-11.2787
▁안티	-11.2788
▁소화	-11.2788
▁드리기	-11.279
▁시내	-11.2795
조차	-11.2801
▁좋겠는데	-11.2802
▁promote	-11.2803
▁입기	-11.2805
▁sil	-11.2806
▁technic	-11.281
차가	-11.2813
▁카드로	-11.2814
▁귀에	-11.2819
▁Che	-11.282
▁주차장	-11.2823
▁sizes	-11.2823
▁부자	-11.2825
▁제안하고	-11.2828
▁가려고	-11.2828
▁않으셨다	-11.2828
▁k	-11.2831
▁기기에	-11.2832
▁d	-11.2833
▁ice	-11.2836
urious	-11.2836
▁비만	-11.2836
▁표면에	-11.2837
▁복	-11.2843
▁정지	-11.2844
▁영업일	-11.2848
▁생산성	-11.2848
▁없지	-11.2851
▁판매하기	-11.2852
▁속에	-11.2859
▁배송하는	-11.2859
▁얘는	-11.2862
▁사인	-11.2862
▁건가	-11.2863
▁팀에서	-11.2864
▁경우에도	-11.2868
▁투자할	-11.2882
▁bio	-11.2887
▁감사하다	-11.289
▁오르	-11.2892
▁다행	-11.2902
▁열려	-11.2902
▁그물	-11.2909
▁스펙	-11.291
▁이루어진	-11.2911
▁계시면	-11.2914
▁후회	-11.2925
▁동료들	-11.2926
▁쯤	-11.293
▁물어볼	-11.2936
▁오해	-11.2941
졌어	-11.2942
▁크기에	-11.2944
▁않은데	-11.2946
로써	-11.2948
▁남편이	-11.2949
▁보내는	-11.2951
▁끼쳐드	-11.2952
▁제출해	-11.2953
▁markets	-11.2967
▁기본적	-11.2968
▁feels	-11.2968
▁teams	-11.2978
개로	-11.298
화된	-11.298
ent	-11.2985
▁본다	-11.2989
▁이득	-11.2991
▁시키	-11.2996
▁충실	-11.2998
▁취급하	-11.3
▁다운	-11.3002
▁상대	-11.3003
▁사용량	-11.3011
▁충족	-11.3017
이식	-11.3019
▁수동	-11.3033
▁화를	-11.3044
▁공급자	-11.3045
▁이용자	-11.3047
▁정해지	-11.305
▁말은	-11.3051
▁해주셨	-11.3052
▁있으신지	-11.3055
▁제공해드리	-11.3056
▁요청합니다	-11.3059
R	-11.306
▁해외로	-11.306
송	-11.306
88	-11.3065
▁위에다	-11.3065
▁결함	-11.3072
▁수건	-11.3076
▁Con	-11.308
▁돼서	-11.308
▁주장	-11.3081
▁x	-11.3085
▁customize	-11.3085
▁판매량	-11.3086
▁pa	-11.309
▁어렵지	-11.3093
▁줄기	-11.31
▁안정적이	-11.3103
▁날이	-11.3105
▁엄격	-11.3108
wards	-11.3114
▁시간만	-11.3115
▁자체가	-11.312
▁싶고	-11.312
▁사장님이	-11.3123
었을	-11.3125
▁불이	-11.3128
▁무한	-11.313
▁생산되	-11.3136
▁간이	-11.3144
▁arrange	-11.3151
▁만나기	-11.3151
ence	-11.3154
▁r	-11.3155
성은	-11.3175
30	-11.3186
주시겠	-11.3187
▁주문하	-11.3194
▁32	-11.3196
리스	-11.3198
▁저요	-11.3203
▁기업에	-11.3216
▁아닌가	-11.3221
▁좋아하지	-11.3223
▁전시	-11.324
▁계정이	-11.3249
ired	-11.3251
▁맞다	-11.3266
▁분기	-11.3267
에다가	-11.3277
▁산화	-11.329
되었는지	-11.3295
▁피곤	-11.3299
▁Pu	-11.3307
▁나가면	-11.331
▁호환되	-11.3322
▁모여	-11.3333
끄러운	-11.334
▁맞이	-11.3342
▁신제품이	-11.3347
▁사람에	-11.3349
▁거니까	-11.335
▁달성	-11.3356
▁마지막에	-11.3367
▁여기다	-11.3375
가스	-11.3378
▁들어보	-11.3386
받고	-11.3394
▁Us	-11.3395
능	-11.3404
ra	-11.3412
▁넣기	-11.342
▁제작에	-11.3428
▁가기	-11.3433
▁고생하셨	-11.3438
했기	-11.3451
▁일하기	-11.3454
리지	-11.3458
▁간에	-11.3464
▁환상적	-11.3468
▁Sta	-11.3471
▁그랬잖아	-11.3475
이었어요	-11.3477
▁others	-11.3484
▁이용하지	-11.3487
▁장담	-11.3508
▁미러	-11.3509
▁송금해	-11.3516
선을	-11.3532
징	-11.3533
과정	-11.3541
▁독점	-11.3544
하시는데	-11.3544
▁중요한데	-11.3549
라이	-11.3559
▁산이	-11.3561
▁만족하	-11.3563
▁으아	-11.3567
▁디스크	-11.357
▁선보이	-11.3574
▁ba	-11.3602
ning	-11.363
▁되시나	-11.3632
▁나라에	-11.3633
▁택	-11.3635
▁지어	-11.3651
▁잘한다	-11.3652
▁들지	-11.3658
▁고쳐	-11.3658
ental	-11.3659
▁방문하시	-11.3666
▁시절	-11.3704
▁가리	-11.3715
▁부모	-11.3719
▁사정이	-11.3721
▁다음으로	-11.3724
▁Eas	-11.3728
폴	-11.3737
물이	-11.3739
씨는	-11.3756
▁이야기해	-11.3766
▁마케팅에	-11.3778
▁필리핀	-11.3783
이어서	-11.3788
ater	-11.379
느	-11.3798
장님	-11.3804
시겠지만	-11.3805
san	-11.3809
▁답변해	-11.3811
▁조정해야	-11.3813
▁돌아가는	-11.3819
▁나야	-11.3821
▁wet	-11.3835
▁고장	-11.3843
축	-11.3843
▁ever	-11.3851
▁오후에	-11.3852
▁분께	-11.3854
▁참가자	-11.3854
▁secret	-11.3854
상품	-11.3873
▁frie	-11.3873
사로	-11.3875
▁불편한	-11.3876
▁말씀드려	-11.3885
▁연구에	-11.3901
▁땅에	-11.3902
팀에서	-11.3905
▁계정에	-11.3923
▁처리가	-11.3926
▁알아볼	-11.3929
▁흔들	-11.393
ung	-11.3934
▁55	-11.3949
왔던	-11.3957
▁물가	-11.3961
▁201	-11.3967
▁note	-11.3971
으셔서	-11.3972
▁하드	-11.398
▁생각되	-11.3992
▁우리와	-11.4009
▁cra	-11.4014
▁유행	-11.4016
▁작동할	-11.4023
채	-11.4028
▁어마어마	-11.403
이었는데	-11.4038
▁임원	-11.4043
▁작성해	-11.4053
▁받아들이	-11.4054
▁강하	-11.406
▁프	-11.4061
▁날아	-11.407
나무	-11.4074
▁앱에	-11.408
▁스크래치	-11.4081
son	-11.4083
쪽으로	-11.4094
▁클	-11.4094
▁140	-11.4103
go	-11.4104
▁캡처	-11.4116
▁부르	-11.4116
ze	-11.4119
▁저조	-11.4124
▁플라스틱이	-11.4131
▁Al	-11.4133
하려	-11.4134
▁선배	-11.4136
▁계약자	-11.4139
▁후회하	-11.4146
▁궁금하	-11.415
▁blog	-11.4153
tte	-11.4163
시키면	-11.4167
▁inquir	-11.4168
▁필요성	-11.4171
▁해외배송	-11.4174
눈	-11.4178
▁너가	-11.4178
해주셨	-11.418
▁보장해	-11.4183
남	-11.4186
▁심플하	-11.4188
변	-11.4189
AAA	-11.4195
▁좋아지	-11.4195
극	-11.4196
▁떨어진	-11.4196
▁tour	-11.4199
▁이번달	-11.4207
▁챙겨	-11.4209
컴퍼니	-11.4209
cross	-11.4209
테라	-11.4213
▁기계들	-11.4222
▁멀	-11.423
ho	-11.423
door	-11.423
룰	-11.4234
상태	-11.4238
존	-11.424
독	-11.4241
클	-11.4241
law	-11.4241
▁과거	-11.4243
걸음	-11.425
버섯	-11.425
착	-11.4251
척	-11.4253
▁해소	-11.4253
퇴	-11.4256
탑	-11.4258
약품	-11.4258
끈	-11.4258
▁전달하는	-11.4258
▁만료	-11.4259
▁Li	-11.426
측	-11.4261
콩	-11.4264
페이지	-11.4264
테니	-11.4264
라이트	-11.4265
뼈	-11.4266
type	-11.4268
we	-11.4269
치면	-11.4269
능력	-11.4271
혹	-11.4271
생활	-11.4272
wear	-11.4272
모델	-11.4274
큰	-11.4274
화학	-11.4276
그래도	-11.4276
▁성수기	-11.4277
food	-11.4277
▁operat	-11.4281
검사	-11.4281
통신	-11.4283
mission	-11.4283
산업	-11.4287
of	-11.4288
더니	-11.4292
▁나고	-11.4292
화로	-11.4292
마리	-11.4293
효과	-11.4295
▁테이블에	-11.4297
year	-11.4302
set	-11.4304
돼서	-11.4306
▁관리해	-11.431
▁폭탄	-11.4315
워요	-11.4316
령	-11.4318
▁98	-11.432
▁stick	-11.4321
▁800	-11.4325
tive	-11.4325
▁모기	-11.4328
유리	-11.4329
밀도	-11.4329
▁떨어	-11.4331
▁입맛	-11.4335
▁교수님	-11.4336
▁optim	-11.4344
▁지워	-11.4349
▁360	-11.435
▁원인이	-11.4351
clear	-11.4354
▁man	-11.4355
▁인터뷰	-11.4356
▁리더	-11.4357
묘	-11.4365
▁33	-11.4367
큼	-11.4367
▁경쟁사	-11.4372
가죽	-11.4373
츠	-11.4377
비용	-11.4378
▁writ	-11.438
제품에	-11.4381
르는	-11.4389
▁티셔츠	-11.4392
ors	-11.4395
▁bullet	-11.44
▁movie	-11.44
서류	-11.4401
▁일치	-11.4401
▁fee	-11.4404
문을	-11.4404
▁보수	-11.4404
▁확실하	-11.4405
▁bicycle	-11.4406
▁ticket	-11.4406
▁bathroom	-11.4406
▁드신	-11.4407
휴	-11.4407
리에	-11.4407
오일	-11.4408
▁이따	-11.4408
ling	-11.4409
▁movement	-11.4411
▁weekend	-11.4411
▁piece	-11.4412
▁고맙	-11.4418
▁사물	-11.4418
▁악보	-11.442
룬	-11.4428
▁par	-11.4429
▁bone	-11.443
▁설문	-11.4436
됐어요	-11.4436
▁계절	-11.4436
ily	-11.4437
보시고	-11.4438
▁뿌	-11.444
▁찢어	-11.444
▁hour	-11.4444
▁jump	-11.4445
▁작아	-11.4447
▁어른	-11.4449
▁웃겨	-11.4451
▁다녀오	-11.4451
▁miss	-11.4451
져야	-11.4453
▁미쳤	-11.4453
▁dog	-11.4455
yeon	-11.4457
▁미안해	-11.4457
ork	-11.4458
엽	-11.4459
▁두께	-11.4459
▁스위	-11.4461
▁스케	-11.4462
▁머무	-11.4462
▁release	-11.4462
▁원하신다	-11.4462
▁sudden	-11.4463
▁exact	-11.4463
▁짜장	-11.4465
욕	-11.4465
▁notice	-11.4465
▁lab	-11.4465
랐	-11.4466
▁normal	-11.4467
▁mode	-11.4467
▁바뀌었	-11.4468
▁서랍	-11.4468
▁OO	-11.4469
셜	-11.4469
▁consult	-11.447
▁succe	-11.447
▁실례	-11.447
▁핸드	-11.447
레이션	-11.447
▁character	-11.447
▁블록	-11.447
jja	-11.447
▁Yeon	-11.447
늄	-11.447
▁approach	-11.447
▁target	-11.447
▁캐주얼	-11.447
moisturizing	-11.447
▁BPA	-11.447
▁Bluetooth	-11.447
▁Congratulations	-11.447
▁Design	-11.447
▁FDA	-11.447
▁GPU	-11.447
▁Hotel	-11.447
▁aluminum	-11.447
▁annoy	-11.447
▁atmosphere	-11.447
▁certification	-11.447
▁chocolate	-11.447
▁climate	-11.447
▁cloud	-11.447
▁detach	-11.447
▁frame	-11.447
▁leaving	-11.447
▁license	-11.447
▁mirror	-11.447
▁packaging	-11.447
▁potato	-11.447
▁prototype	-11.447
▁razor	-11.447
▁relief	-11.447
▁rubber	-11.447
▁scalp	-11.447
▁society	-11.447
▁stylish	-11.447
▁subscription	-11.447
▁survey	-11.447
▁telephone	-11.447
▁traffic	-11.447
▁twice	-11.447
▁가벼워	-11.447
▁거짓말	-11.447
▁끊임없	-11.447
▁낱개	-11.447
▁느낍니	-11.447
▁둘러싸	-11.447
▁뜯을	-11.447
▁무릎	-11.447
▁무브먼트	-11.447
▁밑창	-11.447
▁볶음	-11.447
▁붙여	-11.447
▁뷔페	-11.447
▁브로셔	-11.447
▁블라인드	-11.447
▁비주얼	-11.447
▁섬세	-11.447
▁세라믹	-11.447
▁숟가락	-11.447
▁슬리퍼	-11.447
▁식자재	-11.447
▁싱크대	-11.447
▁쌓인	-11.447
▁썰어	-11.447
▁애프터	-11.447
▁에이전트	-11.447
▁울트라	-11.447
▁의사소통	-11.447
▁이음새	-11.447
▁잃어버	-11.447
▁전염병	-11.447
▁젊어	-11.447
▁좁아	-11.447
▁좋죠	-11.447
▁주최하	-11.447
▁청바지	-11.447
▁촉촉	-11.447
▁카트리지	-11.447
▁캐비닛	-11.447
▁캐시미어	-11.447
▁컨설팅	-11.447
▁컨셉	-11.447
▁튀겨	-11.447
▁특이	-11.447
▁팬데믹	-11.447
▁포트폴리오	-11.447
▁폴란드	-11.447
▁프린트	-11.447
▁허벅지	-11.447
겐	-11.447
뀐	-11.447
쉴	-11.447
▁activity	-11.447
▁corner	-11.447
▁heavy	-11.447
▁implement	-11.447
▁induction	-11.447
▁luxurious	-11.447
▁subject	-11.447
▁subscribe	-11.447
▁switch	-11.447
▁곳곳에	-11.447
▁라이브	-11.447
▁리튬이온	-11.447
▁유지보수	-11.447
▁육개장	-11.447
▁클레임	-11.447
웅	-11.447
▁Dae	-11.447
▁Manager	-11.447
▁holiday	-11.447
▁pepper	-11.447
▁stories	-11.447
▁베스트셀러	-11.447
▁콘센트	-11.447
▁angry	-11.447
▁gratitude	-11.447
▁lunch	-11.447
▁remittance	-11.447
▁틈새	-11.447
▁골목식당	-11.447
▁렌탈	-11.447
▁상용화	-11.447
▁garlic	-11.447
▁modern	-11.447
▁relax	-11.447
▁shopping	-11.447
▁낭비	-11.447
켤레	-11.447
▁stress	-11.447
▁urgent	-11.447
▁volume	-11.447
▁이광수	-11.447
▁micro	-11.447
▁failure	-11.447
▁keyboard	-11.447
▁married	-11.447
▁technologies	-11.447
▁트래픽	-11.447
▁mask	-11.447
▁들자면	-11.447
▁전지판	-11.447
▁흐름	-11.447
▁massage	-11.447
▁홍합	-11.447
▁trend	-11.447
▁놔둬	-11.447
▁리튬	-11.447
▁주파수	-11.447
▁2021	-11.447
▁pharmaceutical	-11.447
▁Hold	-11.447
▁2~3	-11.447
▁stability	-11.447
▁소규모	-11.447
▁internet	-11.447
▁진입	-11.447
▁continuous	-11.447
▁dirt	-11.447
▁supple	-11.447
▁premium	-11.447
▁항균	-11.447
▁유입	-11.4471
▁도자기	-11.4471
▁레벨	-11.4471
▁체육관	-11.4471
▁탑승	-11.4471
▁요원들	-11.4471
▁램프	-11.4471
▁닭고기	-11.4471
▁닭갈비	-11.4471
▁리넨	-11.4471
▁당분간	-11.4471
▁시각적	-11.4471
▁insulation	-11.4471
▁물티슈	-11.4471
▁쿠키	-11.4471
▁winter	-11.4471
▁허락	-11.4471
▁hungry	-11.4471
▁smoke	-11.4471
▁고성능	-11.4471
▁배고파	-11.4471
▁부담스러	-11.4471
▁캠프	-11.4471
▁caught	-11.4471
▁purifier	-11.4471
▁캐리어	-11.4471
▁감자탕	-11.4471
▁prim	-11.4471
▁좌우	-11.4471
▁말씀드리자면	-11.4471
infra	-11.4471
▁advertisement	-11.4471
▁flexible	-11.4471
▁사라지	-11.4471
▁Nice	-11.4471
▁루프	-11.4471
▁투숙	-11.4471
▁일으키	-11.4471
▁터널	-11.4471
▁아이돌	-11.4471
▁화이자	-11.4471
▁행위	-11.4471
ecutive	-11.4471
▁불렀	-11.4471
▁아름다움	-11.4471
▁긴밀	-11.4471
▁anniversary	-11.4471
▁로스팅	-11.4471
▁전세계	-11.4471
▁salt	-11.4471
▁인삼	-11.4471
▁가급적	-11.4471
▁폴리에스터	-11.4471
▁모텔	-11.4471
▁신축성	-11.4471
▁페달	-11.4471
▁salary	-11.4471
▁피스톤식	-11.4471
▁작곡	-11.4471
▁법률	-11.4471
▁견디	-11.4471
▁헤드셋	-11.4471
▁면목	-11.4471
▁압류	-11.4471
▁커플	-11.4471
▁페퍼	-11.4471
▁sense	-11.4471
▁워싱	-11.4471
▁Island	-11.4471
▁바이오닉스	-11.4471
▁사죄	-11.4471
▁hide	-11.4471
▁upper	-11.4471
▁포스터	-11.4472
▁낙하	-11.4472
ssel	-11.4472
▁India	-11.4472
▁responsibility	-11.4472
▁임무	-11.4472
▁defective	-11.4472
▁parents	-11.4472
▁PR	-11.4472
▁서핑	-11.4472
kill	-11.4472
▁서브	-11.4472
▁태그	-11.4472
▁창출	-11.4472
▁machinery	-11.4472
▁계십니까	-11.4472
▁memory	-11.4472
▁반송	-11.4472
▁결재	-11.4472
▁토퍼	-11.4472
▁economic	-11.4472
▁cutting	-11.4472
▁아픈	-11.4472
▁광학	-11.4472
▁경향	-11.4472
▁invitation	-11.4472
▁저자극	-11.4472
▁호우	-11.4472
▁욕실용품	-11.4472
▁게시물	-11.4472
▁커튼	-11.4472
▁무서운	-11.4472
▁부드러움	-11.4472
▁커팅	-11.4472
▁수단으로	-11.4473
government	-11.4473
▁page	-11.4473
▁세정제	-11.4473
▁Kindly	-11.4473
▁한의원	-11.4473
▁push	-11.4473
▁settle	-11.4473
▁치석	-11.4473
▁반환	-11.4473
▁excited	-11.4473
▁clothing	-11.4473
▁맞았어	-11.4473
▁누워	-11.4473
▁탄성	-11.4473
▁생방송	-11.4474
▁계층	-11.4474
▁육아	-11.4474
▁선두	-11.4474
▁June	-11.4474
▁조속	-11.4474
▁국민	-11.4474
▁미쳤어	-11.4474
▁유망	-11.4474
▁래치	-11.4474
▁previously	-11.4474
▁유료	-11.4474
▁음향	-11.4474
▁나아	-11.4474
▁label	-11.4475
▁comment	-11.4475
▁반경	-11.4475
▁output	-11.4475
▁진보	-11.4475
▁반복	-11.4475
▁어려웠던	-11.4475
▁지목	-11.4475
▁dad	-11.4475
▁발열	-11.4475
▁영양제	-11.4475
▁전표	-11.4475
▁동업	-11.4475
▁아쉽네요	-11.4476
▁토대로	-11.4476
▁놀러	-11.4476
▁올려놓	-11.4476
으려고	-11.4476
▁스위트	-11.4476
▁생선	-11.4476
디건	-11.4476
▁해봤는데	-11.4476
▁시범	-11.4476
▁방출	-11.4476
▁월등	-11.4476
▁태어나	-11.4476
▁무거워	-11.4476
▁대처	-11.4476
▁모피	-11.4476
▁다행이다	-11.4476
▁공공	-11.4476
▁매체	-11.4477
▁있으리라	-11.4477
▁coal	-11.4477
▁Ok	-11.4477
▁집안	-11.4477
▁이름표	-11.4477
▁즉석	-11.4477
▁실크	-11.4477
▁IOT	-11.4477
▁드셨으면	-11.4477
▁추천해주실	-11.4477
▁99.	-11.4477
▁mom	-11.4477
▁담배	-11.4477
▁welcome	-11.4477
▁차단제	-11.4477
▁월간	-11.4478
▁나오니까	-11.4478
▁manufacturer	-11.4478
▁하락	-11.4478
▁guests	-11.4478
epend	-11.4478
▁specifications	-11.4478
▁characteristics	-11.4478
▁모래	-11.4478
▁화질	-11.4478
▁intention	-11.4478
▁모르겠지만	-11.4478
▁비료	-11.4478
▁전담	-11.4479
▁기다려주세요	-11.4479
▁있으십니다	-11.4479
▁추정	-11.4479
▁채용	-11.4479
▁fat	-11.4479
▁prove	-11.4479
▁분유	-11.4479
▁헤	-11.4479
▁브라운	-11.448
해지고	-11.448
▁복수	-11.448
▁했거든요	-11.448
▁세관	-11.448
▁기체	-11.448
▁않을까	-11.448
▁finance	-11.448
▁동등	-11.448
▁모르겠어요	-11.448
년째	-11.448
▁agr	-11.448
▁삶아	-11.448
▁싶으시	-11.448
▁분량	-11.4481
▁rock	-11.4481
스토어	-11.4481
▁가습기	-11.4481
▁통상	-11.4481
▁염려	-11.4481
▁명단	-11.4481
▁은우	-11.4481
▁largest	-11.4481
▁복사기	-11.4482
▁활발	-11.4482
▁없으니까	-11.4482
▁예정이며	-11.4482
▁시안	-11.4482
▁승리	-11.4482
▁격리	-11.4482
▁프레젠테이션에	-11.4482
▁개조	-11.4483
▁온전	-11.4483
▁보강	-11.4483
▁유산	-11.4483
▁기호	-11.4483
▁없으며	-11.4483
▁65	-11.4483
▁준비되면	-11.4483
▁호스	-11.4483
▁의무	-11.4483
▁부재	-11.4484
▁성인용	-11.4484
▁PD	-11.4484
▁장애인	-11.4484
▁인터	-11.4484
▁옷장	-11.4484
▁고온	-11.4484
▁processes	-11.4485
▁입원	-11.4485
▁저번주	-11.4486
▁완충	-11.4486
▁아동용	-11.4486
▁다르죠	-11.4486
▁주거용	-11.4487
▁정당	-11.4487
▁거치대	-11.4487
▁bloo	-11.4487
▁가르치	-11.4488
개월간	-11.4488
▁일관	-11.4488
▁있겠네요	-11.4488
▁주문번호	-11.4488
▁sale	-11.4489
▁배송료	-11.4489
▁plant	-11.4489
▁던지	-11.4489
▁백팩	-11.4489
▁떨	-11.4489
▁지하	-11.4489
▁소유권	-11.4489
▁않았어요	-11.4489
▁분배	-11.4489
▁scent	-11.4489
▁제약	-11.4489
▁내년부터	-11.449
▁TO	-11.449
▁호주	-11.449
▁시연	-11.449
ists	-11.4491
▁요건	-11.4491
▁정산	-11.4491
으로써	-11.4491
▁소득	-11.4491
▁clearly	-11.4491
▁sports	-11.4491
▁배출량	-11.4491
▁해커	-11.4491
▁화장	-11.4492
▁즐거움	-11.4492
▁봉지	-11.4492
▁증대	-11.4492
▁안정감	-11.4493
▁영업시간	-11.4493
▁어떡해	-11.4493
▁되겠네요	-11.4493
▁주의해	-11.4493
▁indoor	-11.4494
▁규제	-11.4494
▁여닫	-11.4494
▁선생님께서	-11.4494
▁PE	-11.4495
▁그랬어요	-11.4495
▁윤지	-11.4496
▁해킹	-11.4496
▁fill	-11.4496
▁공구	-11.4496
gest	-11.4497
▁예상되는	-11.4497
▁캔	-11.4497
▁컴	-11.4497
▁establish	-11.4497
▁construction	-11.4497
▁맵	-11.4498
▁MRI	-11.4498
▁mentioned	-11.4498
▁방사선	-11.4498
▁싹	-11.4498
▁씰	-11.4498
▁짚	-11.4498
▁conference	-11.4498
▁fiber	-11.4498
▁복귀	-11.4498
▁체크아웃	-11.4498
▁트레이닝	-11.4498
▁금리	-11.4498
▁wood	-11.4498
▁어유	-11.4498
▁vision	-11.4498
▁텐	-11.4498
▁knowledge	-11.4498
▁독일	-11.4498
▁완료하였습니다	-11.4498
▁suggested	-11.4499
▁돌려야	-11.4499
▁Z	-11.4499
▁IP	-11.4499
▁버그	-11.4499
▁스키	-11.4499
▁shine	-11.45
▁부츠	-11.45
▁차장님	-11.45
▁city	-11.45
▁carbon	-11.45
▁받으세요	-11.45
▁계단	-11.4501
▁조각	-11.4501
▁일요일	-11.4501
▁해양	-11.4502
▁누락된	-11.4502
▁선호합니다	-11.4502
▁심각한	-11.4502
▁500,000	-11.4502
▁요청드렸	-11.4503
▁대결	-11.4503
▁concerns	-11.4504
▁dumplings	-11.4504
▁pads	-11.4504
▁고려해야	-11.4504
▁arrived	-11.4504
▁갈아입	-11.4504
▁협력사와	-11.4505
▁정직	-11.4505
▁traveler	-11.4505
▁impress	-11.4505
▁갈색	-11.4505
▁agency	-11.4505
▁금일	-11.4508
▁seaw	-11.4508
▁알려드리기	-11.4508
▁고마워요	-11.4508
▁promise	-11.4509
▁어플	-11.4509
▁받으신	-11.4509
▁walking	-11.451
▁매진	-11.451
▁야심	-11.451
▁종자	-11.4511
▁creat	-11.4511
란다	-11.4512
▁기다려야	-11.4513
▁closely	-11.4513
▁700	-11.4513
▁대사	-11.4513
hun	-11.4514
▁다행입니다	-11.4514
▁부대	-11.4514
▁표기	-11.4515
▁fishing	-11.4515
▁feed	-11.4515
▁지나면	-11.4516
▁코어	-11.4516
▁착용하기	-11.4516
▁않을까요	-11.4516
▁막대	-11.4517
▁있구나	-11.4518
▁마라	-11.4518
▁현대인	-11.4518
▁모집	-11.4519
▁팔아	-11.4519
▁Dr	-11.4519
▁벽면	-11.4519
▁drying	-11.452
▁저렴하	-11.452
버리	-11.452
▁arriv	-11.452
▁코트	-11.452
▁도와드립니다	-11.4521
▁함량	-11.4522
▁요금제	-11.4522
▁질문사항	-11.4523
▁주문건	-11.4523
▁적용될	-11.4523
▁오우	-11.4524
▁맞는데	-11.4524
▁보장하기	-11.4524
▁예쁘고	-11.4524
▁4,	-11.4525
▁war	-11.4526
▁많지만	-11.4526
▁농도	-11.4526
▁데님	-11.4527
▁회장님	-11.4528
▁더블	-11.4528
▁운송비	-11.4529
▁측면에	-11.453
▁장애	-11.4531
▁꾸	-11.4531
▁돌아오는	-11.4531
▁bite	-11.4531
▁세금	-11.4532
▁꼬	-11.4532
▁계산하고	-11.4533
▁한국산	-11.4534
줬는데	-11.4535
▁reading	-11.4536
▁분비	-11.4537
▁홍	-11.4537
▁속성	-11.4537
▁화상회의	-11.4538
▁봅	-11.4538
▁달라요	-11.4538
▁48	-11.4538
▁rank	-11.4539
9%	-11.4541
▁때려	-11.4541
▁learning	-11.4541
▁탁	-11.4541
▁오프	-11.4541
▁하셨지요	-11.4543
▁chairs	-11.4543
▁쿠	-11.4543
▁happens	-11.4544
▁순환	-11.4544
▁톡	-11.4545
▁앙	-11.4545
▁official	-11.4545
▁되실	-11.4545
▁노인	-11.4545
▁아시죠	-11.4545
▁하중	-11.4545
▁원형	-11.4545
▁헤이	-11.4545
▁출구	-11.4546
cks	-11.4546
▁클러	-11.4546
▁타사와	-11.4546
▁하라고	-11.4546
▁담당자님과	-11.4546
▁잘했다	-11.4547
▁interesting	-11.4547
▁ON	-11.4547
▁뉴욕에	-11.4548
▁load	-11.4549
▁생물	-11.4549
▁분사	-11.455
▁무엇보다도	-11.4551
▁준비될	-11.4551
▁룩에	-11.4551
,900	-11.4553
▁이리로	-11.4553
ngest	-11.4553
▁이따가	-11.4553
▁나아가	-11.4553
▁났어	-11.4554
▁bus	-11.4554
▁교체해	-11.4555
▁측면에서	-11.4555
▁누구에게	-11.4556
▁항공기	-11.4556
▁regions	-11.4557
▁hey	-11.4558
▁stands	-11.4562
▁함	-11.4563
▁갖게	-11.4563
▁담요	-11.4564
▁전화해서	-11.4566
하나요	-11.4566
▁선호도	-11.4569
▁인연	-11.4569
▁구입하는	-11.457
▁취소해	-11.457
▁humans	-11.457
움이	-11.457
▁processed	-11.4571
▁코인	-11.4571
▁Was	-11.4572
▁음질	-11.4573
▁향수	-11.4574
▁폴리	-11.4574
▁우선시	-11.4576
OS	-11.4576
▁고통	-11.4578
▁서점	-11.4579
3%	-11.4579
▁그저	-11.458
▁즉각적	-11.458
▁수행하는	-11.458
▁정원	-11.4582
▁지역이	-11.4582
▁집중할	-11.4582
▁buttons	-11.4583
▁골프장	-11.4584
▁보유한	-11.4585
▁들어가면	-11.4586
▁대장	-11.4588
mg	-11.4588
▁받았어	-11.4588
▁건데요	-11.4589
▁이달	-11.459
▁수출하	-11.4591
실수	-11.4591
▁combin	-11.4592
▁화폐	-11.4592
▁짝	-11.4593
▁푸드	-11.4596
제가	-11.4596
바이	-11.4596
▁보네요	-11.4598
▁유인	-11.4598
▁증권	-11.46
▁공중	-11.4602
▁정기	-11.4604
▁축구	-11.4605
▁워터	-11.4605
평이	-11.4606
▁감당	-11.4608
▁거랑	-11.461
▁생각해요	-11.4611
▁않겠	-11.4617
▁제형	-11.4617
▁seed	-11.462
▁발명	-11.462
▁seats	-11.4623
받아	-11.4623
할때	-11.4624
▁일치하	-11.4626
▁마르	-11.4626
가격	-11.4627
▁방어	-11.4629
시간에	-11.463
▁책임감	-11.463
▁줘요	-11.4631
▁목적지	-11.4633
▁몰라서	-11.4634
▁켜지	-11.4634
▁st	-11.4635
▁찜	-11.4638
▁2%	-11.4639
▁feeling	-11.464
▁캡	-11.4642
▁참고로	-11.4642
▁하우스	-11.4642
▁saying	-11.4642
▁스틱	-11.4643
▁준비해서	-11.4646
자형	-11.4646
▁ju	-11.4646
▁apps	-11.4651
로이드	-11.4652
▁성장하	-11.4653
▁가루	-11.4655
▁어리	-11.4655
▁들어요	-11.4657
▁해결하고	-11.4658
gan	-11.4658
▁잡는	-11.4659
▁활용하고	-11.4659
▁이온	-11.4661
▁찍은	-11.4662
▁치고	-11.4665
▁만났	-11.4666
▁만족할	-11.4666
▁스파이	-11.4666
▁거치	-11.4668
▁초과	-11.4668
▁con	-11.4672
▁내고	-11.4676
▁견	-11.4677
▁약해	-11.4677
▁아기들	-11.4678
▁되었고	-11.4679
▁시민들	-11.468
▁지난해	-11.4683
rote	-11.4684
▁한가지	-11.4684
▁제시한	-11.4685
▁송	-11.4689
▁심사	-11.4691
▁것이지만	-11.4691
있더군요	-11.4692
▁버섯	-11.4692
▁개발해	-11.4695
▁볼트	-11.4695
▁요청하셨	-11.4701
▁contents	-11.4705
▁door	-11.4711
▁늦어지	-11.4713
▁책임이	-11.4716
▁스타	-11.4716
▁예정일	-11.4723
▁몰랐다	-11.4726
▁바가	-11.4734
▁이용하시	-11.4734
셨는데	-11.4735
▁걸립니	-11.4736
▁선수가	-11.4736
▁reduc	-11.4737
▁옵	-11.4738
▁어디에서	-11.4738
turned	-11.474
▁Whi	-11.474
▁기업가들	-11.4743
▁범	-11.4745
▁보시기	-11.4746
▁부장	-11.4747
▁수백	-11.4749
▁따뜻하	-11.475
▁높이고	-11.475
H	-11.4755
▁worrie	-11.4762
볼까요	-11.4763
▁되겠다	-11.4764
▁늘리	-11.4765
▁런던	-11.4765
▁cards	-11.4766
▁압	-11.4766
▁신장	-11.4768
▁증기	-11.4768
으므로	-11.4774
▁라인이	-11.4774
더기	-11.4776
▁임대로	-11.4777
▁가능하다고	-11.4778
▁세워	-11.478
▁밝혀졌	-11.4784
▁부담없	-11.4785
▁목요일에	-11.4785
▁academ	-11.4785
▁thoughts	-11.4786
▁북	-11.4796
▁받아서	-11.4806
▁신제품에	-11.4807
▁중요해	-11.4812
▁할부	-11.4812
▁수프	-11.4812
met	-11.4819
▁밀리	-11.482
▁남아있	-11.4826
▁농	-11.4826
▁방문자	-11.4828
하느	-11.483
▁수익이	-11.4833
▁개수	-11.4836
▁정확하	-11.4838
▁것이며	-11.4841
년부터	-11.4845
0,000	-11.4846
▁얘기했	-11.4848
▁폰	-11.4849
겠네	-11.4851
▁고리	-11.4851
▁자국	-11.4852
▁diet	-11.4854
▁gentl	-11.4861
▁자유로	-11.4864
▁있었지	-11.4864
▁립	-11.4869
▁부담이	-11.4876
▁성분이	-11.4878
▁보류	-11.4879
▁시설에	-11.488
▁구입한	-11.488
▁어렵다	-11.4882
▁현재까지	-11.4883
었네요	-11.4884
▁처음이라	-11.489
▁feature	-11.4895
▁죽을	-11.4899
▁거리에서	-11.49
▁머	-11.4908
▁star	-11.4909
▁says	-11.4911
▁중국에	-11.4912
▁구성원	-11.4915
▁얘기하	-11.4916
▁단계로	-11.4922
▁감기	-11.4925
▁이어지	-11.4926
▁이르	-11.4928
▁센터에	-11.493
▁봤다	-11.4933
▁계기	-11.4941
▁offers	-11.4943
▁거라서	-11.4944
▁방으로	-11.4946
▁역사적	-11.4947
▁생각나	-11.4948
▁개리	-11.4948
▁만들어져	-11.495
▁사람들과	-11.4955
▁purchases	-11.4956
▁루	-11.4961
▁최악	-11.4976
▁드렸는데	-11.498
▁날개	-11.4981
▁마시	-11.4981
▁tip	-11.4988
▁주까지	-11.4989
▁언	-11.4991
▁소아	-11.4994
▁이용하고	-11.4996
▁혀	-11.4998
▁접어	-11.5006
사용	-11.5007
커리	-11.5007
▁맞고	-11.5008
▁슬라이	-11.5008
▁등등	-11.501
▁거래에	-11.5013
▁기업과	-11.5013
▁좋아하고	-11.5015
▁수요일에	-11.5016
served	-11.5018
▁해보세요	-11.502
▁있으십니	-11.5025
▁전시회에	-11.5032
▁한번만	-11.5035
▁진짜야	-11.5037
uring	-11.5041
▁막히	-11.5044
▁양파	-11.5048
soo	-11.5053
▁유의	-11.5055
▁해주시	-11.5059
▁투자하	-11.5083
▁불리	-11.5084
▁시스템과	-11.5088
▁학	-11.5091
▁모임	-11.5098
▁도시의	-11.51
워서	-11.5109
▁공장이	-11.5117
▁여가	-11.5121
▁할수	-11.5127
▁전화로	-11.514
▁패키지에	-11.5141
▁부분으로	-11.5141
▁없으십니	-11.5144
▁표현해	-11.5144
▁6,	-11.5157
▁sti	-11.5162
▁가만	-11.5162
▁친구들이	-11.5169
▁고장이	-11.5171
▁책임지겠	-11.5173
▁갔어	-11.5174
▁상황으로	-11.5186
▁순간에	-11.5192
재하	-11.5193
하시지	-11.5195
▁그분들	-11.5198
정하는	-11.521
바리	-11.5211
eel	-11.5212
▁이식	-11.5212
이징	-11.5222
▁서로가	-11.5223
ap	-11.5224
▁통화를	-11.5227
▁부상	-11.5228
할인	-11.5232
산화	-11.5235
▁자동화	-11.526
▁않았고	-11.5265
▁한다면	-11.527
년만	-11.5271
▁사용가능	-11.5281
▁고기는	-11.5281
▁Br	-11.5289
놓으	-11.5291
대가	-11.5293
▁생각에	-11.5296
▁보여줘	-11.5296
상을	-11.5306
▁클럽	-11.5306
▁10-	-11.531
▁그러는	-11.5314
cher	-11.5315
▁전달되	-11.5316
▁년간	-11.5317
▁운영되	-11.5322
▁5-	-11.5325
▁상징	-11.5329
분들께	-11.5337
ial	-11.5342
▁투자하기	-11.5346
▁포장이	-11.5355
문에	-11.5356
자와	-11.5357
▁셰프	-11.5364
▁$10	-11.5364
ha	-11.5367
▁win	-11.5368
▁매력	-11.5371
▁필수적	-11.5373
▁얼굴에	-11.5377
▁하셨던	-11.5383
▁실용적	-11.5389
▁shar	-11.5393
▁이용하기	-11.5398
▁한쪽	-11.54
▁미루어	-11.5404
▁들어왔	-11.5409
레스	-11.5412
▁부정	-11.5416
▁못한다	-11.5418
▁치료에	-11.5423
해주시는	-11.5427
였어	-11.5427
▁일본에	-11.5429
▁자랑하	-11.543
셨어야	-11.5434
▁아내	-11.5436
시어	-11.5436
▁작가님이	-11.5437
▁톤이	-11.544
▁해주시면	-11.544
▁게임에	-11.544
▁드리려	-11.5441
▁알기	-11.5444
▁안심이	-11.5451
▁꿈이	-11.5452
▁설명이	-11.5465
가능	-11.5466
▁들으셨	-11.5467
▁이상으로	-11.5473
▁제공한다	-11.5477
▁상가	-11.5478
어도	-11.548
▁적립금	-11.5498
▁해보았	-11.5501
▁선사하	-11.5507
▁구축에	-11.5508
▁배가	-11.5519
▁부정적	-11.5526
익이	-11.5538
▁엔	-11.5541
▁재질이	-11.5543
▁Car	-11.5554
yeong	-11.5556
▁신기	-11.5558
▁나요	-11.557
▁만기	-11.5574
ction	-11.5587
▁돌아왔	-11.5592
훈	-11.5597
▁표정이	-11.5603
▁했다고	-11.5604
도우	-11.5608
▁모두에	-11.5622
▁걸렸	-11.5626
▁메뉴에	-11.5629
over	-11.5632
▁예정인	-11.5636
▁Yu	-11.5648
물질	-11.5648
▁사람도	-11.5657
시겠습니	-11.5671
▁거절하	-11.5678
▁중요하	-11.5683
▁다르다	-11.5687
▁단계에	-11.5698
▁meter	-11.5708
보다도	-11.5715
▁허용하	-11.5721
▁명확하	-11.5725
▁ear	-11.5747
▁공급가	-11.5752
▁레스토랑에	-11.5753
100	-11.5757
▁Jeon	-11.5759
▁차량에	-11.5766
▁달성하	-11.5766
▁chill	-11.5773
드리오니	-11.5799
▁되었는데	-11.5801
득이	-11.5802
부서	-11.5804
법은	-11.5805
▁주셨는데	-11.5809
▁중의	-11.5812
▁비교했	-11.5819
▁상점에	-11.582
쯤에	-11.5823
CR	-11.5832
▁경제적	-11.5837
▁개발팀	-11.584
▁풀어	-11.584
▁현상이	-11.585
ification	-11.5851
ice	-11.5853
ather	-11.5856
▁특징이	-11.5857
▁Base	-11.5863
하십니까	-11.5863
간다	-11.5864
▁일시	-11.5869
▁완료하	-11.5892
▁입에	-11.5893
▁포함해	-11.591
리아	-11.5913
법에	-11.5918
▁공유해	-11.5919
▁sa	-11.5919
았어	-11.5923
▁살펴보았	-11.5924
▁복용	-11.5937
▁사항들	-11.5939
렌	-11.5943
▁생산한다	-11.595
▁감사드리	-11.597
%	-11.5978
기술로	-11.5982
▁완료해	-11.5983
▁바쁘신	-11.5983
▁determine	-11.5989
▁출시되	-11.5989
▁보였	-11.5994
▁회사로	-11.5999
▁원래는	-11.6
di	-11.6005
▁공급해	-11.6007
▁많을	-11.6011
임에	-11.6012
▁와야	-11.6016
▁잡기	-11.6019
▁하신다	-11.6022
▁품종	-11.6037
▁동봉	-11.6041
▁Asia	-11.6046
어졌다	-11.6057
▁아하	-11.6065
▁Use	-11.6072
▁전문의	-11.6076
▁bor	-11.6081
▁진행중	-11.6083
산과	-11.6087
▁연예인	-11.6089
된다고	-11.6093
이시죠	-11.6093
▁쓰시	-11.6096
ales	-11.6097
▁위협	-11.6102
보면	-11.6103
▁앉	-11.6104
▁알려줄	-11.6116
▁있으시	-11.6128
▁시작해	-11.6131
▁것만	-11.6133
순이	-11.6142
이트	-11.6153
▁해드려	-11.6162
ro	-11.6164
았는데	-11.6171
▁수신	-11.6177
▁없었다	-11.6177
▁등과	-11.6182
▁축하하	-11.6202
이라서	-11.6202
봐요	-11.6204
시켜야	-11.6211
▁preci	-11.6211
써야	-11.6213
▁할게	-11.6222
부가	-11.6228
었지만	-11.6228
서도	-11.6229
상에	-11.623
▁구하	-11.623
▁했더	-11.6231
▁세상에	-11.6233
uk	-11.6234
▁내지	-11.6246
▁수급	-11.6247
▁등으로	-11.625
▁Wan	-11.6256
▁불편함이	-11.6266
▁살면	-11.627
▁bear	-11.6272
전이	-11.6275
▁투자자들	-11.6278
우니까	-11.6291
해져	-11.6294
do	-11.6297
3,	-11.63
▁지사에	-11.6309
▁110	-11.6316
tend	-11.6317
다시피	-11.6322
애	-11.6324
▁빛내	-11.6334
telligence	-11.6339
▁j	-11.6356
▁매끄	-11.6356
▁최악이	-11.6357
품과	-11.636
▁말려	-11.6361
▁알려주시겠	-11.6361
▁번창하	-11.6371
편	-11.6375
▁도시에	-11.6379
놨	-11.6382
▁익숙	-11.6388
▁편이	-11.6389
지방	-11.6389
▁부유	-11.639
▁bet	-11.6393
▁대가	-11.6399
▁있겠	-11.6399
보자	-11.6415
▁것이고	-11.6436
▁재촉	-11.6443
bru	-11.6453
▁날에	-11.6458
▁체계	-11.646
▁목록에	-11.6463
▁했었	-11.6474
▁추구	-11.6475
ior	-11.6479
합	-11.6481
▁배웠	-11.6484
걸로	-11.6484
연이	-11.6484
▁중이니	-11.6488
▁자라	-11.6491
▁확인했	-11.6494
▁맞으	-11.6497
페	-11.6501
▁납품되	-11.6502
▁Na	-11.6504
쳐야	-11.6513
법이	-11.6524
art	-11.6528
▁있으실까	-11.6529
▁pet	-11.6533
,000	-11.6551
rry	-11.6557
▁여기로	-11.657
IN	-11.6575
▁휴일	-11.6579
정된	-11.6582
하겠다	-11.6593
ates	-11.66
▁배송일	-11.66
쪽	-11.6604
▁현지에	-11.6613
ron	-11.6614
▁기술적	-11.6618
▁기다릴	-11.663
신다	-11.6632
행사	-11.6647
▁참여해	-11.6651
▁닮았	-11.6653
상으로	-11.6654
▁사용했	-11.6654
▁29	-11.666
ivate	-11.6664
▁Jo	-11.6668
손이	-11.6669
work	-11.6676
턴	-11.6682
롱	-11.6686
잡	-11.6686
▁올랐	-11.6686
▁보도	-11.6688
폐	-11.67
이었다	-11.6701
▁웃는	-11.6704
하나	-11.6707
받침	-11.6708
▁것인가	-11.6708
▁의존	-11.6712
▁플랫폼이	-11.6714
▁계좌에	-11.6716
탈	-11.6716
▁준수하	-11.6718
보려고	-11.6721
셨나	-11.6724
▁수출해	-11.6725
놈	-11.6727
플레	-11.6728
누	-11.6733
▁이겼	-11.6733
칸	-11.6737
톱	-11.6738
▁제목	-11.6739
끼	-11.6741
윤	-11.6742
▁160	-11.6744
co	-11.6748
▁기사님	-11.675
엄	-11.6752
찜	-11.6754
캡	-11.6754
하우스	-11.6754
▁해결하는	-11.6754
갈비	-11.6755
담당	-11.6757
스틱	-11.6757
찰	-11.6757
먼	-11.6757
°	-11.6757
듀	-11.6757
샷	-11.676
though	-11.6761
펌프	-11.6761
재료	-11.6762
lightly	-11.6762
턱	-11.6763
칩	-11.6763
▁원에	-11.6764
했었는데	-11.6765
뜻	-11.6765
▁검출	-11.6765
class	-11.6765
컬	-11.6765
쭉	-11.6765
press	-11.6766
솔	-11.6766
바퀴	-11.6767
타입	-11.6767
벽	-11.6768
바람	-11.6769
level	-11.6769
편이	-11.6769
necessary	-11.677
빛	-11.677
크림	-11.6771
섬유	-11.6772
작용	-11.6772
새	-11.6772
팔	-11.6773
person	-11.6774
활동	-11.6774
병원	-11.6774
내역	-11.6775
made	-11.6775
데이터	-11.6775
배터리	-11.6775
카메라	-11.6775
필터	-11.6775
너무	-11.6776
밀리	-11.6777
▁단축	-11.6777
경우	-11.6778
house	-11.6778
tural	-11.6778
테스트	-11.678
신청	-11.6782
▁occur	-11.6784
▁luck	-11.6785
문화	-11.6786
제거	-11.6786
tle	-11.6788
▁합쳐	-11.6789
방식	-11.679
원단	-11.6792
과정에서	-11.68
ants	-11.6804
▁찍는	-11.6805
▁앱이	-11.6806
▁페이	-11.6809
▁아는데	-11.6813
16	-11.6813
38	-11.6814
냈어	-11.6815
▁comb	-11.6817
▁없잖아	-11.6818
▁문이	-11.6818
▁발표회	-11.6824
스럽게	-11.6826
스크	-11.6829
해주는	-11.6833
▁125	-11.6834
▁다이어트	-11.6834
혁	-11.6836
▁과자	-11.6838
단계로	-11.6839
lines	-11.6845
던데요	-11.6845
투자	-11.6847
▁180	-11.685
눈에	-11.6858
▁노력하	-11.6859
▁해결되	-11.6861
▁준비하시	-11.6862
ible	-11.6862
▁제품인	-11.6863
결과	-11.6865
veral	-11.6868
▁잡아주	-11.6874
▁만들었	-11.688
▁소장	-11.688
회에	-11.688
▁그중	-11.6883
난다	-11.6885
▁produc	-11.6885
▁면역력	-11.6885
자산	-11.6888
광고	-11.6888
주기	-11.6893
▁보고서에	-11.6895
등급	-11.6896
▁shoot	-11.69
▁fur	-11.69
▁mother	-11.6901
▁damage	-11.6901
▁종국	-11.6901
▁지저분	-11.6904
▁tone	-11.6906
▁recipe	-11.6906
▁decoration	-11.6907
▁cup	-11.6908
과학	-11.6909
▁adult	-11.6909
▁cell	-11.6911
▁wine	-11.6911
▁cleaner	-11.6912
▁advantage	-11.6913
▁허	-11.6913
▁practic	-11.6913
▁document	-11.6914
▁데려	-11.6914
▁ingredient	-11.6915
첩	-11.6917
▁들어올	-11.6919
▁count	-11.6921
▁joint	-11.6921
▁되니	-11.6924
▁아니네	-11.6925
▁signal	-11.6925
gency	-11.6925
효	-11.6934
▁밀착	-11.6935
▁pattern	-11.6936
▁당황스럽	-11.6936
▁냉장	-11.6936
개입	-11.6941
받을	-11.6942
▁hug	-11.6942
▁비치	-11.6943
▁cry	-11.6946
렉	-11.695
▁여쭤	-11.695
chan	-11.695
냥	-11.6952
찌	-11.6953
룹	-11.6955
▁색깔이	-11.6955
▁join	-11.6956
▁무례	-11.6956
▁윤곽	-11.6957
▁craft	-11.6957
lar	-11.6958
▁weigh	-11.6961
닥	-11.6961
▁liqu	-11.6962
▁reserve	-11.6962
mpt	-11.6962
▁quiet	-11.6963
기계	-11.6964
▁actual	-11.6964
▁대표님이	-11.6964
▁유아용	-11.6964
▁되겠네	-11.6965
icated	-11.6965
▁histor	-11.6966
▁재밌	-11.6966
▁먹었어	-11.6966
쩍	-11.6966
bsolutely	-11.6967
벤	-11.6967
렬	-11.6967
쇄	-11.6968
▁갱신	-11.6968
▁스탠	-11.6968
퀴	-11.6968
▁샤	-11.6968
▁헬스	-11.6968
▁가벼우	-11.6968
▁depart	-11.6968
▁좋으신	-11.6968
덤	-11.6968
▁Mac	-11.6969
탱	-11.6969
▁비비	-11.6969
eople	-11.697
글라스	-11.697
▁부딪	-11.697
aught	-11.697
▁끌어	-11.697
▁검정	-11.697
▁speak	-11.697
▁접착	-11.697
▁케이크	-11.697
▁엑스	-11.697
▁success	-11.697
쫀	-11.697
퉁	-11.697
ept	-11.697
▁expert	-11.697
낭	-11.697
▁콩나물	-11.697
▁nutri	-11.697
▁prefer	-11.697
▁strict	-11.697
▁빨아	-11.697
텀	-11.697
▁Consider	-11.697
▁constant	-11.697
▁evaluat	-11.697
▁스낵	-11.697
▁품질보증	-11.697
젓	-11.697
`	-11.697
cheon	-11.697
▁Australia	-11.697
▁Company	-11.697
▁Instead	-11.697
▁Perfect	-11.697
▁advertising	-11.697
▁agencies	-11.697
▁burden	-11.697
▁carrier	-11.697
▁ceremony	-11.697
▁click	-11.697
▁commemorat	-11.697
▁congratulat	-11.697
▁consumption	-11.697
▁contribut	-11.697
▁dark	-11.697
▁discover	-11.697
▁distribute	-11.697
▁editing	-11.697
▁embroider	-11.697
▁episode	-11.697
▁failed	-11.697
▁fleece	-11.697
▁household	-11.697
▁hurt	-11.697
▁instructor	-11.697
▁instrument	-11.697
▁lightweight	-11.697
▁organic	-11.697
▁pouch	-11.697
▁progress	-11.697
▁receipt	-11.697
▁reinforc	-11.697
▁retirement	-11.697
▁salmon	-11.697
▁signature	-11.697
▁spacious	-11.697
▁studie	-11.697
▁studio	-11.697
▁surveillance	-11.697
▁thoroughly	-11.697
▁ultra	-11.697
▁uncomfortable	-11.697
▁understood	-11.697
▁unexpected	-11.697
▁volunteer	-11.697
▁waist	-11.697
▁가꾸어	-11.697
▁갯벌	-11.697
▁겉창	-11.697
▁겪으	-11.697
▁고춧가루	-11.697
▁곱창	-11.697
▁과산화수소	-11.697
▁귀찮	-11.697
▁극세사	-11.697
▁금메달	-11.697
▁깁니다	-11.697
▁깎기	-11.697
▁낯선	-11.697
▁내연기관	-11.697
▁냉난방	-11.697
▁넘어온다	-11.697
▁네덜란드	-11.697
▁넥타이	-11.697
▁늦추	-11.697
▁다이아몬드	-11.697
▁도메인	-11.697
▁딥러닝	-11.697
▁딱딱	-11.697
▁떠오	-11.697
▁떨어뜨	-11.697
▁똑바로	-11.697
▁뜨고	-11.697
▁멀티태스킹	-11.697
▁멈추	-11.697
▁바꿨	-11.697
▁바뀌면	-11.697
▁바빴	-11.697
▁밝기	-11.697
▁방사능	-11.697
▁방화벽	-11.697
▁배설물	-11.697
▁배성우	-11.697
▁번갈아	-11.697
▁불행히도	-11.697
▁빌리	-11.697
▁샹들리에	-11.697
▁손꼽	-11.697
▁솜씨	-11.697
▁숟갈	-11.697
▁스쿠터	-11.697
▁스태프	-11.697
▁스테레오	-11.697
▁스트레치	-11.697
▁시나리오	-11.697
▁아보카도	-11.697
▁아웃소싱	-11.697
▁아프리카	-11.697
▁얹어	-11.697
▁우울증	-11.697
▁웹툰	-11.697
▁웹페이지	-11.697
▁이산화탄소	-11.697
▁인수인계	-11.697
▁인플루언서	-11.697
▁재택근무	-11.697
▁청첩장	-11.697
▁추어탕	-11.697
▁캘린더	-11.697
▁컨디셔닝	-11.697
▁컨벤션	-11.697
▁컨퍼런스	-11.697
▁클램프	-11.697
▁텔레비전	-11.697
▁특송	-11.697
▁판촉	-11.697
▁팔레트	-11.697
▁팽이버섯	-11.697
▁페로브스카이트	-11.697
▁퓨전	-11.697
▁피트니스	-11.697
▁항생제	-11.697
▁호불호	-11.697
넌	-11.697
밭	-11.697
쁠	-11.697
숍	-11.697
옹	-11.697
제곱미터	-11.697
▁broke	-11.697
▁chain	-11.697
▁convenience	-11.697
▁hydrogen	-11.697
▁reject	-11.697
▁valuable	-11.697
▁가솔린	-11.697
▁깎아	-11.697
▁꼴등	-11.697
▁마더보드	-11.697
▁맡기	-11.697
▁삽입	-11.697
▁스페셜	-11.697
▁시그니처	-11.697
▁아날로그	-11.697
▁아티스트	-11.697
▁옮겨	-11.697
▁욕구	-11.697
▁유모차	-11.697
▁잊으	-11.697
▁재훈이	-11.697
▁촉진	-11.697
▁컨텐츠	-11.697
▁퀴즈	-11.697
▁크리스탈	-11.697
▁클렌징	-11.697
▁휩쓸	-11.697
장아찌	-11.697
▁bulk	-11.697
▁favorite	-11.697
▁timing	-11.697
▁사로잡	-11.697
▁설거지	-11.697
▁아저씨	-11.697
▁조력자	-11.697
▁한마디	-11.697
▁홀로그램	-11.697
courage	-11.697
▁hack	-11.697
▁와이파이	-11.697
▁pleasure	-11.697
▁rapid	-11.697
▁thick	-11.697
▁동남아시아	-11.697
▁벨벳	-11.697
▁클리닉	-11.697
▁느꼈	-11.697
▁대다수	-11.697
▁머그잔	-11.697
▁스크랩	-11.697
▁시뮬레이션	-11.697
▁애호가	-11.697
▁blind	-11.697
▁crime	-11.697
▁숙련	-11.697
▁홍삼	-11.697
▁VIP	-11.697
▁analysis	-11.697
▁dishwasher	-11.697
▁talent	-11.697
▁비대면	-11.697
▁데스크톱	-11.697
▁초음파	-11.697
▁침입	-11.697
▁Another	-11.697
▁commercial	-11.697
▁tailor	-11.697
▁스카프	-11.697
▁아웃도어	-11.697
▁저절로	-11.697
▁카펫	-11.697
▁흡착	-11.697
▁extract	-11.697
▁이집트	-11.697
▁해외영업팀	-11.697
koung	-11.697
oste	-11.697
▁Argh	-11.697
▁conversation	-11.697
▁disease	-11.697
▁industrial	-11.697
▁무제한	-11.697
▁hiking	-11.697
▁impact	-11.697
▁감싸	-11.697
▁Magazine	-11.697
▁흘러	-11.697
▁강원도	-11.697
▁썬크림	-11.697
▁트레이너	-11.697
▁Chang	-11.697
▁compensation	-11.697
▁trail	-11.697
▁리뉴얼	-11.697
▁출항	-11.697
▁생명공학	-11.697
▁소시지	-11.697
▁재주문	-11.697
▁PDF	-11.697
▁낮잠	-11.697
▁모터사이클	-11.697
▁집주인	-11.6971
▁accessories	-11.6971
▁Excel	-11.6971
▁grip	-11.6971
▁wrinkle	-11.6971
▁타이머	-11.6971
▁legend	-11.6971
▁numer	-11.6971
▁스티커	-11.6971
▁열풍	-11.6971
▁코좌	-11.6971
▁폴리머	-11.6971
▁인플레이션	-11.6971
▁무료배송	-11.6971
ambo	-11.6971
▁cream	-11.6971
▁scratches	-11.6971
▁칼로리	-11.6971
▁empty	-11.6971
▁tag	-11.6971
▁drain	-11.6971
▁숨겨	-11.6971
▁취득	-11.6971
▁complex	-11.6971
▁비벼	-11.6971
▁OEM	-11.6971
▁story	-11.6971
▁resource	-11.6971
▁노스트라	-11.6971
▁stove	-11.6971
▁미식가	-11.6971
▁콜라보	-11.6971
▁처벌	-11.6971
▁플랫	-11.6971
▁SUV	-11.6971
▁니즈	-11.6971
▁multiple	-11.6971
▁delete	-11.6971
▁희석	-11.6971
▁쇠고기	-11.6971
▁clari	-11.6971
▁레이어링	-11.6971
▁mold	-11.6971
▁도매업자	-11.6971
▁strap	-11.6971
▁음성인식	-11.6971
▁렌트	-11.6971
▁미니멀	-11.6971
▁터키	-11.6971
▁profi	-11.6971
▁section	-11.6971
▁straw	-11.6971
▁도권이	-11.6971
▁철강	-11.6971
▁경찰	-11.6971
▁자칫	-11.6971
▁밤새	-11.6971
▁렌치	-11.6971
▁pickup	-11.6971
▁동행	-11.6971
▁다시한번	-11.6971
▁디너	-11.6971
▁Germany	-11.6971
▁assembly	-11.6971
▁inquiries	-11.6971
▁박군	-11.6971
▁반가운	-11.6971
▁풍미	-11.6971
▁면밀	-11.6971
▁증강	-11.6971
▁추측	-11.6971
▁blend	-11.6971
▁식빵	-11.6971
▁kit	-11.6971
▁리스크	-11.6971
▁바늘	-11.6971
▁당겨	-11.6971
▁정체성	-11.6971
▁플리스	-11.6971
▁sort	-11.6971
▁포털	-11.6971
▁견본	-11.6971
▁자랑스러	-11.6971
▁태양광	-11.6971
▁Sigh	-11.6971
▁창의력	-11.6971
▁역동적	-11.6971
▁넘겨	-11.6971
▁은혜	-11.6971
▁상기시켜	-11.6971
▁청약	-11.6971
▁significantly	-11.6971
▁cargo	-11.6971
▁365	-11.6971
▁리소스	-11.6972
▁2014	-11.6972
▁가져올	-11.6972
▁내비게이션	-11.6972
▁스타트	-11.6972
▁꽂아	-11.6972
▁정렬	-11.6972
▁과목	-11.6972
▁factories	-11.6972
▁Jang	-11.6972
▁살펴본	-11.6972
▁애매	-11.6972
▁코너	-11.6972
▁ABS	-11.6972
▁올라온	-11.6972
▁탐색하	-11.6972
icul	-11.6972
▁발주처	-11.6972
▁맞았네	-11.6972
▁사무용품	-11.6972
▁tap	-11.6972
▁tall	-11.6972
▁Prote	-11.6972
▁adapter	-11.6972
▁train	-11.6972
▁미생물	-11.6972
▁회색	-11.6972
▁flowers	-11.6972
▁집행	-11.6972
ecently	-11.6972
zel	-11.6972
▁밀봉	-11.6972
▁화내	-11.6972
▁방송국	-11.6972
▁복부	-11.6972
▁직경	-11.6972
▁취약	-11.6972
▁종국아	-11.6972
▁토양	-11.6972
▁맨발	-11.6972
▁깔려	-11.6972
▁삼각대	-11.6972
▁임금	-11.6972
TB	-11.6972
▁protection	-11.6972
▁연설	-11.6972
▁Mos	-11.6972
▁아우터	-11.6972
▁그러시군요	-11.6972
▁지혜	-11.6972
▁엔지니어링	-11.6972
▁tv	-11.6972
▁줘봐	-11.6972
▁차후에	-11.6972
▁구독료	-11.6972
▁플레이크	-11.6972
gung	-11.6972
▁가벼우며	-11.6972
▁뉴런	-11.6972
▁남편분이	-11.6973
▁cm	-11.6973
▁풍성	-11.6973
▁동반	-11.6973
▁유압	-11.6973
▁가능하시다면	-11.6973
▁최상급	-11.6973
▁현지인들	-11.6973
ities	-11.6973
▁fragrant	-11.6973
▁롤러	-11.6973
▁화살	-11.6973
뒀습니다	-11.6973
▁성록	-11.6973
▁색조	-11.6973
▁일련	-11.6973
▁바뀌었지만	-11.6973
▁코튼	-11.6973
▁호스트	-11.6973
▁2015	-11.6973
▁벌금	-11.6973
▁Year	-11.6973
▁실무진	-11.6973
▁2016	-11.6973
▁팬티	-11.6973
▁사이버	-11.6973
▁소설	-11.6973
▁초밥	-11.6973
▁비행기표	-11.6973
▁외모	-11.6973
▁leaf	-11.6973
▁보인다	-11.6973
▁민물	-11.6973
▁집착	-11.6973
▁준호	-11.6973
▁침구	-11.6973
▁Jan	-11.6973
▁Actual	-11.6973
▁frequently	-11.6973
▁그렇구나	-11.6973
▁element	-11.6973
▁2008	-11.6973
▁기둥	-11.6974
▁2030	-11.6974
▁포토	-11.6974
▁conven	-11.6974
▁미끼	-11.6974
▁Absolutely	-11.6974
▁위반	-11.6974
▁흔	-11.6974
▁슬라이드	-11.6974
▁grill	-11.6974
▁scanning	-11.6974
▁dead	-11.6974
▁가져온	-11.6974
▁rose	-11.6974
▁장거리	-11.6974
▁산출	-11.6974
▁sometime	-11.6974
▁sun	-11.6974
▁업적	-11.6974
학자금	-11.6975
▁깜짝이야	-11.6975
▁누출	-11.6975
▁편리함	-11.6975
▁진통	-11.6975
▁파란	-11.6975
▁3~4	-11.6975
▁생긴다면	-11.6975
▁키워드	-11.6975
▁soil	-11.6975
▁smoothly	-11.6975
▁상처	-11.6975
▁충전재	-11.6976
▁branches	-11.6976
▁소모	-11.6976
▁difficulties	-11.6976
▁총알	-11.6976
▁매워	-11.6976
▁Airport	-11.6976
▁질감	-11.6976
▁조심하세요	-11.6976
▁늘려	-11.6976
▁rear	-11.6976
▁단정	-11.6976
▁주먹	-11.6976
▁eaten	-11.6976
▁posted	-11.6976
▁타코	-11.6976
▁African	-11.6976
▁2.5	-11.6976
▁응급	-11.6977
▁replaced	-11.6977
▁여권	-11.6977
▁남았어요	-11.6977
▁드럼	-11.6977
▁Sang	-11.6977
▁외화	-11.6977
▁알로에	-11.6977
동맥	-11.6977
▁따뜻함	-11.6977
▁텐트	-11.6977
▁연계	-11.6978
▁단기간	-11.6978
▁스물	-11.6978
▁안겨드	-11.6978
▁협력업체	-11.6978
▁이웃	-11.6978
▁쓰러	-11.6978
▁attachment	-11.6978
▁괜찮은데	-11.6978
▁면제권	-11.6978
▁배열	-11.6978
▁관계자	-11.6978
▁장미	-11.6978
▁makeup	-11.6978
▁괜찮으시면	-11.6979
▁달달	-11.6979
▁도심	-11.6979
▁맞춘	-11.6979
▁waste	-11.6979
▁석회	-11.6979
▁사무	-11.6979
▁반복적인	-11.6979
▁쿼	-11.6979
▁캠핑장	-11.6979
▁휴양지	-11.6979
▁적금	-11.6979
▁건너	-11.6979
▁승부	-11.6979
▁spin	-11.698
▁동전	-11.698
▁분말	-11.698
▁mat	-11.698
▁들어온	-11.698
▁suddenly	-11.698
▁투자금	-11.698
▁birds	-11.698
▁colleagues	-11.698
▁guys	-11.698
▁mushrooms	-11.698
▁rules	-11.698
▁웃어	-11.698
▁kids	-11.698
▁assist	-11.698
배럴	-11.698
▁coins	-11.698
▁reserved	-11.698
▁우산	-11.698
▁세워야	-11.698
▁nearby	-11.698
▁악성	-11.6981
▁installments	-11.6981
▁받쳐	-11.6981
▁sheets	-11.6981
▁대기업	-11.6981
▁자율주행차	-11.6981
▁신기술	-11.6981
▁functional	-11.6981
▁갈게요	-11.6981
▁샀어요	-11.6981
▁지인들	-11.6981
▁중국산	-11.6981
▁나름	-11.6981
▁setting	-11.6981
▁여보세요	-11.6982
▁머무르	-11.6982
트랙션	-11.6982
인식	-11.6982
▁폴리에스	-11.6982
▁kn	-11.6982
▁한참	-11.6982
▁있더라도	-11.6982
▁무엇일까	-11.6982
▁조류	-11.6982
▁수산물	-11.6982
▁리사	-11.6982
▁질소	-11.6983
▁열립니다	-11.6983
▁전시장	-11.6983
▁경영진	-11.6983
▁etc	-11.6983
▁의외	-11.6983
▁지출	-11.6983
▁Eu	-11.6983
▁들어오세요	-11.6983
▁여겨	-11.6984
▁가장자리	-11.6984
▁진화	-11.6984
▁사망	-11.6984
▁교실	-11.6984
▁드러	-11.6985
였죠	-11.6985
▁쉬는	-11.6985
lation	-11.6985
▁개체	-11.6985
▁인천	-11.6985
▁분무	-11.6985
▁다르지	-11.6985
▁20,000	-11.6985
▁채식	-11.6985
▁유명세	-11.6986
▁아끼	-11.6986
▁우리끼리	-11.6986
▁짜장면	-11.6986
▁태국에서	-11.6986
▁strike	-11.6986
▁있듯이	-11.6987
▁recognized	-11.6987
▁마모	-11.6987
▁연출해	-11.6987
▁살살	-11.6987
▁사모님	-11.6987
▁소화기	-11.6987
▁한편	-11.6987
▁알겠어요	-11.6987
리티	-11.6988
▁smaller	-11.6988
▁following	-11.6988
▁에너지원	-11.6988
▁지체	-11.6988
▁운명	-11.6988
▁마중	-11.6988
▁Will	-11.6988
▁감독님	-11.6988
▁noise	-11.6988
ider	-11.6988
▁중요시	-11.6989
▁타이	-11.6989
▁비건	-11.6989
▁감독	-11.6989
▁밀어	-11.699
▁strengthen	-11.699
▁그만해	-11.699
▁갖춰져	-11.699
▁도난	-11.699
▁국수	-11.699
▁achieved	-11.699
▁topic	-11.699
▁Suit	-11.6991
▁비슷해요	-11.6991
▁hop	-11.6991
▁문의드릴	-11.6991
년생	-11.6991
▁차려	-11.6992
▁변동사항	-11.6992
▁young	-11.6992
▁구동	-11.6992
▁fold	-11.6992
▁전동	-11.6992
▁cute	-11.6992
▁오신다고	-11.6992
▁anyway	-11.6993
▁낮아	-11.6993
▁lotion	-11.6993
▁찾아오	-11.6993
▁나오는데	-11.6993
▁모르지만	-11.6993
▁해운대	-11.6994
▁총판	-11.6994
▁방향제	-11.6994
▁확인하시기	-11.6994
▁식물성	-11.6994
▁생각했는데	-11.6994
▁면제	-11.6995
▁누구든	-11.6996
▁입력하면	-11.6997
▁발사	-11.6997
▁degrees	-11.6997
▁유수	-11.6997
▁예금	-11.6997
▁acquaintances	-11.6997
▁carrots	-11.6997
▁malls	-11.6997
▁substances	-11.6997
▁줬	-11.6997
▁손등	-11.6997
▁보내드릴까요	-11.6997
▁tons	-11.6998
점화	-11.6998
▁풍	-11.6998
▁직장에서	-11.6998
▁확인하셨나요	-11.6998
▁consume	-11.6998
▁표적	-11.6998
▁책장	-11.6998
▁stead	-11.6998
▁있으나	-11.6999
▁조성	-11.6999
▁improved	-11.6999
▁상장	-11.6999
▁최신형	-11.7
인거죠	-11.7
▁식용	-11.7001
▁묻어	-11.7001
▁협	-11.7001
▁먹어봐	-11.7001
▁유통업체	-11.7002
▁납득	-11.7002
▁act	-11.7002
▁사용료	-11.7003
▁squa	-11.7003
▁지부	-11.7003
▁반짝이	-11.7003
▁그러게요	-11.7004
▁염치기	-11.7004
▁있었지만	-11.7004
▁가열	-11.7004
▁치실	-11.7004
▁자본	-11.7004
▁장어	-11.7005
▁recommendation	-11.7006
▁쇠	-11.7006
▁겸	-11.7006
▁일체	-11.7006
▁OLED	-11.7006
▁guard	-11.7006
▁appropriate	-11.7006
▁Monday	-11.7006
▁Project	-11.7006
▁brush	-11.7006
▁certificate	-11.7006
▁compatib	-11.7006
▁generation	-11.7006
▁맘	-11.7006
▁묘목	-11.7006
▁봄	-11.7006
▁쑥	-11.7006
▁줌	-11.7006
▁컷	-11.7006
▁툭	-11.7006
▁흉	-11.7006
▁규격	-11.7006
▁IoT	-11.7006
▁고객사에서	-11.7006
▁vitamin	-11.7006
▁stream	-11.7006
레이더	-11.7007
▁소녀	-11.7007
▁어딘가	-11.7007
▁누구랑	-11.7007
▁deposited	-11.7008
▁혼방	-11.7008
▁리얼	-11.7008
▁결정하는	-11.7008
▁광각	-11.7008
▁환급	-11.7008
▁김밥	-11.7008
▁마주	-11.7008
▁Up	-11.7008
▁받침대	-11.7009
▁공기청정기	-11.701
▁물론이고	-11.701
▁bread	-11.7011
▁워크	-11.7011
▁MC	-11.7011
▁강점	-11.7011
▁debt	-11.7011
▁골드	-11.7011
▁드리니	-11.7011
▁해주신다면	-11.7012
▁removed	-11.7012
▁악화	-11.7012
▁원씩	-11.7012
▁회식	-11.7012
▁formed	-11.7013
▁Fre	-11.7013
▁방석	-11.7014
하자면	-11.7014
▁photos	-11.7014
▁어울려	-11.7014
▁suggestions	-11.7014
▁넣어야지	-11.7014
▁분양	-11.7015
▁방대	-11.7015
▁매니저님	-11.7015
▁income	-11.7015
▁원천	-11.7015
▁분수	-11.7015
▁멜라	-11.7015
▁후크	-11.7016
▁거듭	-11.7016
▁강도와	-11.7018
▁체제	-11.7018
▁고객층	-11.7018
▁이만	-11.7018
▁고맙고	-11.7019
▁영화관	-11.7019
▁배상	-11.7021
▁모시	-11.7021
▁먹는데	-11.7021
▁출입	-11.7021
▁없네	-11.7022
▁businesses	-11.7022
▁공제	-11.7022
▁나열	-11.7022
▁recording	-11.7022
▁너비	-11.7023
▁Open	-11.7023
▁필요한데	-11.7023
▁재난	-11.7024
▁비교하여	-11.7024
▁알기로	-11.7025
▁중계	-11.7026
민트	-11.7026
▁모기지	-11.7027
▁teacher	-11.7027
년동안	-11.7027
▁fluor	-11.7027
▁밥상	-11.7028
▁전체적으로	-11.7028
선이	-11.7028
산나트륨	-11.7028
▁하하하하	-11.7028
▁계산하는	-11.7029
▁아닐	-11.7029
▁저감	-11.7029
▁totally	-11.7029
회가	-11.7029
▁버리고	-11.703
▁예상보다	-11.7032
▁adults	-11.7032
▁cells	-11.7032
▁damages	-11.7032
▁tools	-11.7032
▁응대	-11.7032
방법	-11.7032
▁배선	-11.7032
▁bean	-11.7033
▁이러니까	-11.7034
▁기계에	-11.7034
▁유지해야	-11.7034
opo	-11.7034
▁sy	-11.7035
▁다시마	-11.7035
▁직면	-11.7035
▁되신	-11.7035
▁실험실	-11.7036
▁팔린다	-11.7036
▁거미	-11.7037
▁earn	-11.7039
▁전공	-11.704
▁똑같아	-11.704
▁지문	-11.704
▁가능하실	-11.704
▁참석자	-11.7041
▁손질	-11.7041
▁1.2	-11.7042
▁세형	-11.7042
▁자식	-11.7042
▁보러	-11.7042
▁preventing	-11.7043
▁차주	-11.7043
\\\)	-11.7043
▁SD	-11.7044
▁다음날	-11.7044
▁코디	-11.7044
▁당면	-11.7045
조절	-11.7045
▁포기	-11.7045
▁많은데요	-11.7046
▁통신사	-11.7047
▁Ro	-11.7048
▁이해하기	-11.7048
▁알죠	-11.7048
▁줄어들	-11.7049
▁weekends	-11.7049
▁plants	-11.7049
▁movements	-11.705
▁않다면	-11.705
▁모르지	-11.705
▁tool	-11.705
dium	-11.705
▁안심할	-11.7052
▁주류	-11.7053
▁베이	-11.7053
▁rain	-11.7053
▁보정	-11.7054
▁폐기	-11.7056
▁써서	-11.7056
▁nu	-11.7056
▁studying	-11.7057
▁조율	-11.7057
▁주선	-11.7058
▁설계되어	-11.7061
▁좋지만	-11.7061
▁누수	-11.7061
▁달부터	-11.7062
▁있을까	-11.7063
점으로	-11.7065
▁원료만	-11.7066
▁콜	-11.7066
▁생각하시는	-11.7066
▁생각해보	-11.7066
니어	-11.7067
▁wraps	-11.7067
▁남부	-11.7067
▁캠	-11.7067
▁breath	-11.7067
▁동의합니다	-11.7068
▁돌리	-11.7068
▁큐	-11.7068
▁딥	-11.7068
▁미세먼지	-11.7068
▁오징어	-11.7068
▁썩	-11.7068
▁탱크	-11.7068
▁믹스	-11.7068
▁멍	-11.7068
▁손가락	-11.7068
▁통풍	-11.7069
▁organize	-11.7069
▁플렉스	-11.7069
▁맥	-11.7069
▁대학교	-11.707
▁스티	-11.707
▁시작부터	-11.707
▁형한테	-11.7071
▁dried	-11.7071
냐면	-11.7071
▁오피스	-11.7072
▁여리	-11.7072
▁베드	-11.7073
▁이민	-11.7073
▁대여	-11.7074
▁건조함	-11.7074
▁그리워	-11.7074
▁Nor	-11.7075
▁미술	-11.7075
▁선명하고	-11.7075
▁원사	-11.7076
▁성형	-11.7076
▁개선하여	-11.7076
▁core	-11.7076
▁ded	-11.7077
▁만화	-11.7078
▁콘	-11.7078
▁어디야	-11.7079
▁reviewed	-11.708
▁sn	-11.708
▁마진	-11.7081
▁축하합니다	-11.7081
▁서면	-11.7081
▁동화	-11.7082
▁무시	-11.7082
▁버클	-11.7083
▁intens	-11.7084
▁순위	-11.7085
베이	-11.7085
▁납기일	-11.7087
▁라운지	-11.7087
▁터져	-11.7087
▁세럼	-11.709
▁면적	-11.709
▁대행	-11.7091
▁Gree	-11.7091
▁evenly	-11.7091
▁만족스럽	-11.7092
▁유효한	-11.7093
▁해상	-11.7094
▁입주자	-11.7095
▁학습이	-11.7095
▁주십시요	-11.7096
▁차질없	-11.7096
인사	-11.7098
사업	-11.7099
▁먹어봤	-11.71
▁안마	-11.71
▁유지해	-11.71
▁우리나라에서	-11.7101
▁links	-11.7102
▁accidents	-11.7102
▁packs	-11.7102
▁improves	-11.7104
▁호랑이	-11.7104
▁계산기	-11.7104
▁챙겨주	-11.7105
▁카페인	-11.7106
▁도매업체	-11.7106
▁상담원	-11.7106
▁적합성	-11.7108
▁센	-11.7108
▁틀어	-11.7108
▁얼마전	-11.7109
▁가져와	-11.711
가루	-11.7111
▁sm	-11.7111
▁도면	-11.7111
▁길게	-11.7112
gge	-11.7114
▁한우	-11.7117
마루	-11.7119
▁che	-11.712
▁나비	-11.7121
▁pictures	-11.7121
▁해석	-11.7121
▁저울	-11.7123
▁한계	-11.7125
▁사랑합니다	-11.7125
▁크고	-11.7125
▁저장할	-11.7126
▁로비에	-11.7127
▁전주	-11.7128
▁받았다	-11.7128
▁시선을	-11.7128
▁rates	-11.7128
▁민지	-11.7129
▁좀비	-11.713
▁발표회에	-11.713
▁끄	-11.7131
▁진행하였습니다	-11.7131
▁결정해	-11.7132
▁풋	-11.7133
▁탭	-11.7133
▁히터	-11.7133
▁찾았	-11.7133
▁공인	-11.7135
▁물어	-11.7137
▁수염	-11.7137
▁지내요	-11.7137
▁meals	-11.7138
▁흔들리	-11.7139
▁군데	-11.7139
▁힘들었	-11.7139
▁좋게도	-11.714
▁내용물	-11.7141
▁된장	-11.7141
▁덜합니다	-11.7142
▁들어와야	-11.7142
▁정리하고	-11.7143
▁수십	-11.7144
센터에서	-11.7144
▁DC	-11.7145
▁부드럽습니다	-11.7145
▁준비하는	-11.7145
▁어머님이	-11.7146
cel	-11.7147
▁지워지	-11.7147
▁혈관	-11.715
▁발전기	-11.715
▁새우	-11.7151
디비	-11.7151
▁Genera	-11.7151
▁지시	-11.7152
▁해치	-11.7152
▁새해	-11.7153
▁나니까	-11.7153
AL	-11.7154
▁구입하고	-11.7154
근이	-11.7154
▁sta	-11.7154
▁아니지만	-11.7155
▁지지력	-11.7155
▁programs	-11.7155
▁짓기	-11.7157
심이	-11.7158
▁프린터기	-11.7159
차근	-11.7161
▁다니기	-11.7166
▁이론	-11.7167
▁말해야	-11.717
▁입맛에	-11.7171
▁시키는	-11.7171
▁외부에	-11.7171
▁항공사	-11.7172
▁해줄게	-11.7173
▁applications	-11.7173
▁연구원	-11.7174
▁계절에	-11.7174
▁플랫폼으로	-11.7174
▁저기요	-11.7174
▁요리사	-11.7174
▁양면	-11.7176
▁경과	-11.718
▁들어가서	-11.7183
▁이해하는	-11.7183
▁shares	-11.7185
▁주사	-11.7186
되도록	-11.7186
▁moves	-11.7186
▁meaning	-11.7189
▁들어가게	-11.719
터라	-11.719
▁cameras	-11.7191
당할	-11.7192
pri	-11.7197
▁톱	-11.7198
▁오는데	-11.7198
▁항의	-11.7199
▁턴	-11.7199
▁앉을	-11.7204
개에	-11.7205
▁덜어	-11.7205
▁말씀드리기	-11.7206
▁개선하고	-11.7206
▁돌고	-11.7207
▁휴대폰으로	-11.7207
▁states	-11.7208
▁할까	-11.7209
▁접시	-11.721
▁말하지	-11.721
▁드라이기	-11.7213
분에	-11.7218
▁ro	-11.7222
▁shi	-11.7222
▁ti	-11.7225
▁전체에	-11.7227
▁하트	-11.7228
▁베트남에서	-11.723
▁코로	-11.7231
▁일시적	-11.7232
▁폴	-11.7232
▁준수	-11.7233
▁직장인들	-11.7235
객들	-11.7236
▁이야기하는	-11.7238
OOOO	-11.724
▁꽃이	-11.724
▁타요	-11.724
▁대단하다	-11.7242
▁lights	-11.7246
▁높아지	-11.7248
▁고객님들과	-11.7249
▁귀사로	-11.7249
▁상부	-11.7249
▁버려	-11.725
▁doll	-11.725
▁못해서	-11.7252
되어서	-11.7254
▁망가	-11.7255
▁존	-11.7259
▁mission	-11.7261
▁갈비	-11.7263
▁맞을	-11.7263
▁구매하셔	-11.7263
▁올랐다	-11.7265
▁중저	-11.7268
FI	-11.7268
▁둥	-11.7268
웠어요	-11.7269
▁없으신	-11.7269
우드	-11.727
▁불가능한	-11.7272
▁선명도	-11.7272
▁지우	-11.7274
▁이제부터	-11.7275
▁하기에	-11.7275
▁그릴	-11.7277
트리	-11.7279
▁비트	-11.7279
▁가도록	-11.7282
▁농부들	-11.7282
▁일인	-11.7284
▁느껴지	-11.7284
▁양쪽	-11.7284
▁lives	-11.7287
▁의견이	-11.7291
▁42	-11.7292
▁중국으로	-11.7293
시쯤	-11.7295
▁strip	-11.7295
▁관련해	-11.7298
▁들러	-11.7298
▁buildings	-11.7299
▁현장에	-11.7299
리가	-11.7302
▁지연되어	-11.7309
▁깨지	-11.731
▁맞아서	-11.7312
▁임의	-11.7313
▁현이	-11.7314
▁민감하	-11.7315
▁스크	-11.7316
▁seconds	-11.7317
▁중요하다	-11.7317
▁beer	-11.7321
▁균	-11.7321
▁추천하고	-11.7321
▁했기	-11.7322
발한	-11.7322
▁세일	-11.7325
명씩	-11.7325
채로	-11.733
▁운영합니다	-11.7332
▁대만	-11.7334
▁겨울에	-11.7335
▁지면	-11.7335
▁클로	-11.7339
ave	-11.734
하거든요	-11.734
▁해안	-11.7341
▁인사드려	-11.7342
▁있으	-11.7343
▁아파트에	-11.7345
ments	-11.7351
액이	-11.7355
▁이쪽에	-11.736
▁원하시는지	-11.7362
▁원자	-11.7363
▁옷에	-11.7363
▁충전식	-11.7364
▁클린	-11.7369
▁수영	-11.7373
▁특징으로	-11.7378
2%	-11.7379
▁원화	-11.7381
ral	-11.7382
방울	-11.7382
▁말까지	-11.7391
▁발로	-11.7396
▁끝없	-11.7397
▁선적일	-11.74
봐야	-11.7404
▁+	-11.7405
▁계시는지	-11.7406
▁talks	-11.7408
▁방식입니다	-11.7409
▁상황이라	-11.7411
▁변이	-11.7414
men	-11.7414
음이	-11.742
▁주문하실	-11.7421
▁집에서도	-11.7426
▁허리가	-11.7427
▁forth	-11.7437
▁걸음	-11.744
▁죄송합니다만	-11.7443
eed	-11.7445
▁events	-11.7445
▁sup	-11.7447
▁말고도	-11.7461
▁살아있	-11.7463
▁기울이	-11.7464
ier	-11.7466
▁rec	-11.7468
▁조기	-11.7469
의학	-11.7478
▁취소할	-11.748
▁피지	-11.7489
▁지수	-11.7499
▁모니터에	-11.7499
▁attract	-11.75
▁배송받	-11.751
▁창의	-11.7514
▁예술을	-11.7517
▁강사	-11.7517
▁출시합니다	-11.7519
▁해보시	-11.7521
▁recycl	-11.7522
▁수직	-11.7527
▁받아보실	-11.753
기기	-11.7535
▁살펴보시	-11.754
▁제시해	-11.7544
▁friendly	-11.7545
ale	-11.7547
▁체계적	-11.7548
▁오로	-11.7548
▁cars	-11.7555
▁들여	-11.7557
▁일대	-11.7559
▁미터	-11.7559
하기에	-11.7561
놔	-11.7561
▁소개서	-11.7562
▁만들지	-11.7569
▁개인화	-11.757
▁타지	-11.7576
▁시대에	-11.7576
4,000	-11.7579
▁뭐해	-11.7579
하였	-11.7581
▁그렇잖아	-11.7581
▁이대로	-11.7592
▁생기는	-11.7602
cent	-11.7611
▁indicat	-11.7613
김치	-11.7614
국에서	-11.7616
▁손잡이에	-11.7617
77	-11.7625
▁늘렸	-11.7631
▁원만	-11.7637
시에는	-11.764
▁쉬어	-11.7641
▁stores	-11.7647
▁철판에	-11.7648
▁소지	-11.765
▁효능이	-11.7652
▁태풍이	-11.7652
▁인천공항에	-11.7655
▁다가오	-11.7658
▁불안한	-11.7658
펀드	-11.7665
▁도매용	-11.7665
▁희	-11.7672
파이	-11.7672
하던데요	-11.7673
▁시일내	-11.7677
▁동기	-11.7679
base	-11.7681
▁이주	-11.7682
▁건강하	-11.7682
▁관점	-11.7694
마시고	-11.7696
▁재료에	-11.7696
▁연락할	-11.77
▁피부과	-11.77
▁진지	-11.7702
▁직원으로	-11.7703
드림	-11.7712
et	-11.7714
▁귀가	-11.7715
하자	-11.7716
▁번들	-11.7717
시지요	-11.7721
lo	-11.7725
▁요청하고	-11.773
▁유도	-11.7737
▁쳐	-11.7739
▁킹	-11.7739
▁위험하다	-11.774
▁homes	-11.7742
rious	-11.775
500	-11.7754
▁쉬었	-11.7757
▁관심사	-11.7757
▁유리가	-11.7761
inch	-11.7763
▁장소에	-11.7768
▁볼게요	-11.7769
▁배부	-11.7783
▁않았는데	-11.7796
▁출	-11.7797
▁대통령	-11.7799
▁갖추어	-11.7805
▁차량이	-11.7808
▁단지에	-11.7809
▁보냈다	-11.7809
▁방해하	-11.7813
▁신뢰도	-11.7822
▁수용하	-11.7822
▁수준이	-11.7822
▁men	-11.7825
▁pai	-11.7825
▁사려	-11.7827
j	-11.7827
▁둘러보	-11.7829
▁Po	-11.7833
가세요	-11.7834
▁시켰	-11.7834
▁죄송	-11.7837
▁찾으시	-11.7837
▁개방	-11.784
▁않았어	-11.7841
▁이어가	-11.7843
▁종사하	-11.7849
▁탕	-11.785
▁빠져나	-11.7852
▁찾아가	-11.7853
▁번째로	-11.7854
되나요	-11.7854
▁transi	-11.7855
화에	-11.786
▁연예인이	-11.7866
▁친해	-11.7889
▁쉬면	-11.7894
▁bend	-11.79
달아	-11.7901
▁가봐	-11.7921
▁va	-11.7922
▁부탁드려	-11.7923
▁성적	-11.7925
▁필리핀에	-11.7926
▁영구적	-11.7945
하셨죠	-11.7948
주면	-11.7949
해주시니	-11.7949
▁실장님	-11.795
▁저기에	-11.7963
▁끊어	-11.7973
ward	-11.7985
▁전문적	-11.7985
두면	-11.7995
pite	-11.8001
▁신제품들	-11.8008
▁반도	-11.8017
떡	-11.803
▁불가능하	-11.8069
▁하시기	-11.8072
▁analyz	-11.8074
asically	-11.8076
▁약국	-11.8084
어진	-11.8084
▁액	-11.8085
▁타일	-11.8087
▁저것	-11.8087
▁주택에	-11.8094
스가	-11.8094
▁era	-11.8096
해줘	-11.81
상하	-11.8102
▁호텔로	-11.8105
ions	-11.8109
보시기	-11.811
▁복잡	-11.8134
standing	-11.8141
▁해먹	-11.8151
자들과	-11.8161
▁메일이	-11.8161
▁원활하	-11.8167
▁1.5	-11.8173
▁ob	-11.8176
20	-11.8178
▁비슷하	-11.8183
▁되거든	-11.8186
▁거주하	-11.8193
▁Gi	-11.8198
▁가르쳐주	-11.8211
▁소요되	-11.8212
▁농담	-11.8212
▁invit	-11.8219
ports	-11.8221
▁어린이들	-11.8221
▁modifi	-11.8223
▁Ra	-11.8228
금액	-11.8229
실래요	-11.8248
▁제시하	-11.8249
ome	-11.8249
▁일상적	-11.825
▁개업	-11.8252
▁쪽이	-11.8259
▁없을까	-11.8259
▁사용된	-11.8265
▁상하	-11.8272
력으로	-11.8275
▁모이	-11.8275
▁날려	-11.8279
ones	-11.8287
▁사용하셔	-11.8289
▁초에	-11.8294
▁효율적이	-11.8295
▁확인하	-11.8303
▁없으실	-11.8305
▁sau	-11.8315
▁하시는데	-11.832
케	-11.8323
▁주문하려	-11.8327
▁넣었	-11.833
tor	-11.8338
ell	-11.8339
개국	-11.8351
▁살펴볼	-11.8359
lf	-11.836
▁준비했	-11.836
ster	-11.8367
될까요	-11.8375
▁OT	-11.838
▁싶으시다	-11.839
선에	-11.84
▁따지	-11.8406
▁파일이	-11.8409
▁혼나	-11.8411
▁오셨	-11.8413
분감이	-11.8416
▁Whe	-11.8417
▁active	-11.8418
cer	-11.8424
혈관	-11.8441
▁En	-11.8443
번씩	-11.8449
rary	-11.845
▁하도	-11.8453
ages	-11.846
인분	-11.8468
씨가	-11.8482
itation	-11.8487
▁좋았다	-11.8498
ney	-11.8499
입자	-11.8509
▁당황했	-11.8513
베	-11.8514
으니깐	-11.8517
▁hire	-11.8519
▁고객으로	-11.8519
ist	-11.8521
돈이	-11.8538
됐다고	-11.8548
▁주저하	-11.8549
▁비타민이	-11.8551
king	-11.856
▁컵이	-11.8561
▁회사에게	-11.8568
▁Gwan	-11.8569
▁되겠어	-11.8574
▁mil	-11.8574
ctively	-11.8584
▁조향	-11.8586
nterna	-11.8588
▁담았	-11.8591
▁신발이	-11.8593
▁사업자	-11.8608
칼	-11.861
▁판매자	-11.8612
▁adv	-11.8617
정으로	-11.862
▁지내시	-11.8624
▁Mar	-11.8627
▁얼굴이	-11.8632
▁지진	-11.8641
줄까	-11.8642
▁후면	-11.8643
ash	-11.8647
ko	-11.8652
▁스타일의	-11.8661
▁가능하시	-11.8667
장으로	-11.8674
▁mo	-11.8675
▁아니니까	-11.8692
▁근무하	-11.8698
▁물건들	-11.8699
uses	-11.8714
▁말아	-11.8723
▁치면	-11.8723
꾸	-11.8726
주시니	-11.8727
▁싶었어	-11.8728
ose	-11.8732
▁직원분들	-11.8736
▁탐구	-11.874
▁했네	-11.8743
▁세미	-11.8754
▁전과	-11.8755
ick	-11.8756
어링	-11.8757
▁기입	-11.8757
▁구해야	-11.8759
▁걸리더라	-11.8764
▁공급되	-11.8771
▁desi	-11.8772
▁추천하	-11.8785
번이	-11.879
▁내기	-11.8792
ious	-11.8793
▁회사에서도	-11.8795
▁바이	-11.8797
야겠죠	-11.8801
fly	-11.8807
▁점도	-11.8809
▁theme	-11.8814
▁pen	-11.8832
▁구매하시겠	-11.884
▁sav	-11.8844
▁구해	-11.8845
▁곳이라	-11.8847
셨잖아요	-11.8851
▁lie	-11.8858
있어요	-11.8861
▁바뀌어	-11.8862
▁말라	-11.8863
NG	-11.8865
야겠다	-11.8869
▁있으셔	-11.8877
▁팔을	-11.888
분으로	-11.8881
성분	-11.8884
하시거나	-11.889
화물	-11.8891
▁Mak	-11.8893
▁확인해보시	-11.8902
▁주목해	-11.8908
▁die	-11.8911
he	-11.8928
적이지	-11.8932
▁상징적	-11.8934
▁식당에	-11.8939
▁내야	-11.894
갔다	-11.8955
▁임대하	-11.8956
stat	-11.8957
▁리모컨	-11.8974
▁단점이	-11.8977
들께서	-11.8994
▁연락하	-11.8997
▁만들어지는	-11.8999
었고	-11.9002
럽	-11.9003
▁중이라	-11.9008
▁보상해	-11.9011
▁얻으	-11.9021
▁실측	-11.9043
▁연금	-11.9047
▁넣어주	-11.9049
▁fu	-11.9051
▁싫어하는	-11.9051
치즈	-11.9056
▁그러던	-11.9066
위상	-11.9067
no	-11.908
▁클럽에	-11.9083
리거나	-11.9092
▁불편해	-11.9092
써	-11.9095
▁뜻이	-11.9096
east	-11.9097
이래	-11.9105
ad	-11.9112
적이	-11.9145
ache	-11.9156
식을	-11.9159
▁답답	-11.9164
▁cur	-11.9183
way	-11.9194
▁Ca	-11.9198
ension	-11.9204
▁세련되	-11.9209
▁종사	-11.9215
용이	-11.9216
▁Ne	-11.9217
▁주방용품	-11.9219
▁예상하	-11.9223
가지로	-11.9229
▁Yo	-11.9238
▁사회에	-11.924
▁애플	-11.924
▁필요해	-11.9242
row	-11.9251
▁법적	-11.9252
하겠죠	-11.9254
▁없나	-11.9263
▁흰색이	-11.9269
돌이	-11.9277
▁셋이	-11.9279
▁불량이	-11.9285
어져	-11.9298
▁mu	-11.9302
▁부장님께	-11.9304
▁Pa	-11.9308
▁강해	-11.9311
원하지	-11.9314
▁끝이	-11.9322
보기	-11.9324
▁끼쳐	-11.933
신데요	-11.9332
▁비슷해	-11.9333
▁말한	-11.9349
하셨다고	-11.9353
▁동의하	-11.9353
▁저장해	-11.9358
시잖아요	-11.939
oop	-11.9396
▁축하해	-11.9419
▁부르는	-11.9425
▁효능	-11.9425
▁태풍	-11.9426
리라고	-11.9426
건으로	-11.9427
▁발휘	-11.9446
▁와이어	-11.9446
▁조정해	-11.9466
▁네일	-11.9468
월이	-11.9473
▁장치에	-11.9478
▁bo	-11.9485
▁내린	-11.9498
▁심각	-11.9503
▁손상이	-11.9503
걸요	-11.9507
해졌다	-11.9531
▁신뢰에	-11.9535
▁너그	-11.9537
여야	-11.9544
▁상담사	-11.9546
▁고생했	-11.9547
님에게	-11.9549
드리기	-11.9549
▁헬스장	-11.9557
land	-11.9567
TT	-11.9587
▁해줄	-11.9589
십시요	-11.9595
한데	-11.9595
▁해주셔	-11.9598
드렸	-11.9604
▁정책에	-11.9612
▁Lo	-11.9621
되었어요	-11.9621
▁유분	-11.9622
▁회사만	-11.9629
역에서	-11.9633
비가	-11.9647
버려	-11.9649
▁좋아져	-11.9656
▁mm	-11.9662
먹	-11.9671
▁희망하	-11.9687
▁만들어지	-11.9689
▁tr	-11.9694
닉	-11.9696
겠는데요	-11.9698
▁lease	-11.971
▁하던데	-11.971
▁부탁드릴	-11.9712
풍기	-11.9713
000	-11.972
▁거래처에	-11.9721
왔는데	-11.9734
▁하더라고	-11.9734
부하	-11.9737
▁많네	-11.974
ass	-11.9746
▁구축하는	-11.975
IR	-11.9753
실에서	-11.9757
▁밝혀	-11.9766
▁구축해	-11.9776
▁출근하	-11.978
인과	-11.9796
이구나	-11.9803
▁부작용	-11.9806
놀이	-11.981
▁파트너로	-11.9811
▁받아보시	-11.9812
▁적다	-11.9816
▁장비들	-11.9817
CT	-11.9819
▁세미나에	-11.9825
▁송금이	-11.9828
▁스마트폰에	-11.9829
성에	-11.9833
텐	-11.9834
부분	-11.9834
들면	-11.9836
▁않으셨	-11.9838
되었음	-11.9853
▁설명해주	-11.9857
굴	-11.9862
행	-11.9865
▁났다	-11.9866
▁부담하	-11.9868
ability	-11.9869
▁붙이시	-11.9869
▁즐기시	-11.9875
▁realize	-11.9877
▁데이트	-11.9882
▁교수	-11.9888
▁정치	-11.9894
내어	-11.9905
▁운송해	-11.9909
▁긍정	-11.9917
▁스튜디오에	-11.992
▁플	-11.9925
▁층에	-11.9926
ga	-11.993
일자	-11.9938
되었으며	-11.9944
▁뛰	-11.9955
▁시민	-11.9955
▁irr	-11.9959
▁교정	-11.9973
▁종목	-11.9977
맛이	-11.9989
rough	-11.9989
협	-11.9991
▁두세	-12
우린	-12.0002
ume	-12.0002
▁가구들	-12.0002
ise	-12.0002
▁sh	-12.0004
▁seal	-12.0007
텔	-12.0008
▁텀블러	-12.0019
항목	-12.0022
DC	-12.0029
랜	-12.0029
▁보라	-12.0033
악기	-12.0033
저것	-12.0036
건강	-12.0037
▁로그인	-12.0037
줘요	-12.0038
또	-12.0043
▁1.3	-12.0043
명세서	-12.0046
펌	-12.0046
▁Bu	-12.0046
킬로그램	-12.0046
껌	-12.0046
따	-12.0049
polit	-12.0049
조림	-12.005
▁노력해	-12.005
▁tu	-12.0052
검	-12.0052
참	-12.0056
났	-12.0059
FT	-12.006
곱	-12.006
hap	-12.0062
Q	-12.0071
벨	-12.0071
▁고객분	-12.0071
둬	-12.0071
파괴	-12.0071
카드	-12.0071
▁주문하시	-12.0072
counter	-12.0073
메	-12.0073
angle	-12.0074
끄	-12.0074
센	-12.0075
▁있냐	-12.0075
98	-12.0077
짓	-12.0078
뷰	-12.0081
꼬	-12.0081
쓰	-12.0082
풋	-12.0082
탭	-12.0082
▁작업자	-12.0082
form	-12.0083
새우	-12.0083
짝	-12.0084
▁기관에	-12.0085
혼	-12.0085
▁remov	-12.0085
덕	-12.0085
짜	-12.0087
활	-12.0087
군데	-12.0088
젤	-12.0089
푸드	-12.0089
헤	-12.0089
봤	-12.009
집이	-12.009
증권	-12.0092
계절	-12.0093
HD	-12.0094
콘	-12.0094
푸	-12.0095
boil	-12.0095
깨	-12.0095
▁인상적	-12.0095
▁혈액	-12.0096
현황	-12.0097
issue	-12.0097
재가	-12.0098
응	-12.0098
쇼	-12.0098
오피스텔	-12.0098
Y	-12.0098
춤	-12.0099
효율	-12.0099
홀	-12.0099
purpose	-12.0099
chang	-12.01
▁h	-12.01
뿌리	-12.01
▁기울어	-12.01
패	-12.01
완료	-12.01
▁생산과	-12.0101
아시아	-12.0101
speed	-12.0102
바이러스	-12.0102
차례	-12.0103
프레임	-12.0103
여행	-12.0103
구매	-12.0103
학생들	-12.0104
팬츠	-12.0104
스포츠	-12.0104
렌즈	-12.0105
how	-12.0105
하냐	-12.0105
핏	-12.0105
box	-12.0105
read	-12.0105
총	-12.0105
홈	-12.0106
봅니다	-12.0106
주택	-12.0106
머신	-12.0106
보험료	-12.0106
▁보여줄	-12.0107
where	-12.0107
힘	-12.0107
메뉴	-12.0107
▁영역에	-12.0107
제작	-12.0107
교육	-12.0107
자동차	-12.0108
선생님	-12.0108
▁뉴욕	-12.0108
노래	-12.0108
▁전략이	-12.0109
관련	-12.0109
들여	-12.0109
컬러	-12.0109
영향	-12.011
▁멋지	-12.011
부담	-12.011
▁제작해	-12.011
structure	-12.0111
care	-12.0111
생긴	-12.0112
사람	-12.0112
준비	-12.0113
코스	-12.0114
절차	-12.0115
cou	-12.0115
리스트	-12.0117
가면서	-12.0117
거래	-12.0119
▁즉각	-12.0121
선물	-12.0121
도시	-12.0125
소음	-12.0126
수량	-12.0126
직원	-12.0126
ray	-12.0127
가입	-12.0128
종류	-12.0128
매일	-12.0128
품질	-12.0128
발주	-12.0129
800	-12.0131
▁dress	-12.0133
환자	-12.0135
va	-12.0135
터리	-12.0138
▁sha	-12.0139
간장	-12.014
엔진	-12.0141
봐도	-12.0143
기간이	-12.0144
▁업	-12.0145
있어서	-12.0148
▁브리	-12.0148
night	-12.0149
▁놈	-12.015
▁빠르	-12.015
▁파우치	-12.0154
기준	-12.016
▁저항	-12.0161
주셨기	-12.0162
투어	-12.0164
토리	-12.0165
자료	-12.0166
▁85	-12.0166
건강에	-12.0166
사원	-12.0166
식사	-12.0167
▁애용	-12.0169
▁게임이	-12.0169
화폐	-12.0172
▁재석	-12.0173
대비	-12.0174
▁생각해야	-12.0174
15	-12.0175
문제	-12.0175
▁헹구	-12.0176
▁Gre	-12.018
부분에	-12.018
번으로	-12.0181
받지	-12.0182
함과	-12.0182
▁신청해	-12.0182
▁주문하였	-12.0184
피자	-12.0187
득	-12.0192
▁begin	-12.0194
날이	-12.0195
▁인도에	-12.0196
▁예민하	-12.0198
▁돌아오	-12.02
만두	-12.0202
▁ph	-12.0204
▁최저	-12.0207
▁쌓여	-12.0207
▁바닥이	-12.0209
▁follow	-12.021
▁매매	-12.021
킨	-12.0213
let	-12.0216
체로	-12.0217
ography	-12.0217
시미	-12.0218
▁custom	-12.0219
▁도망	-12.0222
ensive	-12.0223
▁저하	-12.0224
됨	-12.0226
▁평가해	-12.0226
▁update	-12.023
▁flo	-12.023
▁이야기할	-12.023
▁article	-12.0233
▁microphone	-12.0233
▁wipe	-12.0234
▁screw	-12.0234
▁preference	-12.0234
▁session	-12.0234
▁청정	-12.0234
▁Smart	-12.0236
안에서	-12.0236
사리	-12.0236
▁동현	-12.0236
구성	-12.0237
▁speci	-12.0239
▁graphic	-12.024
▁organization	-12.024
▁manner	-12.024
▁oven	-12.024
▁vol	-12.0241
▁desk	-12.0241
▁photo	-12.0243
▁Ba	-12.0244
▁dumpling	-12.0244
▁오케	-12.0245
ood	-12.0246
▁pad	-12.0246
▁suggestion	-12.0247
▁은퇴	-12.0247
▁ye	-12.0247
▁soc	-12.0248
▁공기청정	-12.0249
▁고정시	-12.025
▁안주	-12.0251
▁wholesaler	-12.0252
▁의지	-12.0252
놓는	-12.0252
▁초래	-12.0252
히터	-12.0253
▁동일하	-12.0253
▁consumer	-12.0253
녀	-12.0256
공원	-12.0256
sides	-12.0258
봇	-12.0259
▁셋째	-12.0261
ttached	-12.0262
롭	-12.0262
▁염치	-12.0264
▁ne	-12.0264
bility	-12.0264
▁탈착	-12.0265
무릅	-12.0266
텐데	-12.0267
▁흡입	-12.0268
tains	-12.0269
▁주거	-12.027
▁장비에	-12.027
▁introduc	-12.027
소다	-12.0273
들어	-12.0273
여부	-12.0274
ign	-12.0275
▁완	-12.0276
lent	-12.0276
▁송구	-12.0276
liability	-12.0277
▁track	-12.0278
▁입체	-12.028
▁improv	-12.028
람	-12.0283
▁사무실이	-12.0283
▁태국	-12.0284
xperience	-12.0285
▁film	-12.0285
ishing	-12.0287
▁판매했	-12.0287
▁주문하시는	-12.0287
▁56	-12.0287
▁concern	-12.0288
▁obtain	-12.0288
▁샀어	-12.0288
▁patent	-12.0289
▁가계	-12.0291
대리	-12.0291
▁replace	-12.0292
▁벗어	-12.0292
였으	-12.0293
▁공예	-12.0293
lcome	-12.0293
▁flu	-12.0293
혜	-12.0293
▁gene	-12.0294
▁inevitabl	-12.0294
▁Africa	-12.0295
▁재현	-12.0295
▁applie	-12.0296
랍	-12.0296
▁brief	-12.0296
▁confident	-12.0296
▁smooth	-12.0296
▁previous	-12.0297
▁시끄러	-12.0297
▁웨이	-12.0297
▁proper	-12.0297
▁compre	-12.0297
▁몰랐네	-12.0297
▁successful	-12.0298
릭	-12.0298
▁보내드렸	-12.0298
▁lif	-12.0298
▁deca	-12.0298
▁요거	-12.0298
▁usual	-12.0299
멘트	-12.0299
춰	-12.03
앗	-12.03
enger	-12.03
▁위탁	-12.0301
▁레이어	-12.0301
괄	-12.0301
▁낚시	-12.0301
▁반갑	-12.0301
▁econom	-12.0301
ortunately	-12.0301
롯	-12.0301
랄	-12.0301
:30	-12.0301
▁adapt	-12.0302
▁모레	-12.0302
깃	-12.0302
슨	-12.0302
깅	-12.0302
쾌	-12.0302
ratio	-12.0302
venue	-12.0303
▁object	-12.0303
▁무궁	-12.0303
▁아이섀도	-12.0303
뚝	-12.0303
▁flexib	-12.0303
미스	-12.0303
밴	-12.0303
스프레	-12.0303
즙	-12.0303
촌	-12.0303
▁cooperati	-12.0303
▁competitive	-12.0303
▁스웨	-12.0303
▁prote	-12.0303
랙	-12.0303
▁hung	-12.0303
▁poss	-12.0303
샵	-12.0304
▁moist	-12.0304
▁favor	-12.0304
▁동남아	-12.0304
뚱	-12.0304
▁intestin	-12.0304
monia	-12.0304
▁absorb	-12.0304
▁backpack	-12.0304
▁enclos	-12.0304
▁imaginati	-12.0304
▁oblig	-12.0304
▁vac	-12.0304
▁앵글	-12.0304
▁여쭈어	-12.0304
▁일산화탄소	-12.0304
▁튜닝	-12.0304
elecommunication	-12.0304
hahaha	-12.0304
length	-12.0304
xplosion	-12.0304
▁+82	-12.0304
▁Again	-12.0304
▁Christmas	-12.0304
▁Club	-12.0304
▁DNA	-12.0304
▁HDMI	-12.0304
▁Institute	-12.0304
▁Jennie	-12.0304
▁Mosquito	-12.0304
▁Nevertheless	-12.0304
▁ODM	-12.0304
▁Potatoes	-12.0304
▁Regard	-12.0304
▁September	-12.0304
▁Super	-12.0304
▁Tokyo	-12.0304
▁Tuesday	-12.0304
▁Wednesday	-12.0304
▁absorption	-12.0304
▁acid	-12.0304
▁animals	-12.0304
▁announce	-12.0304
▁arrest	-12.0304
▁banquet	-12.0304
▁beneficial	-12.0304
▁bulgogi	-12.0304
▁burst	-12.0304
▁calendar	-12.0304
▁campaign	-12.0304
▁ceramic	-12.0304
▁column	-12.0304
▁commodities	-12.0304
▁compartment	-12.0304
▁concept	-12.0304
▁concrete	-12.0304
▁convert	-12.0304
▁crypto	-12.0304
▁daughter	-12.0304
▁decrease	-12.0304
▁defeat	-12.0304
▁demonstration	-12.0304
▁destination	-12.0304
▁dictionary	-12.0304
▁disadvantage	-12.0304
▁doubt	-12.0304
▁dream	-12.0304
▁egg	-12.0304
▁electronic	-12.0304
▁eliminated	-12.0304
▁exposed	-12.0304
▁faith	-12.0304
▁girl	-12.0304
▁guitar	-12.0304
▁imagine	-12.0304
▁inconvenient	-12.0304
▁industries	-12.0304
▁insufficient	-12.0304
▁jewelry	-12.0304
▁layer	-12.0304
▁marriage	-12.0304
▁narrow	-12.0304
▁negotiation	-12.0304
▁newspaper	-12.0304
▁octopus	-12.0304
▁organizing	-12.0304
▁overcharged	-12.0304
▁pamphlet	-12.0304
▁particles	-12.0304
▁photography	-12.0304
▁pump	-12.0304
▁quot	-12.0304
▁remind	-12.0304
▁satellite	-12.0304
▁satisfactory	-12.0304
▁senior	-12.0304
▁silhouette	-12.0304
▁sprout	-12.0304
▁straight	-12.0304
▁strategy	-12.0304
▁struggl	-12.0304
▁stuff	-12.0304
▁sugar	-12.0304
▁toxins	-12.0304
▁virus	-12.0304
▁woman	-12.0304
▁yarn	-12.0304
▁감칠맛	-12.0304
▁개스킷	-12.0304
▁견과류	-12.0304
▁겹쳐	-12.0304
▁구석구석	-12.0304
▁굿즈	-12.0304
▁궁극적	-12.0304
▁그룹웨어	-12.0304
▁근감소증	-12.0304
▁긁어	-12.0304
▁김준호	-12.0304
▁끓는	-12.0304
▁낳고	-12.0304
▁냉매	-12.0304
▁네일아트	-12.0304
▁네트워킹	-12.0304
▁노르웨이	-12.0304
▁노벨상	-12.0304
▁높낮이	-12.0304
▁눈높이	-12.0304
▁늦춰	-12.0304
▁다목적	-12.0304
▁다큐멘터리	-12.0304
▁단합대회	-12.0304
▁달라붙	-12.0304
▁독촉	-12.0304
▁됩니까	-12.0304
▁떼어	-12.0304
▁뚫으	-12.0304
▁뜯었	-12.0304
▁띄는	-12.0304
▁라떼	-12.0304
▁라이센스	-12.0304
▁로맨스	-12.0304
▁리액션	-12.0304
▁머릿결	-12.0304
▁머플러	-12.0304
▁메신저	-12.0304
▁멕시코	-12.0304
▁멘보사과	-12.0304
▁멘탈	-12.0304
▁미디엄	-12.0304
▁미숫가루	-12.0304
▁바랄게요	-12.0304
▁바쁩니다	-12.0304
▁박선영	-12.0304
▁베이컨	-12.0304
▁보러왔어	-12.0304
▁뵐게요	-12.0304
▁부들부들	-12.0304
▁분자생물학	-12.0304
▁불투명	-12.0304
▁불행하게도	-12.0304
▁빨개	-12.0304
▁뽑기	-12.0304
▁샀다	-12.0304
▁새콤하	-12.0304
▁성대모사	-12.0304
▁셔틀버스	-12.0304
▁승용차	-12.0304
▁식료품	-12.0304
▁싱가포르	-12.0304
▁쌀국수	-12.0304
▁썰매	-12.0304
▁아깝다	-12.0304
▁아름답	-12.0304
▁아메리카노	-12.0304
▁안전벨트	-12.0304
▁어플리케이터	-12.0304
▁엉망	-12.0304
▁옮겼	-12.0304
▁왁스	-12.0304
▁우물펌프	-12.0304
▁우체국	-12.0304
▁위아래	-12.0304
▁위약금	-12.0304
▁이뤄지	-12.0304
▁이빨	-12.0304
▁임베디드	-12.0304
▁임플란트	-12.0304
▁자원봉사	-12.0304
▁재미없	-12.0304
▁저승사자	-12.0304
▁전기스탠드	-12.0304
▁전자결재	-12.0304
▁젓가락	-12.0304
▁좋으니까	-12.0304
▁좋으며	-12.0304
▁좋으면	-12.0304
▁지편한세상	-12.0304
▁짰다	-12.0304
▁쭈욱	-12.0304
▁참기름	-12.0304
▁찾아뵙	-12.0304
▁청양고추	-12.0304
▁초경량	-12.0304
▁추첨	-12.0304
▁카운터	-12.0304
▁카타로그	-12.0304
▁캐시백	-12.0304
▁컨베이어	-12.0304
▁케이터링	-12.0304
▁콘크리트	-12.0304
▁쿨링	-12.0304
▁키패드	-12.0304
▁탄산음료	-12.0304
▁터치스크린	-12.0304
▁텁텁	-12.0304
▁템플릿	-12.0304
▁템플스테이	-12.0304
▁통찰력	-12.0304
▁튜브	-12.0304
▁트렁크	-12.0304
▁특집	-12.0304
▁파슬리	-12.0304
▁파운데이션	-12.0304
▁패브릭	-12.0304
▁퍼블릭	-12.0304
▁퍼포먼스	-12.0304
▁평생보증	-12.0304
▁포유류	-12.0304
▁포커스	-12.0304
▁폭넓	-12.0304
▁프로그래머	-12.0304
▁프탈레이트	-12.0304
▁하우징	-12.0304
▁할아버지	-12.0304
▁핫도그	-12.0304
▁핫팩	-12.0304
▁향신료	-12.0304
▁헤어드라이어	-12.0304
▁헬멧	-12.0304
▁홍고추	-12.0304
▁활성산소	-12.0304
▁후춧가루	-12.0304
대천왕	-12.0304
삿	-12.0304
압밸브	-12.0304
익스프레스	-12.0304
짬뽕	-12.0304
협동조합	-12.0304
▁Play	-12.0304
▁accomp	-12.0304
▁celebrit	-12.0304
▁identify	-12.0304
▁negative	-12.0304
▁공휴일	-12.0304
▁굵은	-12.0304
▁나쁘지	-12.0304
▁대역폭	-12.0304
▁맡아	-12.0304
▁매콤	-12.0304
▁민석이	-12.0304
▁변호사	-12.0304
▁불필요	-12.0304
▁빼놓	-12.0304
▁사기꾼	-12.0304
▁쓴맛	-12.0304
▁아나운서	-12.0304
▁오징어게임	-12.0304
▁임차인	-12.0304
▁중성세제	-12.0304
▁짤이	-12.0304
▁콘셉트	-12.0304
▁특선	-12.0304
▁프린팅	-12.0304
▁피사체	-12.0304
▁헤어스타일	-12.0304
▁휴무	-12.0304
▁흠이	-12.0304
Detect	-12.0304
▁Day	-12.0304
▁Happiness	-12.0304
▁ISO	-12.0304
▁architectur	-12.0304
▁collimator	-12.0304
▁dancing	-12.0304
▁ferment	-12.0304
▁residu	-12.0304
▁scene	-12.0304
▁sustainab	-12.0304
▁tough	-12.0304
▁trouble	-12.0304
▁virtual	-12.0304
▁과감하게	-12.0304
▁라이벌	-12.0304
▁러시아	-12.0304
▁부직포	-12.0304
▁블렌	-12.0304
▁사오리	-12.0304
▁썼어	-12.0304
▁외로워	-12.0304
▁우연히	-12.0304
▁중산층	-12.0304
▁집사부	-12.0304
▁프로토타입	-12.0304
▁한겨울	-12.0304
셉	-12.0304
bacteria	-12.0304
humidi	-12.0304
▁spring	-12.0304
▁메세지	-12.0304
▁오렌지	-12.0304
▁태양전지	-12.0304
ordinary	-12.0304
▁Pack	-12.0304
▁cushion	-12.0304
▁교통사고	-12.0304
▁비영리단체	-12.0304
▁에이전시	-12.0304
▁일교차	-12.0304
▁큼직	-12.0304
▁효연	-12.0304
케이션	-12.0304
▁fasci	-12.0304
▁pilot	-12.0304
▁pipe	-12.0304
▁score	-12.0304
▁squid	-12.0304
▁subway	-12.0304
▁런닝머신	-12.0304
▁발가락	-12.0304
▁불일치	-12.0304
▁사자성어	-12.0304
▁후임자	-12.0304
▁appearance	-12.0304
▁cattle	-12.0304
▁circulation	-12.0304
▁tank	-12.0304
▁개그맨	-12.0304
▁마니아	-12.0304
▁슬로건	-12.0304
▁온난화	-12.0304
▁파라벤	-12.0304
▁disaster	-12.0304
▁recipient	-12.0304
▁stack	-12.0304
▁랜턴	-12.0304
▁에어프라이어	-12.0304
▁예초기	-12.0304
thermal	-12.0304
▁copper	-12.0304
▁debut	-12.0304
▁inches	-12.0304
▁갑상선암	-12.0304
▁컴플레인	-12.0304
▁manpower	-12.0304
▁mouse	-12.0304
▁냉동보관	-12.0304
▁박쥐	-12.0304
▁울릉	-12.0304
▁냅킨	-12.0304
▁러닝	-12.0304
▁톡톡	-12.0304
▁핸드메이드	-12.0304
▁Keep	-12.0304
▁vegan	-12.0304
▁워크샵	-12.0304
▁Check	-12.0304
▁규명	-12.0304
▁쳐다보	-12.0304
▁Busan	-12.0304
▁ceiling	-12.0304
▁넘어갔어	-12.0304
▁블록체인	-12.0304
▁좋겠어	-12.0304
▁가로지르	-12.0304
▁간소화	-12.0304
▁글러브	-12.0304
▁밀접	-12.0304
▁석삼	-12.0304
▁숨쉬	-12.0304
▁적정량	-12.0304
▁클레이	-12.0304
▁혼란스러	-12.0304
▁제빙기	-12.0304
▁peroxide	-12.0304
▁rinse	-12.0304
▁냉면	-12.0304
▁되살리	-12.0304
▁라텍스	-12.0304
▁exterior	-12.0304
▁야영장	-12.0304
▁beaut	-12.0304
▁가속도	-12.0304
▁깨달았	-12.0304
currency	-12.0304
▁네네네	-12.0304
▁농기계	-12.0304
▁조그마	-12.0304
라기보다	-12.0304
▁메쉬	-12.0304
▁수제비	-12.0304
▁pocket	-12.0304
▁relocation	-12.0304
▁메모리폼	-12.0304
▁불순물	-12.0304
▁원어치	-12.0304
▁종합병원	-12.0304
dient	-12.0304
gular	-12.0304
▁yeah	-12.0304
▁노즐	-12.0304
▁도라지	-12.0304
▁belt	-12.0304
▁무의미	-12.0304
▁점유율	-12.0304
▁청국장	-12.0304
▁nourish	-12.0304
▁도둑	-12.0304
▁액티브	-12.0304
▁departure	-12.0304
▁expectations	-12.0304
▁고객지원	-12.0304
▁광케이블	-12.0304
▁창피하	-12.0304
▁buffe	-12.0304
▁medal	-12.0304
▁preferred	-12.0304
▁transmission	-12.0304
▁wool	-12.0304
▁무작위	-12.0304
▁익스트림	-12.0304
▁섭외	-12.0304
illus	-12.0304
▁analog	-12.0304
▁drama	-12.0304
▁jaw	-12.0304
▁건전지	-12.0304
▁다공성	-12.0304
▁부가세	-12.0304
▁셀럽	-12.0304
▁케첩	-12.0304
▁클리퍼	-12.0304
▁cancellation	-12.0304
▁매운맛	-12.0304
▁정성스럽게	-12.0304
▁타이틀	-12.0304
▁BJ	-12.0304
▁들어맞	-12.0304
▁호응	-12.0304
▁샐러드	-12.0304
▁catalyst	-12.0304
▁participation	-12.0304
▁서양식	-12.0304
▁아이라이너	-12.0304
▁대량주문	-12.0304
▁pink	-12.0304
▁defense	-12.0304
▁신생아	-12.0304
▁abo	-12.0304
▁설립되었으며	-12.0304
▁저희측에서	-12.0304
▁새콤달콤	-12.0304
▁boat	-12.0304
▁검역	-12.0304
▁되찾	-12.0304
▁가려움	-12.0304
▁sandwiches	-12.0304
▁로프트	-12.0304
▁심박수	-12.0304
▁부티크	-12.0304
▁summar	-12.0304
▁몰입감	-12.0304
▁손세탁	-12.0304
▁HDR	-12.0304
▁스페인	-12.0304
▁서스펜션	-12.0304
▁workplace	-12.0304
▁이현이	-12.0304
▁학술	-12.0304
kook	-12.0304
▁산삼	-12.0304
▁Four	-12.0304
▁comfortably	-12.0304
▁잔여물	-12.0304
▁systematic	-12.0304
▁고주파	-12.0304
▁재충전	-12.0304
▁muscle	-12.0304
▁pour	-12.0304
▁recover	-12.0304
▁병행	-12.0304
▁대장암	-12.0304
illa	-12.0304
▁완수하	-12.0304
▁Meet	-12.0304
MF	-12.0304
media	-12.0304
teful	-12.0304
▁foam	-12.0304
▁simply	-12.0304
▁suspend	-12.0304
▁그러셨군요	-12.0304
▁단호박	-12.0304
▁cities	-12.0304
bble	-12.0304
▁세안제	-12.0304
▁남았으니	-12.0304
▁완제품	-12.0304
▁회원이신	-12.0304
▁운동기구	-12.0304
▁틀렸어	-12.0304
▁profits	-12.0304
▁언론	-12.0304
jeong	-12.0304
▁mechanic	-12.0304
▁가공육	-12.0304
▁순찰	-12.0304
▁capital	-12.0304
▁광채	-12.0305
▁아이섀도우	-12.0305
▁항암	-12.0305
▁reference	-12.0305
▁드롭	-12.0305
▁coz	-12.0305
▁완판	-12.0305
scatter	-12.0305
▁판독	-12.0305
▁여행객	-12.0305
▁힘써	-12.0305
▁완구	-12.0305
▁자궁	-12.0305
▁재구매	-12.0305
▁강좌	-12.0305
▁베이직	-12.0305
▁신념	-12.0305
RW	-12.0305
▁선생님께	-12.0305
▁아크릴	-12.0305
▁냉기	-12.0305
▁Qu	-12.0305
▁examination	-12.0305
▁팔찌	-12.0305
▁강화유리	-12.0305
▁말씀드렸듯이	-12.0305
▁목욕	-12.0305
▁오염물질	-12.0305
666	-12.0305
▁검거	-12.0305
▁필링	-12.0305
▁penalty	-12.0305
▁으악	-12.0305
▁poly	-12.0305
▁극복	-12.0305
퍼센트	-12.0305
▁게시글	-12.0305
▁낮춰	-12.0305
▁공짜	-12.0305
▁나노기술	-12.0305
▁EU	-12.0305
▁고객사들	-12.0305
▁마이너스	-12.0305
▁아니겠	-12.0305
▁1080	-12.0305
▁comple	-12.0305
▁consultation	-12.0305
▁분쟁	-12.0305
▁장벽	-12.0305
▁증폭	-12.0305
ard	-12.0305
▁자격증	-12.0305
corporat	-12.0305
▁inspect	-12.0305
▁hitch	-12.0305
▁무궁화	-12.0305
▁백라이트	-12.0305
▁우측	-12.0305
pleasant	-12.0305
▁맥박	-12.0305
▁텍스트	-12.0305
▁sick	-12.0305
▁플러시	-12.0305
▁플라그	-12.0305
▁belly	-12.0305
▁running	-12.0305
벤더	-12.0305
▁상거래	-12.0305
▁결승	-12.0305
▁의료정보	-12.0305
▁염증	-12.0305
▁원자력	-12.0305
▁딜러	-12.0305
▁reaction	-12.0305
▁염료	-12.0305
▁SBS	-12.0305
▁허가증	-12.0305
▁꼭대기	-12.0305
▁themselves	-12.0305
▁계곡	-12.0305
▁마피아	-12.0305
▁장애물	-12.0305
▁타깃	-12.0305
▁올리브	-12.0305
▁스핀	-12.0305
▁신혼	-12.0305
▁shock	-12.0305
▁부담스럽	-12.0305
▁EMS	-12.0305
▁접착제	-12.0305
▁주꾸미	-12.0305
▁격차	-12.0305
▁셀카	-12.0305
▁communicate	-12.0306
▁출산	-12.0306
▁dance	-12.0306
▁배합	-12.0306
▁탄소강	-12.0306
▁danger	-12.0306
▁Sim	-12.0306
▁endure	-12.0306
▁brown	-12.0306
▁우럭	-12.0306
▁upgraded	-12.0306
▁살펴봐야	-12.0306
▁외근	-12.0306
▁첨가물	-12.0306
▁불가피	-12.0306
▁재석아	-12.0306
▁돈가스	-12.0306
▁증정해	-12.0306
▁mint	-12.0306
▁PH	-12.0306
▁깊숙	-12.0306
▁여름철	-12.0306
▁가족호텔	-12.0306
▁과학자들	-12.0306
▁해산물	-12.0306
▁father	-12.0306
▁사귀	-12.0306
▁짜증	-12.0306
▁화석	-12.0306
▁아이크림	-12.0306
▁운임	-12.0306
▁희소	-12.0306
rupt	-12.0306
▁플레어	-12.0306
▁무덤	-12.0306
▁소켓	-12.0306
▁용역	-12.0306
▁좋으신가요	-12.0306
roid	-12.0306
▁콜라	-12.0306
▁낚시대	-12.0306
피언	-12.0306
▁조항	-12.0306
▁mug	-12.0306
▁새벽	-12.0306
▁shoulder	-12.0306
▁인턴	-12.0306
▁근거리	-12.0306
▁anxi	-12.0306
▁구애	-12.0307
▁가능하겠네요	-12.0307
▁부러져	-12.0307
▁종교	-12.0307
▁모밀	-12.0307
▁한정식	-12.0307
▁석류	-12.0307
▁천안	-12.0307
▁younger	-12.0307
▁수고하셨습니다	-12.0307
▁99%	-12.0307
▁캠핑카	-12.0307
▁sitting	-12.0307
▁유창하	-12.0307
▁전념	-12.0307
▁실내복	-12.0307
▁상민아	-12.0307
▁찬물	-12.0307
ai	-12.0307
▁발목	-12.0307
▁사은품	-12.0307
▁worst	-12.0307
▁씨앗	-12.0307
▁테마	-12.0307
▁적립	-12.0307
▁캐러	-12.0307
▁천만에요	-12.0307
▁필러	-12.0307
▁PM	-12.0307
▁과장님께서	-12.0307
▁합판	-12.0307
▁imm	-12.0307
▁scary	-12.0307
▁bath	-12.0307
▁화학물질	-12.0307
▁실례지만	-12.0307
▁More	-12.0307
▁mine	-12.0307
▁교류	-12.0307
▁교양서	-12.0308
▁Failed	-12.0308
▁성심	-12.0308
▁같으니까	-12.0308
▁있으시거나	-12.0308
▁마찰	-12.0308
▁연탄	-12.0308
▁유머	-12.0308
▁0.1	-12.0308
▁대나무	-12.0308
▁시멘트	-12.0308
▁모으	-12.0308
▁오배송	-12.0308
▁가져갈	-12.0308
▁장악	-12.0308
CP	-12.0308
▁배워야	-12.0308
▁Sorry	-12.0308
▁사과드리며	-12.0308
▁조부모님	-12.0308
▁입술	-12.0308
▁roughly	-12.0308
gage	-12.0308
▁산책	-12.0308
▁연구결과	-12.0308
▁도매가격	-12.0308
▁사냥	-12.0308
▁동의한다면	-12.0308
▁폭우	-12.0308
▁늘었어	-12.0308
▁구슬	-12.0309
페어	-12.0309
▁입혀	-12.0309
▁내륙	-12.0309
hood	-12.0309
▁풍선	-12.0309
▁막혔	-12.0309
▁faster	-12.0309
▁현미	-12.0309
▁NE	-12.0309
▁구급차	-12.0309
▁줬어	-12.0309
iness	-12.0309
ww	-12.0309
▁가로수	-12.0309
▁타격	-12.0309
seon	-12.0309
pstick	-12.0309
▁resolved	-12.0309
▁청력	-12.0309
▁화학제품	-12.0309
▁string	-12.0309
▁점장님	-12.0309
▁code	-12.0309
▁송별회	-12.0309
▁싸우	-12.0309
▁여타	-12.0309
▁부끄러워	-12.031
▁있었으니까	-12.031
▁dye	-12.031
▁관례	-12.031
▁실증	-12.031
▁controlled	-12.031
▁소지품	-12.031
▁시합	-12.031
▁calm	-12.031
▁김태	-12.031
▁진료	-12.031
POP	-12.031
▁레이어드	-12.031
▁동양	-12.031
▁인쇄물	-12.031
▁Tea	-12.031
코더	-12.031
▁행	-12.031
▁간결	-12.031
▁의지야	-12.031
▁데스크	-12.031
▁분필	-12.031
▁세밀	-12.031
▁5~7	-12.031
▁포럼	-12.031
▁실무	-12.031
▁innovation	-12.031
▁홍어	-12.031
▁consideration	-12.031
▁reality	-12.031
▁망치	-12.031
▁준비됐	-12.031
▁로즈	-12.0311
▁되신다면	-12.0311
▁거주자	-12.0311
▁귀중	-12.0311
GHz	-12.0311
▁도출	-12.0311
▁민원	-12.0311
▁efficiently	-12.0311
▁briefly	-12.0311
▁통역	-12.0311
▁1.7	-12.0311
▁가야겠다	-12.0311
▁rib	-12.0311
▁20.3	-12.0311
▁직위	-12.0311
▁truck	-12.0311
▁집값	-12.0311
▁향료	-12.0312
▁복권	-12.0312
▁어때	-12.0312
시스템에	-12.0312
▁하나하나	-12.0312
▁전화번호	-12.0312
▁상관없어요	-12.0312
▁요청사항	-12.0312
▁identifie	-12.0312
▁유출	-12.0312
▁조카	-12.0312
▁보송	-12.0312
▁embarrassed	-12.0312
▁scared	-12.0312
▁알파고	-12.0312
▁재발	-12.0312
▁그만두	-12.0312
▁감전	-12.0313
▁만찬	-12.0313
빈아	-12.0313
부가가치	-12.0313
▁고기국수	-12.0313
▁상대적으로	-12.0313
67	-12.0313
▁근거로	-12.0313
▁flat	-12.0313
▁찾아온	-12.0313
▁conditioner	-12.0313
▁어찌	-12.0313
▁들어갔어	-12.0313
▁예예	-12.0313
▁체질	-12.0313
▁꼬리	-12.0313
▁심하다	-12.0313
▁고쳤	-12.0313
▁레인지	-12.0313
111-	-12.0313
▁다리미	-12.0313
▁봐주는	-12.0313
▁3.5	-12.0313
▁열망	-12.0313
▁입사하	-12.0313
▁medium	-12.0313
▁두꺼	-12.0314
▁궁금하네요	-12.0314
▁빠르다	-12.0314
▁있대요	-12.0314
▁태어	-12.0314
▁quietly	-12.0314
▁죄송스럽	-12.0314
▁bowl	-12.0314
▁방역	-12.0314
▁교과서	-12.0314
페어링	-12.0314
▁autonomous	-12.0314
▁가축	-12.0314
▁79	-12.0314
스트림	-12.0314
▁그늘	-12.0315
▁피부톤	-12.0315
▁Eat	-12.0315
▁벗어나	-12.0315
▁과학적	-12.0315
▁작정	-12.0315
▁개봉	-12.0315
빠밤	-12.0315
▁첫번째	-12.0315
▁구역	-12.0315
▁알약	-12.0315
▁liquor	-12.0316
▁복근	-12.0316
▁portal	-12.0316
▁기증	-12.0316
▁단연	-12.0316
▁정중	-12.0316
▁정량	-12.0316
리엄	-12.0316
▁알겠지만	-12.0316
▁있었구나	-12.0316
▁정오	-12.0316
▁구출	-12.0316
▁공학적	-12.0316
▁relieved	-12.0316
▁세션	-12.0316
▁rele	-12.0316
▁의료비	-12.0316
▁City	-12.0316
▁engineer	-12.0316
▁dial	-12.0316
▁들었다	-12.0317
▁지인이	-12.0317
▁200,000	-12.0317
▁야채	-12.0317
▁통지서	-12.0317
▁임신	-12.0317
▁모르니까	-12.0317
ets	-12.0317
▁난감	-12.0317
▁automo	-12.0317
▁않으셨나요	-12.0317
▁collection	-12.0317
▁드릴링	-12.0318
▁미국인들	-12.0318
천만원	-12.0318
▁커트	-12.0318
▁surroundings	-12.0318
▁Products	-12.0318
▁algorithms	-12.0318
▁instructions	-12.0318
▁nozzles	-12.0318
▁semiconductors	-12.0318
▁vegetables	-12.0318
▁wheels	-12.0318
▁inventions	-12.0318
▁withdraw	-12.0318
▁걸리니	-12.0318
▁실물	-12.0318
▁Five	-12.0318
▁피구	-12.0318
▁320	-12.0318
▁brows	-12.0318
laces	-12.0318
▁등산화	-12.0318
▁patented	-12.0318
▁crack	-12.0318
vant	-12.0318
▁저비용	-12.0318
▁본토	-12.0318
▁시끄러운	-12.0319
▁먹었는데	-12.0319
▁후원하고	-12.0319
▁점막	-12.0319
▁player	-12.0319
▁Genes	-12.0319
▁시원하다	-12.0319
▁강연	-12.0319
▁적어주시면	-12.0319
▁sad	-12.0319
▁주문했는데요	-12.032
omb	-12.032
▁천장	-12.032
학번	-12.032
▁trial	-12.032
▁어디다가	-12.032
▁실천	-12.032
▁후반	-12.0321
▁배송되기	-12.0321
▁흔적	-12.0321
▁광대	-12.0321
▁물어보세요	-12.0321
▁지난달	-12.0321
▁은색	-12.0321
▁트라이	-12.0322
▁오름	-12.0322
▁시국	-12.0322
▁전설	-12.0322
▁지쳐	-12.0322
▁순수	-12.0322
▁할애	-12.0322
▁해볼까요	-12.0322
▁이용해보세요	-12.0322
▁스냅	-12.0322
▁조선	-12.0322
▁아내분이	-12.0322
▁expression	-12.0322
▁정장과	-12.0322
▁엘	-12.0323
▁트레이	-12.0323
▁않았지만	-12.0323
▁모르니	-12.0323
▁중반	-12.0323
▁고백	-12.0323
im	-12.0323
▁만들려고	-12.0323
▁노화	-12.0323
▁Stand	-12.0323
▁asset	-12.0323
▁치수	-12.0324
▁folded	-12.0324
▁선사해	-12.0324
▁고객사에	-12.0324
▁서적	-12.0324
ters	-12.0324
▁balanced	-12.0324
▁어디에서나	-12.0324
▁미쳤나	-12.0324
▁rental	-12.0324
nter	-12.0324
▁어필	-12.0324
▁우아	-12.0324
▁쓸모	-12.0324
▁3000	-12.0324
▁품질관리	-12.0324
▁싶었던	-12.0324
▁눈부	-12.0324
▁기조	-12.0324
▁김장	-12.0324
▁fo	-12.0325
▁실린	-12.0325
▁말아요	-12.0325
▁샘플링	-12.0325
▁Hop	-12.0325
▁기념품	-12.0325
▁볼링	-12.0325
▁추수	-12.0325
▁고장나	-12.0325
▁유동	-12.0325
▁찬스	-12.0325
▁칫솔모	-12.0325
▁relieve	-12.0325
▁아시잖아요	-12.0326
▁탐	-12.0326
▁오픈형	-12.0326
▁보철	-12.0326
▁물고기	-12.0326
▁그래프	-12.0326
▁예정이니	-12.0326
▁조종	-12.0326
▁성적서	-12.0326
▁미역	-12.0326
▁사출	-12.0326
▁숙박비	-12.0326
▁쓰세요	-12.0326
▁점프	-12.0326
▁되겠죠	-12.0327
해주시	-12.0327
Turbo	-12.0327
▁답신	-12.0327
▁점유	-12.0327
▁아쉽다	-12.0327
▁문장	-12.0328
▁잠그고	-12.0328
▁agreed	-12.0328
▁tourist	-12.0328
▁판정	-12.0328
리탕	-12.0328
▁회장	-12.0328
▁severe	-12.0328
▁시작하려면	-12.0328
▁부호	-12.0328
▁운용	-12.0328
▁축구화	-12.0328
verything	-12.0329
▁속상	-12.0329
▁신경망	-12.0329
▁덮어주	-12.0329
▁filming	-12.0329
▁열선	-12.0329
▁시중에	-12.0329
▁파티션	-12.0329
▁브레	-12.033
였나요	-12.033
LAN	-12.033
▁가르	-12.033
▁노출되어	-12.033
▁탐지	-12.033
▁끼치	-12.033
▁신부	-12.033
▁사내	-12.0331
▁초청해	-12.0331
천원	-12.0331
▁issued	-12.0331
▁위배	-12.0332
▁다듬	-12.0332
▁신경써야	-12.0333
▁반동	-12.0333
번이요	-12.0333
▁affiliate	-12.0333
▁미안해요	-12.0333
▁soju	-12.0333
▁있었네요	-12.0333
▁양반	-12.0334
▁용액	-12.0334
▁있겠다	-12.0334
▁충족시키	-12.0334
바이저	-12.0334
▁개미	-12.0334
▁기다려주십시오	-12.0334
▁접대	-12.0334
▁냉동실	-12.0334
▁산성	-12.0334
방이	-12.0335
▁고심	-12.0335
▁사태	-12.0335
▁이사님	-12.0335
▁영지야	-12.0335
▁먹었어요	-12.0336
▁곤란해	-12.0336
alk	-12.0336
▁지호	-12.0336
▁괜찮네요	-12.0336
▁비판	-12.0336
ics	-12.0336
sual	-12.0336
▁shortage	-12.0336
▁입점	-12.0336
▁원유	-12.0336
▁미친	-12.0336
▁야생	-12.0336
▁주민	-12.0336
▁맛있는데요	-12.0337
▁화제	-12.0337
▁restore	-12.0338
즈니	-12.0338
▁후방	-12.0338
▁paste	-12.0338
▁아뇨	-12.0339
▁아파요	-12.0339
▁내리면	-12.0339
▁맛있는데	-12.034
흡수율	-12.034
▁로스	-12.034
4\\\	-12.034
▁그거예요	-12.034
▁부진한	-12.034
▁대체품	-12.034
▁activat	-12.0341
▁끝이야	-12.0341
▁데이지	-12.0341
▁자문	-12.0341
▁두번째	-12.0341
▁소견	-12.0341
▁아니었어요	-12.0342
▁bare	-12.0342
▁시도해	-12.0342
▁기종	-12.0342
리학	-12.0342
▁cats	-12.0342
인당	-12.0342
▁firms	-12.0342
▁beverages	-12.0342
▁cosmetics	-12.0342
▁institutions	-12.0342
▁microwaves	-12.0342
▁repairs	-12.0342
▁회의록	-12.0343
▁먹으려고	-12.0343
▁Per	-12.0343
▁단추	-12.0343
▁반려동물용	-12.0343
▁도형	-12.0343
▁안전하며	-12.0343
▁map	-12.0343
slip	-12.0343
▁고층	-12.0344
▁사람이라면	-12.0344
▁essen	-12.0344
ould	-12.0344
▁수확기	-12.0344
▁배수	-12.0344
▁귀신	-12.0345
▁양치	-12.0345
▁회원권	-12.0345
하여서	-12.0346
린스	-12.0346
▁solved	-12.0346
▁유지하면서	-12.0346
▁앞당기	-12.0347
▁전자제품	-12.0347
▁소품	-12.0347
돋아	-12.0347
▁문어	-12.0348
▁교체품	-12.0348
▁과식	-12.0348
▁nose	-12.0348
▁정해졌	-12.0348
▁resident	-12.0349
▁slid	-12.0349
▁부담하겠습니다	-12.0349
▁jumping	-12.0349
▁실시하고	-12.0349
▁범인	-12.0349
enty	-12.035
▁분이세요	-12.035
▁어떨지	-12.035
▁주성분	-12.035
▁주관	-12.035
▁살리고	-12.035
▁알았다	-12.0351
▁케어해	-12.0351
▁오타	-12.0352
▁미끄러지	-12.0352
▁canceled	-12.0352
▁있었나요	-12.0352
▁고객사로	-12.0353
▁singer	-12.0353
셨다면서요	-12.0353
▁어학	-12.0353
▁혈	-12.0353
▁차트	-12.0353
▁양수	-12.0353
▁여신	-12.0354
▁화나	-12.0354
▁꽂	-12.0354
▁matte	-12.0354
▁클라이언트와	-12.0354
▁오락	-12.0354
▁사위	-12.0354
▁대리인	-12.0354
▁가량	-12.0355
▁designer	-12.0355
▁휘	-12.0355
▁가입해야	-12.0355
▁원본은	-12.0355
▁졸	-12.0356
▁기온	-12.0356
▁라이프	-12.0356
▁보증기간	-12.0356
▁되어있는	-12.0356
▁seven	-12.0356
▁temporar	-12.0356
▁믹서	-12.0356
▁잇	-12.0356
▁fault	-12.0356
▁갤	-12.0356
▁뱅	-12.0356
▁보너스	-12.0356
▁odor	-12.0356
▁shabu	-12.0356
▁롱스커트	-12.0356
▁모니카	-12.0356
▁생태계	-12.0356
▁언젠가	-12.0356
▁콧	-12.0356
▁shirt	-12.0356
▁막걸리	-12.0356
▁바비큐	-12.0356
▁hyung	-12.0356
▁보일러	-12.0356
▁러브	-12.0356
▁respect	-12.0356
▁웨이브	-12.0356
▁스트링	-12.0356
▁dispos	-12.0356
▁펜슬	-12.0357
▁슬립	-12.0357
▁USD	-12.0357
▁골목	-12.0357
▁스톱	-12.0357
▁mental	-12.0357
▁위트가	-12.0357
▁잘하네	-12.0357
▁토너	-12.0357
▁Met	-12.0357
▁하늘	-12.0357
een	-12.0358
▁지하철역	-12.0358
▁빨라요	-12.0358
▁업소	-12.0358
▁익히	-12.0358
▁좋았어요	-12.0358
▁고가	-12.0358
▁시판	-12.0359
▁부쩍	-12.0359
▁traveling	-12.0359
▁전쟁	-12.0359
▁온수	-12.0359
청에	-12.0359
▁농장	-12.0359
▁happening	-12.0359
▁시행하고	-12.0359
▁평면	-12.0359
▁권해	-12.036
▁주문했는데	-12.036
▁알려주셔야	-12.036
▁피어	-12.0361
▁설치비	-12.0361
▁host	-12.0361
▁폴로	-12.0361
▁electricity	-12.0362
▁시간표	-12.0362
▁익숙해지	-12.0362
▁naturally	-12.0362
▁검	-12.0362
▁구간	-12.0362
▁들어가세요	-12.0362
▁카본	-12.0362
▁체험해	-12.0363
▁무전	-12.0363
▁강남	-12.0363
▁신형	-12.0363
▁reflect	-12.0363
▁앉고	-12.0363
▁사람들인데	-12.0364
▁있었나	-12.0364
▁청정도	-12.0364
▁박수	-12.0364
▁같지만	-12.0364
▁먹기에	-12.0364
▁나온다고	-12.0364
▁워치	-12.0364
▁비데	-12.0364
▁분리하여	-12.0365
▁말씀해주시면	-12.0365
▁둘레	-12.0365
스팅	-12.0365
gnos	-12.0366
▁의식	-12.0366
▁인원수	-12.0366
▁그정도	-12.0366
▁이물질	-12.0366
들께	-12.0366
▁만족하실	-12.0367
▁trim	-12.0367
▁tru	-12.0367
▁살까	-12.0367
▁EV	-12.0367
▁스카이	-12.0367
▁능력자	-12.0367
▁어떠실	-12.0368
▁desks	-12.0368
▁graphics	-12.0368
▁manners	-12.0368
▁organizations	-12.0368
▁ovens	-12.0368
▁updates	-12.0368
▁다세대	-12.0368
▁지효야	-12.0368
▁프로야	-12.0368
▁에스	-12.0368
▁내보내	-12.0369
▁상공	-12.0369
분간	-12.037
▁도중에	-12.037
▁chips	-12.037
▁도전해	-12.037
▁궁금해요	-12.0371
▁혼란스럽	-12.0371
▁Every	-12.0372
▁자선	-12.0372
병증	-12.0372
sert	-12.0372
are	-12.0372
▁apple	-12.0372
▁귀사께	-12.0373
▁덮개	-12.0373
▁생각하며	-12.0373
▁파편	-12.0373
clusive	-12.0374
▁커스	-12.0374
elly	-12.0374
▁생수	-12.0374
GB	-12.0375
▁butter	-12.0375
▁동생이	-12.0375
▁영상물	-12.0376
▁캠핑용	-12.0376
~7	-12.0377
▁건배	-12.0377
▁뿌려	-12.0377
▁맛이에요	-12.0378
▁cancer	-12.0378
▁보장받	-12.0379
han	-12.0379
▁상민	-12.0379
▁미드	-12.038
들아	-12.038
▁자재만	-12.038
wise	-12.0381
▁지원금	-12.0381
점이에요	-12.0381
▁connected	-12.0381
▁giv	-12.0382
dged	-12.0382
▁않네	-12.0382
▁죄송한	-12.0382
▁친구들과	-12.0383
▁grain	-12.0383
▁returned	-12.0383
조개	-12.0383
▁조상	-12.0383
ugged	-12.0384
▁안돼	-12.0384
등이야	-12.0385
▁윤	-12.0386
▁교차	-12.0386
▁선보이고	-12.0387
▁screening	-12.0389
▁applying	-12.0389
▁고수	-12.039
셨을텐데	-12.039
▁입실	-12.039
▁shoulders	-12.0391
treet	-12.0391
▁절실	-12.0391
해야겠어	-12.0391
▁싸인	-12.0392
▁criteri	-12.0392
▁처리하시면	-12.0392
▁도망가	-12.0392
▁Heal	-12.0393
▁소요된다	-12.0393
▁cups	-12.0393
▁joints	-12.0393
▁signals	-12.0393
▁recipes	-12.0393
▁거잖아	-12.0393
▁decorations	-12.0393
ore	-12.0394
▁fift	-12.0394
▁제어하기	-12.0394
▁가운데로	-12.0394
두리	-12.0395
▁workers	-12.0395
▁사진사	-12.0395
▁탄산	-12.0395
▁흘	-12.0395
kin	-12.0396
▁떨려	-12.0397
▁디바	-12.0397
▁재미있다	-12.0398
▁pets	-12.0398
▁발전소	-12.0398
▁만들어주	-12.0399
mL	-12.0399
▁존재하는	-12.04
▁오기	-12.04
▁난관	-12.04
▁행정	-12.04
▁전산	-12.04
▁RF	-12.0401
ding	-12.0401
▁보급	-12.0401
▁missing	-12.0402
▁업무처리	-12.0402
▁striv	-12.0402
▁배달해	-12.0402
▁비치해	-12.0402
▁간병	-12.0403
▁저녁까지	-12.0403
▁melt	-12.0404
format	-12.0404
▁cooked	-12.0405
▁계실지	-12.0405
▁고려해서	-12.0406
▁요즘에는	-12.0406
▁식량	-12.0407
▁말까	-12.0407
▁중동	-12.0407
▁연구자	-12.0407
▁차분	-12.0408
▁들어갔다	-12.0408
▁주부	-12.0409
▁75	-12.0409
▁살리	-12.0409
▁outer	-12.0409
▁긴장감	-12.0409
▁alone	-12.041
▁의료기기로	-12.0411
▁아이고야	-12.0412
▁inde	-12.0413
▁goal	-12.0413
▁ring	-12.0413
▁Jj	-12.0414
▁작게	-12.0415
▁통해서만	-12.0415
▁않네요	-12.0417
▁써요	-12.0417
PP	-12.0418
led	-12.0418
▁기어	-12.0418
▁다양화	-12.0418
▁아니라니까	-12.0419
▁bathrooms	-12.0419
▁bicycles	-12.0419
▁tickets	-12.0419
▁보물	-12.0419
▁설명하겠습니다	-12.0419
▁먹어야지	-12.042
▁모음	-12.042
▁나오게	-12.0421
▁server	-12.0424
draw	-12.0425
▁애정	-12.0425
▁보내십시오	-12.0426
▁중이며	-12.0426
올게요	-12.0427
▁흡수하고	-12.0427
▁주목할	-12.0428
▁생각이에요	-12.0428
▁알았지	-12.0428
▁나온다	-12.0428
▁잡아서	-12.0429
▁fees	-12.0429
▁건이	-12.0429
▁Mm	-12.043
▁printer	-12.0431
▁rac	-12.0432
▁논의하기	-12.0432
▁문의주시기	-12.0432
▁이외에도	-12.0432
onomic	-12.0433
▁대구	-12.0433
▁시선	-12.0434
▁divers	-12.0435
aps	-12.0437
▁농축	-12.0437
줘야지	-12.0438
▁supported	-12.0439
▁복도	-12.0439
▁가든	-12.044
▁efficient	-12.044
▁이정도	-12.0441
▁비상시	-12.0441
▁아프지	-12.0442
▁lock	-12.0442
▁흡	-12.0443
▁공업	-12.0443
▁직원들에게	-12.0443
▁좌	-12.0443
▁chemicals	-12.0445
▁drugs	-12.0445
▁institutes	-12.0445
▁networks	-12.0445
▁sensors	-12.0445
▁engines	-12.0445
▁추워지	-12.0445
▁텍스	-12.0445
▁뻔	-12.0445
▁White	-12.0445
▁띠	-12.0445
▁닿게	-12.0446
ister	-12.0446
▁gri	-12.0446
령이	-12.0447
▁고해상도	-12.0447
▁윌	-12.0447
▁넥	-12.0447
▁백화점	-12.0447
▁된장찌개	-12.0447
▁윈	-12.0447
▁해물	-12.0447
▁김치찌개	-12.0447
▁캔슬링	-12.0447
▁필름	-12.0447
▁베이킹	-12.0448
▁매입	-12.0448
▁숨기	-12.0448
▁7%	-12.0448
▁슈	-12.0448
▁source	-12.0448
▁mount	-12.0448
▁v	-12.0449
▁완성해	-12.0449
레이	-12.045
▁믿기	-12.045
하구요	-12.045
▁반대로	-12.0451
▁램	-12.0451
▁worker	-12.0451
▁CE	-12.0452
▁윤기	-12.0453
▁마켓	-12.0453
▁반전	-12.0455
▁국밥	-12.0455
▁진정시키	-12.0455
▁중소	-12.0455
▁유방	-12.0455
▁수축	-12.0456
▁고어	-12.0456
▁sour	-12.0457
▁fry	-12.0457
▁쿠션감	-12.0458
▁세척기	-12.0458
▁경사	-12.0458
▁미주	-12.0459
▁철도	-12.0459
▁rai	-12.0459
▁뭐든	-12.046
▁serious	-12.046
▁카페에서	-12.046
▁보네	-12.0461
▁장판	-12.0461
▁ended	-12.0462
관계에	-12.0462
▁CG	-12.0463
▁남용	-12.0463
▁리드	-12.0465
▁판매팀	-12.0466
반기	-12.0466
▁어떤지	-12.0467
▁교사	-12.0468
▁편이라	-12.0469
▁국적	-12.047
▁사용하며	-12.047
▁아니잖아요	-12.047
▁표현하고	-12.0471
▁hose	-12.0472
▁Mal	-12.0472
▁유치	-12.0472
▁들어가자	-12.0473
▁추천드리	-12.0474
▁bid	-12.0475
▁동선	-12.0476
▁될까	-12.0476
▁이거예요	-12.0476
▁owners	-12.0476
▁연산	-12.0477
▁그러자	-12.0478
▁가니까	-12.0479
▁아쉬운	-12.0479
▁삼각	-12.0481
▁cast	-12.0481
▁백만	-12.0482
▁le	-12.0483
▁팀장이	-12.0483
▁단자	-12.0484
지수	-12.0484
▁그랬지	-12.0486
▁장인	-12.0486
▁되었지만	-12.0487
▁흐	-12.0487
▁연구팀에서	-12.0488
물인	-12.0489
fer	-12.0489
▁예정이었	-12.0489
▁수락하기	-12.049
▁spli	-12.049
▁취하	-12.0491
▁난리	-12.0493
▁공급업체와	-12.0495
▁반장	-12.0496
▁꾸준함	-12.0497
▁다이어트를	-12.0497
▁신뢰해	-12.0498
720	-12.0499
▁왕자	-12.0499
▁사안	-12.0499
▁없었다는	-12.05
▁들기	-12.05
▁멋지다	-12.0501
▁가리개	-12.0501
▁이국	-12.0503
▁marin	-12.0503
▁수정하고	-12.0503
▁2002	-12.0504
▁열차	-12.0505
▁모드에서	-12.0505
▁해놓	-12.0505
▁눈물	-12.0508
▁착용하고	-12.0509
▁중성	-12.0511
▁지켜봐	-12.0512
감사절	-12.0512
▁철이	-12.0513
제로	-12.0514
▁placed	-12.0515
0°	-12.0515
▁외과	-12.0518
▁단기	-12.0518
▁개발하는	-12.0518
▁별명	-12.0518
▁하더라구요	-12.0519
▁보여줄게	-12.052
▁그려	-12.0521
▁heating	-12.0521
▁bars	-12.0521
▁solutions	-12.0522
▁warehouses	-12.0522
▁operations	-12.0522
7,000	-12.0526
▁좋아하실	-12.0527
민이	-12.0527
▁net	-12.0529
▁서서	-12.0529
ons	-12.0529
▁치자	-12.053
▁대중이	-12.0531
▁수육	-12.0531
▁중이시	-12.0532
▁둘러보기	-12.0532
▁시키고	-12.0533
▁솔로	-12.0533
▁인증서	-12.0535
▁반려동물과	-12.0536
▁변명	-12.0536
▁포자	-12.0537
▁시술	-12.0537
▁loo	-12.0537
▁습도	-12.0538
▁크로	-12.0538
▁권고	-12.0539
▁벨	-12.0539
▁진행되는	-12.054
▁Q	-12.054
▁보리	-12.054
▁land	-12.0541
▁파괴	-12.0541
▁둬	-12.0542
▁아동	-12.0545
▁달까지	-12.0546
▁purposes	-12.0548
cord	-12.0548
▁보증서	-12.0549
▁visited	-12.055
▁angle	-12.055
▁범위에서	-12.055
Gu	-12.0552
▁활기	-12.0553
▁환불까지	-12.0554
▁부담감	-12.0555
▁입장에서도	-12.0555
mate	-12.0556
▁행복할	-12.0557
하듯이	-12.0558
▁소용	-12.056
▁12345	-12.0562
▁화면으로	-12.0562
▁방향성	-12.0563
▁수익성	-12.0563
▁우재	-12.0563
▁웃기	-12.0564
▁보수를	-12.0564
▁후드	-12.0565
리터	-12.0566
▁com	-12.0566
▁저희회사	-12.0566
lucky	-12.0567
▁제공되는지	-12.0567
▁인상적이었	-12.0568
▁해봐야	-12.0568
드렸는데	-12.0568
▁모양입니다	-12.0568
van	-12.0568
▁occurre	-12.0569
▁혈액에	-12.057
▁연구비	-12.057
▁driver	-12.0571
▁과자들	-12.0571
▁번역가	-12.0571
▁choices	-12.0575
▁suppliers	-12.0575
민아	-12.0575
▁전신	-12.0576
배가	-12.0579
▁같다고	-12.0579
▁요점	-12.0581
▁코스로	-12.0581
월부터	-12.0582
▁주간	-12.0584
팅이	-12.0586
▁되었음	-12.0586
▁mor	-12.0587
fits	-12.0588
▁먹습니다	-12.0591
▁다른데	-12.0593
▁정해야	-12.0594
▁da	-12.0594
▁뭐죠	-12.0595
▁72	-12.0596
▁보여서	-12.0597
▁거니	-12.0598
▁발견하	-12.0598
▁사기에	-12.06
▁temperatures	-12.0601
▁god	-12.0603
▁들게	-12.0604
▁추천드려	-12.0605
▁걸린다	-12.0605
포로	-12.0605
▁sites	-12.0606
▁예술가	-12.0609
▁구하기	-12.061
▁counter	-12.0611
▁원리	-12.0611
▁방면	-12.0613
격자	-12.0614
▁scien	-12.0616
▁돌아보	-12.0616
▁Am	-12.0616
▁구매하시	-12.0618
공포	-12.0619
bs	-12.062
▁측정합니다	-12.0621
▁교수님께	-12.0623
▁야외에서	-12.0623
njoy	-12.0624
했음에	-12.0625
▁보내신	-12.0626
▁platforms	-12.0627
▁이후부터	-12.0628
▁ages	-12.0628
▁달리고	-12.0628
▁1/1	-12.0629
▁싶으시다고	-12.063
▁되었기	-12.063
▁최고야	-12.0632
,500	-12.0634
▁전문가들은	-12.0634
▁하겠다	-12.0635
▁나왔고	-12.0637
▁모르시	-12.0637
▁칸	-12.0638
▁종로	-12.064
▁노출되	-12.0641
lash	-12.0642
전골	-12.0645
▁다음부터	-12.0645
▁해라	-12.0646
▁다스	-12.0647
▁무인	-12.065
▁faci	-12.0654
nder	-12.0654
▁뉴스에서	-12.0654
시경	-12.0654
월까지	-12.0655
▁있었기	-12.0655
▁law	-12.0656
▁성수기에	-12.0659
▁소비자분들	-12.0662
▁어어	-12.0662
▁도우	-12.0664
▁predict	-12.0665
tery	-12.0667
▁개장	-12.0667
▁tend	-12.0668
▁조정이	-12.067
▁설명회	-12.067
▁spa	-12.0672
▁참고하	-12.0672
▁주주	-12.0673
평가	-12.0674
▁수학	-12.0675
▁이겼어	-12.0675
서구	-12.0676
dge	-12.0676
▁나가요	-12.0676
▁말리	-12.0677
▁아무나	-12.0677
▁불안정	-12.0677
후에	-12.0677
킷	-12.0679
▁했지	-12.0679
▁suits	-12.0679
▁자연에	-12.0679
내기	-12.068
▁제작하였	-12.068
▁존재가	-12.0681
▁근로자들	-12.0684
▁lightly	-12.0686
▁기억하고	-12.069
디로	-12.069
▁말해서	-12.0691
아귀	-12.0692
▁나죠	-12.0693
ess	-12.0694
▁룰	-12.0696
▁노력해야	-12.0698
,200	-12.0698
▁sing	-12.0701
▁뛰면	-12.0703
▁생산해	-12.0703
▁jo	-12.0705
▁leaves	-12.0707
▁matters	-12.0707
▁검토하고	-12.0708
▁얘기해야	-12.0709
▁스마트폰으로	-12.071
▁크다	-12.071
먹기	-12.0711
유량	-12.0711
버릴	-12.0712
▁전달하고	-12.0712
▁약자	-12.0713
▁소자	-12.0714
▁아빠가	-12.0718
거군요	-12.0719
하였다	-12.072
역대	-12.0724
▁여분	-12.0725
▁메가	-12.0726
▁chees	-12.0727
▁몰라도	-12.0729
▁모금	-12.0732
▁빠졌어	-12.0733
▁brands	-12.0733
ilities	-12.0734
▁calls	-12.0735
겠다고	-12.0736
3-4	-12.0736
▁각인	-12.0737
개부터	-12.0741
▁빨래	-12.0747
▁있어야지	-12.0751
▁적자	-12.0752
▁했었어	-12.0754
▁기술팀	-12.0757
▁이상해	-12.0759
▁spaces	-12.0759
▁되냐	-12.0762
체가	-12.0764
▁거네요	-12.0764
▁기능까지	-12.0764
▁na	-12.0766
▁정치적	-12.0766
▁터졌	-12.0769
▁징	-12.077
▁술이	-12.0771
older	-12.0771
58	-12.0771
열이	-12.0772
▁pan	-12.0773
▁가격대를	-12.0773
▁user	-12.0774
▁부족으로	-12.0774
체인	-12.0777
SA	-12.0779
▁오래전	-12.078
차감	-12.078
▁분기에	-12.0782
▁플레이를	-12.0784
▁들어갔는데	-12.0786
▁스테이	-12.0786
강의	-12.0787
▁맞히	-12.0788
▁reviews	-12.0788
했죠	-12.0788
▁있다고요	-12.0789
▁연고	-12.079
▁부모님들	-12.079
▁재조정하	-12.0791
보는	-12.0796
▁것이죠	-12.0797
▁cri	-12.0797
▁나사	-12.0798
▁외출	-12.0799
▁만나요	-12.0801
▁빠를	-12.0802
▁십	-12.0804
MS	-12.0809
▁호환성	-12.081
▁과도	-12.0816
▁교육과	-12.0817
기구	-12.0817
정적	-12.0817
▁예약자	-12.0817
하시겠지만	-12.0821
orm	-12.0821
▁cleans	-12.0825
▁딜	-12.0826
▁그분	-12.0826
▁면도기	-12.0826
카라	-12.0832
▁당도	-12.0834
▁팔기	-12.0834
▁사업장	-12.0834
▁감사하게	-12.0841
▁설계되었다	-12.0841
▁납부해	-12.0844
od	-12.0846
▁보호용	-12.0847
▁판매율	-12.0849
▁요금에	-12.0852
▁격	-12.0856
▁출근	-12.0856
▁파고	-12.0858
▁관리되는	-12.086
▁나한테는	-12.086
▁스타일이	-12.086
tions	-12.086
▁세면	-12.0862
구이	-12.0862
▁인공지능이	-12.0864
▁Leav	-12.0867
▁websites	-12.0868
▁areas	-12.0868
▁아시는	-12.0869
▁적어야	-12.0871
▁조절해주	-12.0871
▁맛있고	-12.0873
▁저리	-12.0875
▁신뢰받	-12.088
8%	-12.0882
▁시어	-12.0884
▁싶기	-12.0884
ations	-12.0885
▁맞추기	-12.0887
대회	-12.0888
▁대전	-12.0889
▁중개	-12.0891
▁마을에	-12.0891
분만	-12.0894
▁중앙에	-12.0894
▁경도	-12.0895
▁은인	-12.0896
▁bro	-12.0896
▁지상	-12.0898
▁레일	-12.09
▁환경과	-12.0902
▁다니는	-12.0904
▁부서에	-12.091
집은	-12.0911
▁남자가	-12.0915
▁사람만	-12.0917
중이신	-12.0917
▁집게	-12.0917
▁호의	-12.0919
▁심심	-12.0921
줄래	-12.0928
▁돌아갔	-12.0928
▁gr	-12.0929
▁notif	-12.0935
▁강화되	-12.0937
▁문제점들	-12.0937
▁경쟁사들	-12.0938
▁협력에	-12.0939
▁함께하기	-12.0941
▁전환이	-12.0942
▁상의하	-12.0942
▁파기	-12.0944
분할	-12.0945
▁면이	-12.0948
▁allerg	-12.0948
▁시작했	-12.0951
▁잠이	-12.0951
▁선풍	-12.0953
도구	-12.0957
▁낸	-12.0964
라피	-12.0966
스트를	-12.0967
먹었다	-12.0968
▁맞으면	-12.0969
▁레이	-12.097
▁마요	-12.097
리기	-12.0972
▁했으니	-12.0972
▁문의하기	-12.0974
▁Marke	-12.0974
▁얼마야	-12.0976
▁형상	-12.0984
▁한국인이	-12.0985
▁용품들	-12.0988
▁거기다	-12.0989
▁Ge	-12.099
▁calculat	-12.1013
▁일해	-12.1013
위한	-12.1014
▁이해해주	-12.1014
▁신뢰성	-12.1021
▁옥	-12.1023
▁사업가	-12.1025
어만	-12.1025
▁책상에	-12.1027
과장	-12.1028
▁현대적	-12.1028
▁explod	-12.103
▁통로	-12.1036
▁참고용	-12.1037
▁선택하기	-12.1043
게이지	-12.1048
▁선택하고	-12.1052
▁공고	-12.1054
▁기와	-12.1055
▁reservations	-12.1059
▁강조한	-12.106
4000	-12.1064
erior	-12.1065
법의	-12.1067
폴리	-12.1067
▁들어오는	-12.1067
이었고	-12.1072
미한	-12.1078
▁compete	-12.1079
▁잡지에	-12.1079
▁금이	-12.1081
▁풀이	-12.1082
fund	-12.1083
▁보아	-12.1084
▁반응에서	-12.1087
▁재촉하	-12.1087
다운	-12.109
▁선도	-12.1091
▁맺으	-12.1094
오는	-12.1094
개까지	-12.1095
▁죄송해	-12.1097
▁기업에서	-12.1099
렸는데	-12.11
갈래	-12.11
▁코스는	-12.1103
▁lines	-12.1109
ID	-12.1114
▁안방	-12.1114
▁맛보	-12.1117
▁확장하기	-12.1119
▁Seo	-12.1119
▁간단해	-12.1124
▁배정	-12.1128
셨죠	-12.113
▁인명	-12.1135
났다고	-12.1138
▁체크해	-12.1138
도마	-12.114
셨네	-12.1142
▁앉으	-12.1143
▁부서에서	-12.1149
▁Act	-12.1151
▁사기	-12.1154
▁차에서	-12.1157
▁주문시	-12.116
▁미만	-12.1164
스란	-12.1165
▁애견	-12.1167
▁이사들	-12.1169
도와드릴게요	-12.1171
소한	-12.1172
놨네	-12.1174
이거나	-12.1175
net	-12.1177
65,000	-12.1182
올린	-12.1182
천년	-12.1182
▁착용자	-12.1188
▁해보고	-12.119
▁결정되	-12.119
▁배제	-12.1194
▁싱	-12.1195
으시죠	-12.1196
▁보내주시는	-12.1197
gi	-12.1202
AP	-12.1204
▁상품권	-12.1205
간에	-12.1207
▁사서	-12.1213
▁자료로	-12.1214
르면	-12.1223
▁공간으로	-12.123
▁분들과	-12.124
▁주방에	-12.1242
▁멀지	-12.1242
▁리포	-12.1247
기금	-12.1254
포라	-12.1258
▁노래는	-12.1258
식이	-12.1259
▁진행되기	-12.1261
▁주의하	-12.1264
▁위험이	-12.1269
▁워시	-12.1276
▁있냐고	-12.1291
▁그러지	-12.1293
되죠	-12.1293
13	-12.1297
▁드시던	-12.1304
▁아니라서	-12.1305
▁안정화	-12.1305
▁가득하	-12.1311
▁잘하지	-12.1312
▁투입되	-12.1314
▁적지	-12.1323
음으로	-12.1334
하신다	-12.1338
▁분과	-12.1339
12	-12.1344
▁결정한	-12.1347
▁설치했다	-12.1351
▁DB	-12.1352
▁생각했	-12.1358
▁기계로	-12.1362
▁규정에	-12.1363
▁li	-12.1363
▁업무용	-12.1364
▁먹지	-12.1367
저를	-12.1368
▁dim	-12.137
인실	-12.1376
▁휴대성	-12.1378
경에	-12.1379
ji	-12.1379
측정	-12.1385
▁La	-12.139
▁기사님께	-12.1397
▁속에서	-12.1405
▁끝냈	-12.1406
▁찾으려	-12.1407
▁포장지	-12.1421
▁thr	-12.1423
arch	-12.1431
▁되돌	-12.1431
▁연구에서	-12.1431
▁들었나	-12.144
▁일기	-12.1442
하더라구요	-12.1445
▁봉	-12.1458
▁맺기	-12.146
▁과정에	-12.1464
▁원희	-12.1464
시라고	-12.1467
▁본인들	-12.1468
▁봐주시	-12.1472
▁팀장님께	-12.1473
▁확정되	-12.1477
드는데	-12.1478
▁싶어지	-12.148
이잖아	-12.1487
▁추천해주	-12.1491
세이	-12.1493
▁무지	-12.1493
플릿	-12.1496
▁4-	-12.1497
▁대단하시	-12.1501
val	-12.1502
▁secur	-12.1503
▁수술에	-12.1503
▁고발	-12.1504
▁들어갈게	-12.1508
▁Mode	-12.1514
▁만들어졌다	-12.1515
▁이씨	-12.1516
▁박스에	-12.1522
▁확대되	-12.1523
▁사자	-12.1524
▁아실	-12.1528
▁시장으로	-12.153
▁impr	-12.1538
▁차원	-12.1539
▁Koreans	-12.1544
줘서	-12.1545
▁의리	-12.1545
원이며	-12.1547
이어야	-12.1553
▁여유롭	-12.1554
파리	-12.1555
▁좋아하거든	-12.1558
▁사명	-12.1565
집에서	-12.1568
▁그때도	-12.1568
리시	-12.1568
▁받으시	-12.1576
▁fi	-12.158
▁많기	-12.158
▁답답하	-12.1582
▁가능하지	-12.1587
▁이동성	-12.1595
▁장가	-12.16
▁상황실	-12.1601
▁항목들	-12.1601
봤는데	-12.1606
▁인용	-12.1607
▁트렉	-12.1612
▁두부	-12.1618
▁살다	-12.1618
말하면	-12.1621
나갈	-12.1622
▁점에서	-12.1622
▁깨졌	-12.1626
▁utiliz	-12.1627
▁기회로	-12.1636
▁동봉해	-12.1639
▁pi	-12.1642
나간	-12.1643
▁믿으	-12.1652
91	-12.1654
볼까	-12.1668
공이	-12.1673
▁남겨주	-12.1673
▁관계에서	-12.1683
nts	-12.1686
▁제품이기	-12.169
부는	-12.1693
▁물론이지	-12.1703
▁번창	-12.1705
▁noted	-12.1707
▁지분	-12.1708
▁배달이	-12.1713
▁var	-12.1729
▁흐르	-12.173
업자	-12.1735
▁바쁘시	-12.1736
식당	-12.175
▁타기	-12.1755
▁센터가	-12.1762
가야죠	-12.1766
▁아니냐	-12.1775
ane	-12.1776
▁키웠	-12.1778
하시네요	-12.1782
금이	-12.1783
▁당사자	-12.1788
졌으며	-12.1789
▁닭강정	-12.179
▁마신	-12.179
입하	-12.1791
▁197	-12.1794
rash	-12.1802
▁오늘만	-12.1803
▁시작되는	-12.1809
▁아트	-12.1812
▁것들의	-12.1814
ari	-12.1817
용지	-12.1819
▁보이는데	-12.182
▁살기	-12.1835
▁충격에	-12.1838
▁나왔는데	-12.184
▁계셨	-12.1842
▁유의하시	-12.1847
리즈	-12.1854
▁출고되	-12.1854
▁시절이	-12.1863
▁Ga	-12.1869
▁살아가	-12.1874
▁먹어봤어	-12.1877
▁억	-12.1877
▁해지	-12.1886
했다면	-12.1888
▁방한	-12.1891
▁상이	-12.1896
50,000	-12.1901
▁유용하	-12.1903
▁먹으려	-12.1913
▁걱정하시	-12.1926
▁정확성	-12.1932
시더라고요	-12.1957
해두	-12.1962
▁관련성	-12.1966
asy	-12.1973
기야	-12.1977
▁빈번	-12.1979
▁fem	-12.1985
인상	-12.1998
▁많았어	-12.2008
▁고민하	-12.2012
▁ok	-12.2017
공학	-12.2018
▁열이	-12.2023
▁견고하	-12.2033
어갈	-12.2038
▁유명하다	-12.2043
물질로	-12.2054
라니까	-12.2061
▁영하	-12.2065
99	-12.2072
▁우회	-12.2074
▁제격	-12.2083
▁se	-12.209
▁퇴원	-12.209
▁이길	-12.2101
▁데이터베이스	-12.2107
▁일식	-12.2108
했으니까	-12.2112
▁부러	-12.2119
▁들어간다	-12.2122
FC	-12.2125
▁보다가	-12.2126
▁정확도	-12.2128
▁어렵고	-12.2129
▁안해	-12.2133
processing	-12.2134
▁냅	-12.2137
으리라	-12.2145
가능합니다	-12.2148
▁확인서	-12.2153
▁감안해	-12.2165
▁진출에	-12.2165
▁표시해	-12.2167
주십시요	-12.2194
▁일이라	-12.2199
▁링	-12.22
▁못지	-12.2201
▁생기셨	-12.2204
▁독점적	-12.2212
▁입었	-12.2212
셨으니	-12.2217
▁yo	-12.2223
▁맞으신	-12.223
▁팩에	-12.2236
하던가요	-12.2238
온을	-12.2239
렸어요	-12.2243
급으로	-12.2249
▁저기가	-12.2253
ins	-12.2254
89	-12.2262
▁그분이	-12.2262
▁품질입니다	-12.2265
▁심혈	-12.2282
▁재미있어	-12.2288
폭탄	-12.2297
봐라	-12.2299
그라	-12.2301
▁통지	-12.2309
러져	-12.2313
업체입니다	-12.2318
ety	-12.2324
▁치명적	-12.2329
▁산업이	-12.233
▁엄마들	-12.2336
pm	-12.2342
▁생소하	-12.2349
▁계약과	-12.2353
▁멋있는	-12.2353
▁허용	-12.2357
▁작동시키	-12.236
efore	-12.2366
▁DI	-12.2367
ast	-12.239
▁$8,	-12.2391
▁설정에	-12.24
▁앞쪽	-12.2408
▁소진	-12.2413
▁갈라	-12.2425
놓으면	-12.2429
▁일이기	-12.243
▁힘들다	-12.2435
되었지만	-12.2436
▁진행하	-12.2437
기기로	-12.2459
▁건설에	-12.246
▁보존	-12.2463
▁수평	-12.2468
▁FT	-12.2479
르기	-12.2488
사이트	-12.2488
▁tie	-12.2491
▁어려우	-12.2493
pita	-12.2496
시고요	-12.2509
데이	-12.2511
▁이용한	-12.2513
▁col	-12.2529
▁sk	-12.253
▁hir	-12.2542
ator	-12.2546
▁보존하	-12.2548
▁주임	-12.2553
일정	-12.2554
▁prior	-12.2557
00,000	-12.2568
대역	-12.2576
zz	-12.258
▁발송될	-12.2582
▁받으셨	-12.2584
▁비율이	-12.2608
▁좋겠고	-12.2611
ition	-12.2615
▁조정하려	-12.2616
▁시야에	-12.2616
all	-12.2621
건이	-12.2623
[...]
