<unk>	0
<s>	0
</s>	0
.	-2.69267
,	-3.35785
▁the	-3.45724
s	-3.70401
▁to	-3.81877
'	-3.8949
▁I	-3.8973
▁a	-3.99527
▁you	-4.00986
▁and	-4.2694
▁is	-4.35483
▁of	-4.38345
▁it	-4.39363
▁in	-4.6901
?	-4.69525
▁for	-4.74121
▁that	-4.84594
▁	-4.96077
ing	-5.01363
▁can	-5.0525
▁with	-5.13477
-	-5.14716
t	-5.17627
▁are	-5.17648
▁have	-5.18007
▁be	-5.18826
▁It	-5.21642
▁your	-5.22801
▁we	-5.24995
▁will	-5.30277
▁this	-5.31237
▁The	-5.39077
▁We	-5.49792
m	-5.50297
▁our	-5.5371
▁on	-5.54617
▁so	-5.69077
ed	-5.73669
▁like	-5.74073
▁as	-5.79066
▁me	-5.80807
▁product	-5.85345
▁You	-5.88957
d	-5.91855
▁company	-5.93118
▁time	-5.9575
n	-5.95997
▁was	-5.97723
▁not	-5.99073
▁at	-5.99075
▁from	-5.99547
▁an	-6.05744
▁If	-6.06975
▁about	-6.09961
▁by	-6.10433
▁if	-6.12629
▁but	-6.13006
▁do	-6.14301
ll	-6.14354
▁has	-6.17855
▁there	-6.18047
▁Yes	-6.1947
▁my	-6.19883
▁also	-6.20182
▁This	-6.2134
▁know	-6.22786
▁right	-6.25226
▁would	-6.26891
▁think	-6.2929
▁all	-6.32324
▁good	-6.35999
▁BBB	-6.37529
▁products	-6.39489
▁us	-6.42504
▁more	-6.43802
!	-6.44066
re	-6.45454
▁want	-6.45625
▁one	-6.46289
▁please	-6.47307
▁or	-6.47788
▁AAA	-6.54716
▁contact	-6.55305
▁FFF	-6.55467
▁What	-6.58171
▁Oh	-6.58173
ly	-6.58719
e	-6.59475
y	-6.6024
▁because	-6.60337
▁out	-6.61175
▁don	-6.61182
▁That	-6.61438
very	-6.62331
▁when	-6.62417
▁Please	-6.64978
▁use	-6.65098
▁get	-6.65311
▁been	-6.66877
▁make	-6.70087
▁any	-6.7253
▁order	-6.74847
▁So	-6.74886
▁And	-6.76467
▁up	-6.77022
▁new	-6.77983
▁There	-6.78321
▁send	-6.78847
▁really	-6.84086
▁now	-6.84262
▁In	-6.84725
▁go	-6.84998
▁first	-6.86051
▁what	-6.88083
▁need	-6.88469
al	-6.89074
▁But	-6.89978
▁other	-6.90138
ve	-6.90972
▁much	-6.91453
▁did	-6.92759
▁price	-6.96106
▁well	-6.97242
▁Thank	-6.97256
▁who	-6.97362
▁work	-6.97745
▁take	-6.99185
▁just	-7.00144
▁two	-7.00377
▁business	-7.00555
▁No	-7.0089
▁Our	-7.01081
▁no	-7.01784
▁were	-7.02001
▁here	-7.02879
▁A	-7.03061
▁they	-7.03233
▁too	-7.03432
▁how	-7.03979
▁made	-7.04933
▁possible	-7.06388
▁lot	-7.076
▁see	-7.0801
▁only	-7.08021
r	-7.08321
▁people	-7.08899
▁should	-7.09164
▁check	-7.10743
▁let	-7.11234
▁than	-7.11453
▁look	-7.12073
▁going	-7.12089
▁meeting	-7.13949
▁am	-7.16407
▁them	-7.1662
▁after	-7.18213
▁Korea	-7.19641
▁used	-7.1993
▁How	-7.22188
▁next	-7.22487
▁help	-7.2256
▁long	-7.22735
▁he	-7.22838
▁He	-7.24558
▁many	-7.24565
▁week	-7.24804
▁Then	-7.25609
▁last	-7.2882
▁again	-7.29106
▁high	-7.29331
▁customers	-7.31133
1	-7.31323
▁soon	-7.32303
▁day	-7.33783
▁However	-7.33902
▁through	-7.34211
▁three	-7.35529
▁hope	-7.35541
▁As	-7.35578
▁give	-7.35933
▁Do	-7.36602
▁Wow	-7.37203
~	-7.38218
▁come	-7.39619
▁such	-7.39937
▁even	-7.40649
▁some	-7.40655
▁team	-7.40772
▁does	-7.40824
er	-7.41354
▁contract	-7.42464
▁won	-7.43849
▁email	-7.44209
▁could	-7.44547
▁Hello	-7.45275
▁days	-7.4544
th	-7.46114
▁ask	-7.46238
▁introduce	-7.4649
▁delivery	-7.46811
▁Can	-7.47571
▁feel	-7.48559
▁year	-7.49321
▁before	-7.49772
out	-7.50424
▁which	-7.51305
▁problem	-7.51606
▁service	-7.52815
ous	-7.52966
▁place	-7.53353
▁information	-7.54073
▁food	-7.54875
▁may	-7.55301
▁way	-7.5534
able	-7.55485
▁today	-7.56256
▁number	-7.56528
▁buy	-7.56552
es	-7.58021
▁Korean	-7.58596
▁Hey	-7.58749
2	-7.60411
▁over	-7.6081
▁said	-7.61088
▁tell	-7.61522
▁They	-7.61911
▁free	-7.6193
▁little	-7.61948
▁When	-7.61959
▁best	-7.62369
▁10	-7.63503
▁Let	-7.64149
▁questions	-7.64334
▁sorry	-7.6459
▁person	-7.64953
▁using	-7.65054
▁their	-7.65454
▁why	-7.65913
se	-7.66689
▁looking	-7.67512
▁technology	-7.68186
▁back	-7.68204
▁3	-7.6831
▁design	-7.70497
▁thank	-7.70762
▁quality	-7.71146
▁these	-7.71217
▁where	-7.71512
▁provide	-7.7157
▁years	-7.71638
▁put	-7.71936
▁pay	-7.722
▁different	-7.7227
▁Why	-7.72412
▁same	-7.72925
...	-7.74048
▁away	-7.74069
▁e	-7.74576
▁eat	-7.74648
▁water	-7.74721
▁hard	-7.76264
▁had	-7.76352
▁sent	-7.7683
▁1	-7.76854
▁First	-7.77327
▁easy	-7.77327
▁visit	-7.78004
▁purchase	-7.80123
▁each	-7.80929
▁home	-7.81064
▁schedule	-7.81168
▁Are	-7.81261
▁Okay	-7.8144
▁receive	-7.81521
▁ordered	-7.81849
▁most	-7.81997
p	-7.82108
▁reply	-7.82326
▁vari	-7.82658
▁un	-7.82758
a	-7.83499
▁into	-7.83921
▁while	-7.84125
▁For	-7.84133
▁course	-7.8436
▁market	-7.84794
due	-7.85224
▁customer	-7.855
▁great	-7.85525
▁month	-7.85937
▁say	-7.88223
▁2	-7.88482
▁companies	-7.88508
▁must	-7.89075
▁5	-7.892
▁set	-7.89447
▁received	-7.89456
▁system	-7.89487
▁then	-7.89806
▁sales	-7.90085
▁data	-7.90213
▁sure	-7.90221
▁forward	-7.90253
▁meet	-7.91285
▁large	-7.91945
▁amount	-7.92579
▁store	-7.92753
▁C	-7.92951
▁something	-7.93121
▁payment	-7.93646
▁kind	-7.93653
▁down	-7.93744
▁still	-7.94307
▁find	-7.94307
▁sell	-7.9529
▁Ah	-7.9548
▁better	-7.96725
▁cost	-7.96749
▁My	-7.96787
▁heard	-7.9687
in	-7.97779
ion	-7.97948
▁okay	-7.97955
▁change	-7.98357
▁addition	-7.98898
▁always	-7.99231
▁skin	-7.99844
refore	-7.99913
▁date	-8.00478
▁together	-8.00479
▁room	-8.00623
▁All	-8.0106
▁available	-8.01182
▁process	-8.01418
▁charge	-8.01432
▁understand	-8.01716
▁around	-8.01879
▁color	-8.02232
▁difficult	-8.02232
mail	-8.04258
▁research	-8.04262
▁working	-8.04295
▁Also	-8.04347
▁overseas	-8.04347
▁production	-8.04652
c	-8.04734
▁him	-8.05072
▁small	-8.05613
▁already	-8.05676
▁P	-8.05757
g	-8.07092
▁doing	-8.07525
▁future	-8.07704
▁important	-8.07705
▁restaurant	-8.08003
▁quickly	-8.08444
▁try	-8.09103
▁care	-8.09265
▁situation	-8.10106
▁keep	-8.10124
▁discount	-8.10471
▁hotel	-8.10476
▁within	-8.11147
▁those	-8.11175
▁name	-8.11176
▁house	-8.11611
o	-8.11723
ting	-8.11928
▁currently	-8.11953
▁\\\	-8.12472
▁hair	-8.12598
▁Because	-8.12599
▁Good	-8.13319
▁she	-8.13809
▁advance	-8.14104
▁start	-8.14314
▁S	-8.14424
▁body	-8.14817
▁taste	-8.15407
▁size	-8.15476
▁website	-8.15509
▁services	-8.15623
▁things	-8.15681
▁case	-8.16057
▁manager	-8.16303
▁every	-8.16474
▁end	-8.1701
▁Your	-8.17101
▁E	-8.17258
▁p	-8.1765
▁world	-8.18506
▁To	-8.1904
▁office	-8.19108
▁yet	-8.19268
▁inform	-8.19334
▁additional	-8.1964
▁seem	-8.19747
▁real	-8.19804
▁off	-8.20544
▁part	-8.20645
▁car	-8.20661
▁special	-8.20718
▁4	-8.20942
▁clean	-8.21084
le	-8.21572
▁between	-8.21594
▁materials	-8.2209
▁both	-8.22249
▁Did	-8.22384
▁Now	-8.22442
▁per	-8.2248
▁experience	-8.22901
l	-8.22943
▁got	-8.23038
▁since	-8.23806
▁answer	-8.24073
▁show	-8.24765
▁money	-8.24782
▁Dea	-8.25138
▁dur	-8.26403
▁making	-8.26441
▁deliver	-8.26771
▁offer	-8.27244
▁Of	-8.27247
▁life	-8.27263
▁interested	-8.27477
▁call	-8.27991
▁easily	-8.28074
▁enjoy	-8.28914
▁fit	-8.2892
▁T	-8.2895
▁reservation	-8.28963
▁came	-8.29065
ation	-8.29676
▁equipment	-8.29762
▁Since	-8.29762
\\\	-8.29788
▁online	-8.29837
▁details	-8.30322
▁event	-8.30362
▁total	-8.30521
▁anything	-8.30618
▁nice	-8.31332
▁OK	-8.31481
▁project	-8.31553
▁sample	-8.31635
ble	-8.31856
▁bit	-8.32174
▁own	-8.32268
or	-8.32921
▁support	-8.3308
▁attached	-8.33338
▁refund	-8.33763
▁She	-8.34205
▁once	-8.34335
▁plan	-8.34348
▁request	-8.34892
▁done	-8.34953
▁another	-8.35003
▁enough	-8.35003
▁insurance	-8.35003
▁power	-8.35042
▁Mr	-8.35073
▁B	-8.3542
ic	-8.35709
▁comfortable	-8.35929
i	-8.36753
▁provides	-8.36925
▁detail	-8.37127
▁few	-8.37732
▁ago	-8.38
▁material	-8.3807
▁delivered	-8.38095
▁allow	-8.38384
▁big	-8.38649
▁soft	-8.387
til	-8.38817
▁book	-8.39144
▁talk	-8.3953
▁open	-8.39872
▁tomorrow	-8.40534
▁far	-8.40923
▁video	-8.40938
▁After	-8.41487
▁performance	-8.41525
▁her	-8.42119
st	-8.42766
▁being	-8.42868
▁side	-8.43049
▁trip	-8.43277
▁appreciate	-8.43421
▁excellent	-8.43447
less	-8.4355
▁recommend	-8.44045
▁thought	-8.44094
▁contain	-8.44324
▁his	-8.44921
▁never	-8.4539
▁continue	-8.45853
▁quantity	-8.4639
▁become	-8.4646
▁One	-8.4648
▁mean	-8.46597
▁increase	-8.46681
▁according	-8.47272
▁found	-8.47374
▁choose	-8.474
▁happy	-8.474
▁rice	-8.474
▁wait	-8.4775
▁space	-8.47984
▁love	-8.483
▁With	-8.48431
▁wear	-8.48609
▁ingredients	-8.48844
▁phone	-8.4905
k	-8.49437
▁released	-8.49543
▁control	-8.49647
am	-8.49754
▁area	-8.50166
▁Even	-8.50493
▁software	-8.50495
▁sir	-8.50498
▁management	-8.50503
▁coming	-8.50693
on	-8.50769
▁center	-8.5114
▁function	-8.51147
▁20	-8.5141
▁department	-8.51547
▁top	-8.52573
▁fabric	-8.52609
▁everything	-8.5261
▁four	-8.52611
▁hours	-8.53159
▁discuss	-8.5331
▁proposal	-8.5369
▁air	-8.54332
▁waiting	-8.54395
▁machine	-8.54501
▁natural	-8.5464
▁thing	-8.5473
▁children	-8.54771
▁light	-8.54927
▁developed	-8.55
▁R	-8.55101
▁second	-8.55616
▁6	-8.55743
▁apologize	-8.5587
▁development	-8.55881
▁wanted	-8.56298
▁items	-8.56383
▁review	-8.564
ers	-8.56479
▁30	-8.56582
1,	-8.56636
▁result	-8.56772
▁face	-8.56788
▁proceed	-8.56981
▁cooperation	-8.56987
▁minutes	-8.57303
▁add	-8.57867
▁wholesale	-8.57997
▁low	-8.5808
▁planning	-8.58107
▁interest	-8.58239
b	-8.58522
en	-8.5868
ight	-8.58742
▁produce	-8.58981
▁m	-8.59016
▁left	-8.59241
u	-8.59571
,000	-8.59655
▁Don	-8.59765
▁needs	-8.5996
▁brand	-8.60232
▁strong	-8.60349
▁particular	-8.60391
▁worry	-8.60391
▁exist	-8.60413
▁later	-8.60441
▁close	-8.61041
▁live	-8.61339
▁morning	-8.61553
▁head	-8.61647
▁M	-8.61944
▁stock	-8.62264
▁designed	-8.62358
▁colors	-8.62451
▁health	-8.6259
▁yesterday	-8.6273
▁dollars	-8.62893
▁requested	-8.63157
▁hear	-8.63562
▁stay	-8.63587
▁popular	-8.63905
▁five	-8.63926
▁told	-8.63932
based	-8.6449
▁actually	-8.6515
▁100	-8.6519
3	-8.65314
▁oil	-8.66204
▁reason	-8.66232
min	-8.66292
▁wrong	-8.66345
▁address	-8.66345
▁point	-8.66422
▁card	-8.66762
▁red	-8.66868
00	-8.66974
▁perfect	-8.67439
▁turn	-8.67571
▁country	-8.67575
▁under	-8.67577
▁black	-8.67579
▁explain	-8.67579
▁content	-8.67619
ther	-8.68182
▁prepare	-8.68607
▁asked	-8.68675
▁supply	-8.68829
▁related	-8.69061
▁hand	-8.69201
w	-8.69371
ted	-8.69906
▁job	-8.70095
▁share	-8.70129
▁deal	-8.70163
▁list	-8.71006
▁re	-8.71023
▁delicious	-8.71231
▁inventory	-8.71377
▁model	-8.71513
▁ship	-8.71617
▁Ji	-8.71645
est	-8.71857
▁fee	-8.71912
▁sold	-8.72678
▁floor	-8.72681
▁cannot	-8.72755
▁decided	-8.72872
▁months	-8.73235
▁line	-8.7394
▁front	-8.73992
▁temperature	-8.73992
▁leave	-8.7417
▁called	-8.74504
▁variet	-8.75325
▁suitable	-8.75347
▁electric	-8.75354
▁problems	-8.75625
▁F	-8.76015
▁account	-8.76184
▁create	-8.76486
▁short	-8.7658
▁mistake	-8.76676
▁pretty	-8.76676
▁Just	-8.76679
▁family	-8.7671
▁expected	-8.76878
▁bring	-8.7695
▁device	-8.76968
▁checked	-8.77016
▁8	-8.77232
▁trust	-8.77731
▁Hi	-8.7788
▁main	-8.77936
▁immediately	-8.78051
▁usually	-8.7807
▁quit	-8.78214
▁soup	-8.78363
▁game	-8.78413
▁D	-8.78498
▁building	-8.78649
▁file	-8.78673
▁return	-8.79102
▁delay	-8.79109
▁safe	-8.79225
▁full	-8.79298
▁cold	-8.79386
▁industry	-8.79435
▁simple	-8.79435
▁believe	-8.79436
▁everyone	-8.7945
▁fine	-8.79491
▁employees	-8.79525
▁hot	-8.79546
▁marketing	-8.79755
▁hold	-8.80079
▁prevent	-8.80101
▁test	-8.80143
▁includ	-8.80334
to	-8.80424
▁less	-8.80453
▁run	-8.8084
▁steel	-8.80844
ity	-8.80868
▁factory	-8.80871
▁old	-8.80947
▁mail	-8.80956
▁meat	-8.81018
▁results	-8.81109
D	-8.81157
▁sign	-8.81158
▁15	-8.81569
▁adjust	-8.81886
▁current	-8.8214
▁mind	-8.82271
▁smart	-8.82272
▁opportunity	-8.82272
▁saw	-8.82274
▁battery	-8.82275
▁comes	-8.82285
▁By	-8.82477
▁conditions	-8.82588
▁program	-8.82692
▁recommended	-8.82748
▁types	-8.83232
▁times	-8.83267
▁consider	-8.83344
▁devices	-8.83413
ment	-8.83537
▁inconvenience	-8.83721
▁Yeah	-8.83722
▁directly	-8.83747
▁applied	-8.83751
▁non	-8.83787
▁speed	-8.83862
▁separate	-8.8405
▁prepared	-8.8415
▁play	-8.8415
▁sound	-8.84267
▁type	-8.84408
▁local	-8.84464
▁apply	-8.84634
▁Go	-8.84684
4	-8.85085
▁taking	-8.85192
▁international	-8.85194
▁yes	-8.85196
▁shipping	-8.85197
▁security	-8.85199
▁presentation	-8.85215
ar	-8.85293
▁arrive	-8.85398
▁export	-8.85652
▁computer	-8.85684
ri	-8.85702
▁cool	-8.85819
up	-8.85905
▁Se	-8.85975
▁manage	-8.86363
▁having	-8.86685
▁similar	-8.86685
▁construction	-8.86688
▁safety	-8.86689
▁Really	-8.86705
▁depend	-8.86777
▁move	-8.86882
▁Well	-8.86945
▁matter	-8.87202
▁watch	-8.87231
▁camera	-8.87234
▁tea	-8.87578
um	-8.87708
▁50	-8.87904
▁ma	-8.87929
ce	-8.87945
▁rate	-8.88049
▁period	-8.882
▁energy	-8.88203
▁weeks	-8.88367
▁completed	-8.88441
▁inside	-8.88502
▁develop	-8.89015
▁ga	-8.89062
▁fast	-8.89684
▁exchange	-8.89738
▁remember	-8.89738
▁Huh	-8.89739
▁million	-8.89741
▁latest	-8.89766
▁ready	-8.89872
▁relationship	-8.90328
h	-8.9054
▁whe	-8.9086
▁wide	-8.91144
▁convenient	-8.91155
▁box	-8.91296
▁demand	-8.91301
▁located	-8.91307
▁built	-8.91318
▁solve	-8.91481
▁W	-8.91597
▁read	-8.91704
▁goes	-8.91731
▁changed	-8.91989
O	-8.91999
▁fun	-8.92581
▁famous	-8.92888
▁response	-8.92888
▁Look	-8.92891
▁attention	-8.92907
▁Right	-8.92916
▁accept	-8.92917
▁On	-8.92979
▁saying	-8.93189
su	-8.93234
I	-8.93336
▁Here	-8.93757
li	-8.939
▁provided	-8.93994
▁catalog	-8.94501
▁moment	-8.94507
▁necessary	-8.94513
▁busy	-8.94544
▁went	-8.94747
▁looks	-8.94808
v	-8.95265
▁method	-8.95266
▁form	-8.95832
▁sever	-8.95836
▁Fro	-8.96084
▁protect	-8.96106
▁regard	-8.9614
▁equipped	-8.96141
▁Once	-8.9616
▁headquarters	-8.96204
▁orders	-8.96546
▁app	-8.96763
▁question	-8.97038
▁unit	-8.97057
▁item	-8.97088
▁wonder	-8.97102
▁remove	-8.97173
▁features	-8.97361
ent	-8.97452
▁L	-8.97558
▁quick	-8.97669
▁coffee	-8.97807
▁else	-8.97807
▁table	-8.9802
▁estimate	-8.98217
▁basic	-8.98434
▁issue	-8.9845
▁pro	-8.98468
▁means	-8.98523
dical	-8.98691
▁maintain	-8.99165
▁damage	-8.99238
▁handle	-8.99253
▁difference	-8.99502
▁range	-8.99502
▁K	-8.99504
▁treatment	-8.99507
▁white	-8.99518
▁rest	-8.99566
▁recently	-8.99581
▁parts	-8.99737
▁included	-9.00084
it	-9.00334
▁picture	-9.00486
▁study	-9.00542
▁refer	-9.00605
▁deposit	-9.0089
▁reduce	-9.01069
▁O	-9.01169
▁express	-9.01191
▁supplies	-9.01226
▁understanding	-9.01298
▁bad	-9.013
▁lower	-9.01319
▁Have	-9.01339
▁night	-9.01453
▁cut	-9.0204
raw	-9.02978
▁financial	-9.0298
▁Kim	-9.02984
ul	-9.02999
▁spicy	-9.02999
▁Come	-9.03003
▁confirmed	-9.03133
▁fact	-9.03167
▁among	-9.03542
▁season	-9.03735
▁often	-9.0387
▁idea	-9.04052
▁field	-9.04078
S	-9.04183
▁past	-9.04572
▁cancel	-9.04658
▁trying	-9.04708
▁public	-9.04714
jin	-9.0472
▁According	-9.04766
▁countries	-9.04766
▁location	-9.04766
▁staff	-9.04766
▁global	-9.04767
▁stain	-9.04773
▁credit	-9.04797
▁tried	-9.04825
▁Not	-9.05025
il	-9.05487
f	-9.05525
▁started	-9.05575
▁G	-9.05752
▁U	-9.05804
▁warehouse	-9.0589
▁filter	-9.05914
▁application	-9.05936
▁style	-9.05983
▁hands	-9.06145
▁thinking	-9.06256
▁package	-9.06301
▁seat	-9.06468
1.	-9.06469
▁Who	-9.06516
▁invoice	-9.06584
▁further	-9.0659
▁professional	-9.0659
▁Today	-9.06594
▁leader	-9.06671
0,000	-9.06915
▁V	-9.06973
▁weight	-9.07557
▁screen	-9.0772
▁menu	-9.07797
▁effect	-9.07823
▁Uni	-9.07952
▁compare	-9.08062
▁near	-9.08434
▁sauce	-9.08436
▁Currently	-9.0844
▁TV	-9.08446
▁Jae	-9.08449
▁yourself	-9.08462
▁sincerely	-9.08463
▁living	-9.0847
ach	-9.08477
▁At	-9.09113
2,	-9.09335
▁pick	-9.09346
▁H	-9.09838
▁minute	-9.09959
C	-9.0996
▁expensive	-9.10323
▁separately	-9.10504
▁machines	-9.10781
▁terms	-9.10788
▁de	-9.11044
▁added	-9.11072
▁rent	-9.11116
▁Be	-9.11242
friendly	-9.11508
▁Ha	-9.12006
▁comfort	-9.12191
▁worried	-9.12246
▁early	-9.12286
▁Seok	-9.12317
▁installed	-9.12465
ness	-9.12472
ur	-9.12474
▁dry	-9.13309
▁heart	-9.13361
▁o	-9.13547
▁attend	-9.13821
▁rooms	-9.13869
▁Or	-9.13935
▁clear	-9.14087
▁points	-9.14189
▁access	-9.14199
▁earlier	-9.14207
▁held	-9.14207
▁fair	-9.14209
▁clothes	-9.14214
▁Internet	-9.14215
▁someone	-9.14251
ch	-9.14323
▁higher	-9.14591
ter	-9.14756
▁environment	-9.15332
▁condition	-9.15475
an	-9.1555
▁bank	-9.15667
▁image	-9.15753
▁level	-9.15997
▁9	-9.16135
▁kitchen	-9.16207
▁chance	-9.16207
▁least	-9.16207
▁Seoul	-9.16208
▁Where	-9.16241
▁traditional	-9.16244
▁half	-9.16344
▁12	-9.16708
ever	-9.1685
us	-9.17243
▁improve	-9.1748
quality	-9.17542
▁touch	-9.17672
▁decide	-9.17992
▁site	-9.18006
▁wireless	-9.18108
▁unique	-9.18235
▁accommodation	-9.18248
▁increasing	-9.18248
▁promotion	-9.18248
▁purchasing	-9.18248
▁States	-9.18249
▁property	-9.1825
▁paid	-9.18254
▁Last	-9.18261
▁late	-9.18328
▁May	-9.18331
▁position	-9.18353
ta	-9.18375
▁man	-9.19276
G	-9.19574
▁view	-9.19581
T	-9.19695
%	-9.19948
▁original	-9.20196
▁careful	-9.20218
▁Me	-9.20284
el	-9.2031
▁chicken	-9.20331
▁guess	-9.20331
▁sweet	-9.20331
▁CEO	-9.20332
▁mobile	-9.20333
▁definitely	-9.20341
▁below	-9.20383
▁carefully	-9.20477
▁personal	-9.20653
▁documents	-9.21155
▁Un	-9.21187
▁scheduled	-9.21431
▁hearing	-9.21522
▁checking	-9.21574
ive	-9.21656
▁cover	-9.2177
▁news	-9.22038
▁final	-9.22065
▁gift	-9.22076
▁complete	-9.22112
▁bag	-9.22117
▁smell	-9.2212
▁cream	-9.22458
▁plastic	-9.22458
▁curious	-9.2246
▁wish	-9.22463
▁daily	-9.22475
▁completely	-9.22598
▁receiv	-9.22853
▁functions	-9.23146
▁500	-9.23235
▁f	-9.23529
▁connect	-9.24266
▁choice	-9.24272
▁platform	-9.24281
▁expect	-9.24304
▁Re	-9.24359
▁regular	-9.24487
ant	-9.24562
▁lead	-9.24568
▁present	-9.24599
▁participate	-9.24632
▁value	-9.24632
▁digital	-9.24633
▁representative	-9.24633
▁shipped	-9.24633
▁powder	-9.24656
▁heat	-9.24667
▁Some	-9.24727
▁drinks	-9.24741
▁healthy	-9.24887
▁hit	-9.24894
▁cooking	-9.25181
▁Man	-9.25438
▁standard	-9.25889
▁warm	-9.26159
▁talking	-9.26215
▁cleaning	-9.26536
▁vehicle	-9.26639
▁match	-9.26703
▁step	-9.26738
▁foreign	-9.26766
▁stand	-9.26771
▁multi	-9.26814
▁either	-9.26855
▁entire	-9.26855
▁voice	-9.26855
▁single	-9.26864
▁paper	-9.26959
▁almost	-9.26998
▁ball	-9.27043
ra	-9.27132
▁caused	-9.27214
▁Dong	-9.27405
ary	-9.2743
▁feet	-9.27845
▁took	-9.27886
▁hey	-9.27913
▁purchased	-9.28042
▁young	-9.28063
5	-9.28419
▁music	-9.28442
▁cause	-9.28632
▁operation	-9.28929
▁button	-9.28953
▁c	-9.28971
▁employee	-9.2898
te	-9.29017
▁branch	-9.2907
▁collect	-9.29118
▁domestic	-9.29118
▁Jong	-9.29125
▁guide	-9.29127
▁major	-9.29127
▁surface	-9.29127
▁South	-9.29128
▁general	-9.29128
▁bathroom	-9.29128
▁warranty	-9.29128
▁baby	-9.29128
▁pork	-9.29132
▁oh	-9.29144
2.	-9.29384
▁b	-9.29537
▁goods	-9.29619
▁w	-9.29651
▁washing	-9.29722
▁learning	-9.29745
▁meal	-9.29932
▁pre	-9.30129
▁developing	-9.30132
▁finish	-9.30413
▁needed	-9.30428
▁enter	-9.30448
▁drink	-9.30655
▁fish	-9.30949
▁launch	-9.31124
▁guarantee	-9.31173
▁investment	-9.31242
▁glass	-9.31397
▁costs	-9.31403
▁green	-9.3145
▁amazing	-9.31453
▁communication	-9.31453
▁school	-9.31453
▁storage	-9.31453
▁double	-9.31453
▁volume	-9.31453
▁Wait	-9.31457
▁transportation	-9.3146
▁eco	-9.31484
▁key	-9.31507
▁gain	-9.31508
▁includes	-9.3153
▁safely	-9.31688
▁delayed	-9.32003
▁Co	-9.32029
▁eating	-9.32349
▁co	-9.32475
A	-9.32594
▁report	-9.32641
▁grow	-9.32821
▁travel	-9.32898
▁prices	-9.33149
z	-9.33201
▁eyes	-9.33446
▁An	-9.33568
▁contents	-9.33758
▁transaction	-9.3378
▁specific	-9.33799
▁Friday	-9.33834
▁inquiry	-9.33834
▁promote	-9.33834
▁boss	-9.33834
▁nothing	-9.3384
seok	-9.33857
▁true	-9.33859
▁certain	-9.3386
▁100%	-9.3389
▁satisfied	-9.339
▁Sure	-9.33904
▁noodles	-9.34134
▁happened	-9.34138
▁produced	-9.34412
▁ice	-9.34451
▁increased	-9.34486
0	-9.34663
▁members	-9.35454
x	-9.35759
▁introduced	-9.3578
ful	-9.35816
ow	-9.35846
▁pack	-9.35861
▁deep	-9.36128
▁engine	-9.36152
▁include	-9.36255
▁correct	-9.36273
▁English	-9.36273
▁lose	-9.36273
▁moisture	-9.36273
▁electronic	-9.36274
▁giving	-9.36274
▁dinner	-9.36274
▁solution	-9.36282
▁partner	-9.3629
▁pressure	-9.36333
▁mentioned	-9.36376
▁owner	-9.36415
ies	-9.36642
▁Does	-9.36677
▁hospital	-9.36909
▁gas	-9.37002
▁N	-9.3751
▁learn	-9.3777
▁sleep	-9.38099
▁attach	-9.38436
▁require	-9.38482
▁raise	-9.38494
▁evening	-9.38576
▁risk	-9.38644
ma	-9.38673
▁New	-9.38759
▁fresh	-9.3877
▁China	-9.38773
▁heavy	-9.38773
▁estate	-9.38779
▁afternoon	-9.38783
▁dust	-9.38784
▁Lee	-9.38792
▁properly	-9.38835
▁sense	-9.38845
▁automatically	-9.38852
▁benefit	-9.38859
▁driving	-9.38927
▁writing	-9.39074
▁whole	-9.39076
age	-9.39093
▁along	-9.39179
cial	-9.39491
at	-9.3992
▁AI	-9.40126
▁reach	-9.40247
▁books	-9.40351
▁happen	-9.40378
▁focus	-9.4046
▁g	-9.40515
ji	-9.40751
be	-9.40854
ten	-9.40855
▁write	-9.41309
▁education	-9.41337
▁city	-9.41356
▁premium	-9.41384
▁outside	-9.41413
▁places	-9.41618
▁40	-9.41896
▁wash	-9.41976
8	-9.42176
lo	-9.42328
▁Thanks	-9.42861
▁fill	-9.42908
▁25	-9.43023
▁build	-9.43296
gi	-9.43343
▁though	-9.43399
▁follow	-9.43406
▁shape	-9.43408
ry	-9.43431
▁drive	-9.43871
▁December	-9.43969
▁boast	-9.43969
▁convenience	-9.43969
▁facilities	-9.43969
▁leather	-9.43969
▁subscription	-9.43969
▁Get	-9.4397
▁glad	-9.4397
▁rich	-9.43972
▁bought	-9.43975
▁noise	-9.43992
▁weather	-9.43998
▁shipment	-9.43999
▁Will	-9.44078
▁processing	-9.44108
▁human	-9.44123
po	-9.44366
▁fully	-9.4444
▁shoes	-9.44542
▁break	-9.44806
▁cook	-9.45177
▁24	-9.45791
like	-9.45973
ally	-9.46056
▁inquire	-9.46396
▁provid	-9.46542
▁success	-9.4666
▁consist	-9.46662
▁common	-9.46671
▁maintenance	-9.46671
▁reliable	-9.46677
▁wife	-9.46721
▁lunch	-9.46753
▁supplier	-9.46862
▁network	-9.46899
▁manufacturer	-9.46927
▁purpose	-9.47024
▁song	-9.47192
▁paint	-9.47762
▁200	-9.47802
ig	-9.47844
▁door	-9.47962
▁users	-9.48662
▁newly	-9.48734
▁monitor	-9.48761
one	-9.48781
ro	-9.4879
▁games	-9.48806
▁listen	-9.48807
▁press	-9.49167
▁changes	-9.49212
term	-9.49286
▁positive	-9.49304
▁exact	-9.49309
▁display	-9.49371
▁child	-9.49447
▁furniture	-9.49449
▁manufacturing	-9.49449
▁sensitive	-9.49449
▁vacation	-9.49449
▁middle	-9.4945
▁hurry	-9.49451
▁ground	-9.49452
▁mother	-9.49454
▁running	-9.49454
▁pants	-9.49458
hyo	-9.4946
▁COVID	-9.4946
▁i	-9.49462
▁Uh	-9.4947
▁suddenly	-9.49534
▁established	-9.49574
▁round	-9.49684
▁advantage	-9.49768
▁party	-9.50019
▁aware	-9.50074
▁signed	-9.50096
hi	-9.5035
▁opened	-9.50426
▁students	-9.50701
▁watching	-9.50712
▁units	-9.50785
time	-9.51298
▁carry	-9.51654
▁custom	-9.51698
▁install	-9.51935
ho	-9.52016
▁reserve	-9.52021
▁Ma	-9.52121
▁self	-9.52211
▁airport	-9.52306
▁bottom	-9.52306
▁capacity	-9.52306
▁kimchi	-9.52306
▁milk	-9.52306
▁mouth	-9.52306
▁packaging	-9.52306
▁search	-9.52306
▁uncomfortable	-9.52306
▁alone	-9.52308
▁Like	-9.52308
▁fire	-9.52308
▁anywhere	-9.52312
▁Would	-9.52312
▁ensure	-9.52343
▁mode	-9.52351
▁protection	-9.52367
▁organize	-9.52372
▁tired	-9.52392
▁exactly	-9.5245
▁Sir	-9.52511
▁apartment	-9.52659
▁improved	-9.52693
▁land	-9.52735
▁cable	-9.5276
▁eye	-9.52806
▁fix	-9.53365
▁option	-9.53683
me	-9.53701
▁win	-9.5395
▁friends	-9.54114
▁plans	-9.54478
P	-9.54566
man	-9.54661
▁calling	-9.54662
▁class	-9.54712
▁options	-9.54758
end	-9.54929
▁manual	-9.55101
▁stop	-9.5513
ha	-9.55174
▁partners	-9.55234
▁commercial	-9.55242
▁Monday	-9.55247
▁cotton	-9.55247
▁example	-9.55247
▁instead	-9.55247
▁charging	-9.55247
▁history	-9.55247
▁technologies	-9.55248
▁deadline	-9.5525
▁texture	-9.5525
▁spray	-9.55252
▁strength	-9.55261
▁save	-9.55276
▁connection	-9.55295
▁itself	-9.55344
▁anytime	-9.55375
▁camping	-9.5538
▁useful	-9.55407
▁state	-9.55525
ne	-9.55679
.\\\	-9.55683
▁letter	-9.55791
▁culture	-9.55907
light	-9.55968
▁created	-9.56003
▁consumers	-9.56272
ck	-9.57016
▁walk	-9.57592
▁boil	-9.57604
▁given	-9.57624
▁effective	-9.57864
M	-9.57945
▁18	-9.57948
▁replace	-9.57981
▁secure	-9.58014
▁invite	-9.58056
▁sit	-9.58081
▁ex	-9.58103
▁successful	-9.58146
▁recent	-9.58147
▁benefits	-9.58173
▁record	-9.58211
▁Unfortunately	-9.58278
▁blue	-9.58278
▁above	-9.58279
▁block	-9.58279
▁status	-9.58283
▁automatic	-9.58285
▁cloud	-9.5829
▁decision	-9.5829
▁durability	-9.58295
▁page	-9.58312
▁Take	-9.58335
▁manufactured	-9.58472
▁training	-9.58541
▁vehicles	-9.58574
▁dryer	-9.586
▁anti	-9.58604
sh	-9.58607
▁required	-9.58612
mi	-9.5875
▁language	-9.58814
▁arrived	-9.5886
▁helps	-9.59041
is	-9.59603
▁known	-9.59912
▁restaurants	-9.6002
hich	-9.60111
▁base	-9.60302
▁opening	-9.60499
9	-9.60668
year	-9.60752
▁samples	-9.60829
▁11	-9.61201
▁offers	-9.61317
▁Kwang	-9.61399
▁column	-9.61403
▁crazy	-9.61403
▁error	-9.61403
▁nervous	-9.61403
▁stew	-9.61403
▁rather	-9.61403
▁funny	-9.61403
▁modern	-9.61403
▁distribution	-9.61407
▁role	-9.61409
▁direction	-9.61416
▁director	-9.61419
▁reflect	-9.61425
▁trade	-9.61437
▁surprised	-9.61442
▁seen	-9.61542
▁passed	-9.61658
▁wind	-9.61692
▁mainly	-9.61726
▁board	-9.61779
▁learned	-9.61817
▁Due	-9.61837
▁fan	-9.61939
▁inspection	-9.62063
▁longer	-9.62066
L	-9.62073
▁movie	-9.62083
▁chair	-9.62083
▁pet	-9.62095
▁t	-9.62111
▁systems	-9.62285
▁Use	-9.62541
6	-9.62553
cm	-9.62634
▁dog	-9.62948
pe	-9.63133
B	-9.63473
▁expand	-9.6359
▁clients	-9.63632
▁brush	-9.6385
▁serve	-9.64272
ung	-9.64347
▁bulk	-9.64478
January	-9.64629
corporate	-9.64629
▁easier	-9.64629
▁lightweight	-9.64629
▁catalogue	-9.64629
▁rubber	-9.64629
▁loss	-9.64629
▁pepper	-9.64629
▁beef	-9.6463
▁properties	-9.6463
▁government	-9.64631
▁essential	-9.64631
▁foam	-9.64635
▁winter	-9.64641
▁Try	-9.6466
ance	-9.64687
▁age	-9.64697
▁Ok	-9.64721
▁source	-9.64723
▁hall	-9.64777
▁post	-9.64815
ir	-9.64878
la	-9.64927
▁ones	-9.65064
▁welcome	-9.65064
▁wine	-9.65093
▁internal	-9.65212
▁remain	-9.65408
▁sale	-9.65504
▁tastes	-9.65668
▁president	-9.65818
▁br	-9.65849
ie	-9.66132
0%	-9.66183
▁300	-9.66214
▁sea	-9.66245
▁feature	-9.66613
chan	-9.66829
▁invest	-9.66889
do	-9.67156
▁supports	-9.67216
▁feeling	-9.67285
rd	-9.67557
▁suggest	-9.67597
▁balance	-9.67677
▁di	-9.67678
▁individual	-9.67818
▁serious	-9.6782
▁slow	-9.67822
▁tax	-9.679
▁especially	-9.67962
▁switch	-9.67962
▁Everyone	-9.67964
▁flight	-9.67975
▁ten	-9.68035
▁10%	-9.68085
▁expenses	-9.68265
▁wholesaler	-9.68287
▁link	-9.68472
▁designs	-9.68484
▁damaged	-9.68525
de	-9.68646
ca	-9.68791
▁stage	-9.68816
▁message	-9.6882
▁group	-9.68852
▁effects	-9.69065
▁carbon	-9.69413
▁beans	-9.69564
▁willing	-9.69589
▁holding	-9.69601
▁dis	-9.69909
▁buying	-9.70179
▁transfer	-9.70553
▁speak	-9.70634
clock	-9.70648
▁men	-9.70665
co	-9.70929
▁agree	-9.71119
▁release	-9.71156
▁honest	-9.71262
▁salt	-9.71273
▁Chinese	-9.7141
▁Next	-9.7141
▁beautiful	-9.7141
▁exercise	-9.7141
▁gratitude	-9.7141
▁married	-9.7141
▁respond	-9.7141
▁teeth	-9.7141
▁physical	-9.7141
▁wall	-9.7141
▁innovative	-9.7141
▁copy	-9.71411
▁etc	-9.71412
▁extra	-9.71412
▁introduction	-9.71412
▁failure	-9.71412
▁exhibition	-9.71414
▁probab	-9.7142
▁massage	-9.71446
▁dishes	-9.71448
▁transactions	-9.71489
▁helpful	-9.71516
▁anyone	-9.71565
▁mission	-9.716
▁practice	-9.71706
▁requirements	-9.71723
▁limited	-9.71797
▁cars	-9.71892
ated	-9.72312
ization	-9.72396
▁wrap	-9.7244
▁client	-9.72488
▁bill	-9.7251
▁ever	-9.72563
▁suit	-9.7261
▁cell	-9.72636
▁areas	-9.72751
▁Min	-9.72883
▁issues	-9.73015
ng	-9.7308
▁opinions	-9.73157
▁ordering	-9.73928
▁target	-9.74259
ver	-9.74268
na	-9.74606
▁media	-9.74637
▁affect	-9.74645
▁19	-9.74766
▁previous	-9.74838
▁shop	-9.74977
▁Wednesday	-9.74981
▁blood	-9.74981
▁changing	-9.74981
▁explanation	-9.74981
▁husband	-9.74981
▁seminar	-9.74981
▁women	-9.74981
▁smartphone	-9.74982
▁lost	-9.74982
▁analysis	-9.74982
▁logistics	-9.74982
▁interior	-9.74982
▁hello	-9.74982
▁cushion	-9.74983
▁North	-9.74984
▁gold	-9.74988
▁Most	-9.75004
ecently	-9.7501
▁slightly	-9.75025
▁worn	-9.75035
▁growth	-9.75071
▁anyway	-9.75085
▁boxes	-9.75109
▁American	-9.75121
▁tour	-9.75123
free	-9.75152
▁height	-9.75221
▁mixed	-9.75243
▁selected	-9.75287
▁artificial	-9.75294
▁standards	-9.75368
▁import	-9.75408
▁art	-9.75463
▁workers	-9.75809
kg	-9.75878
▁following	-9.7591
▁monthly	-9.75913
▁bottle	-9.76108
▁region	-9.7612
▁robot	-9.76143
▁official	-9.76161
▁member	-9.76196
nce	-9.76284
▁structure	-9.76332
dong	-9.76541
un	-9.76626
▁th	-9.76983
▁cute	-9.77067
id	-9.77197
use	-9.77208
▁sounds	-9.7747
▁print	-9.77646
coming	-9.77675
▁bar	-9.77675
▁Asia	-9.77717
mm	-9.77795
▁dogs	-9.77842
▁join	-9.78106
▁confirm	-9.78335
R	-9.78382
▁thick	-9.78611
▁Should	-9.78685
▁abroad	-9.78685
▁atmosphere	-9.78685
▁behind	-9.78685
▁license	-9.78685
▁maximum	-9.78685
▁simply	-9.78685
▁throw	-9.78685
▁trouble	-9.78685
▁survey	-9.78685
▁grip	-9.78686
▁inquiries	-9.78686
▁nature	-9.78686
▁conference	-9.78686
▁cheese	-9.78686
▁Anyway	-9.78687
▁Before	-9.78687
▁chat	-9.78687
▁Nice	-9.78693
▁sensor	-9.78709
▁cheaper	-9.78721
▁stable	-9.7875
▁foot	-9.788
▁angle	-9.79012
per	-9.79064
▁d	-9.79133
▁sports	-9.79214
the	-9.79361
▁web	-9.79731
▁operate	-9.79788
▁st	-9.7986
E	-9.79922
▁accident	-9.79974
ah	-9.80017
▁scent	-9.80064
▁setting	-9.80183
▁16	-9.80231
▁paying	-9.80249
▁charged	-9.8031
▁bed	-9.80612
▁videos	-9.80876
bi	-9.81338
▁cells	-9.81339
ine	-9.81457
came	-9.81833
▁asking	-9.81873
▁met	-9.81895
▁select	-9.82167
▁smooth	-9.82323
▁urgent	-9.82386
▁normal	-9.82389
ized	-9.82423
eople	-9.82503
▁Japan	-9.82528
▁neck	-9.82529
▁certification	-9.82531
▁repair	-9.82531
▁beauty	-9.82531
▁moving	-9.82531
▁breakfast	-9.82533
▁Gwang	-9.82533
▁solid	-9.82534
▁wood	-9.82535
▁story	-9.82535
▁replacement	-9.8255
▁catch	-9.82551
▁waterproof	-9.82558
▁harm	-9.82575
ak	-9.82618
▁cancer	-9.82636
▁alcohol	-9.82644
▁teacher	-9.82659
▁agreement	-9.82662
▁smoothly	-9.82672
▁driver	-9.82717
▁finally	-9.82789
▁taken	-9.83084
▁closed	-9.83461
▁works	-9.83466
ling	-9.83833
▁says	-9.83838
▁patients	-9.83884
▁friend	-9.83901
▁chemical	-9.8399
▁cake	-9.84
▁lock	-9.84097
▁profit	-9.84147
▁signing	-9.84414
▁processed	-9.84554
ist	-9.84698
▁words	-9.84793
ate	-9.85487
ju	-9.85521
▁super	-9.85552
face	-9.8582
▁act	-9.85834
▁pass	-9.86181
▁postpone	-9.8625
he	-9.86269
▁text	-9.86522
hrough	-9.86522
▁LED	-9.86531
▁While	-9.86531
▁comfortably	-9.86531
▁fruit	-9.86531
▁twice	-9.86531
▁golf	-9.86532
▁sophisticated	-9.86532
▁luxurious	-9.86533
▁responsible	-9.86534
▁Jeju	-9.86535
▁summer	-9.86535
▁iron	-9.86537
▁six	-9.86537
▁nearby	-9.86538
▁stir	-9.86539
▁figure	-9.86542
▁master	-9.86546
▁cargo	-9.86547
▁significantly	-9.86552
▁consultation	-9.86565
▁disappointed	-9.86567
▁installation	-9.86574
ought	-9.86576
▁protein	-9.86576
▁window	-9.86577
▁Give	-9.8659
▁flow	-9.86592
▁collection	-9.86593
▁scared	-9.86605
▁sells	-9.86628
▁server	-9.86674
▁cap	-9.86728
▁measure	-9.8683
▁suggested	-9.86929
▁parking	-9.8702
ide	-9.87084
▁generate	-9.87466
▁son	-9.87495
▁sizes	-9.87819
▁efforts	-9.87836
pa	-9.87849
▁loan	-9.88061
▁photo	-9.88175
▁pictures	-9.88291
di	-9.88323
▁applying	-9.88428
▁joint	-9.88726
ol	-9.88984
ternal	-9.89761
ster	-9.8984
cross	-9.89977
▁track	-9.90017
▁arrange	-9.90034
ction	-9.9013
▁prepar	-9.90168
▁detect	-9.90221
▁extend	-9.90362
▁register	-9.90411
▁secret	-9.90647
▁extract	-9.90659
▁Jeon	-9.90671
▁frame	-9.90694
▁activities	-9.90698
▁collaboration	-9.90698
▁honor	-9.90698
▁internet	-9.90698
▁laundry	-9.90698
▁private	-9.90698
▁receipt	-9.90698
▁shock	-9.90698
▁stylish	-9.90698
▁third	-9.90698
▁avoid	-9.90698
▁responsibility	-9.90698
▁average	-9.90698
▁housing	-9.90698
▁annual	-9.90698
▁desire	-9.90699
▁complex	-9.90699
▁Christmas	-9.90699
▁mask	-9.90699
▁wedding	-9.907
▁refrigerator	-9.90701
▁Japanese	-9.90701
▁favorite	-9.90702
▁memory	-9.90704
▁dance	-9.90708
▁vary	-9.90715
▁invitation	-9.90716
▁Attached	-9.90719
▁logo	-9.90723
▁spend	-9.9073
▁code	-9.90738
▁station	-9.90758
▁length	-9.90775
▁distance	-9.90775
▁metal	-9.90797
▁medium	-9.90833
▁generation	-9.90845
kept	-9.90864
▁highest	-9.90929
▁engineering	-9.90951
▁solar	-9.90975
▁durable	-9.90987
▁prove	-9.90995
▁paste	-9.90997
▁Sha	-9.91082
▁See	-9.91099
▁inquired	-9.91127
▁perfectly	-9.91181
tic	-9.91202
▁operated	-9.91308
▁kids	-9.91622
▁businesses	-9.91708
▁guys	-9.91731
▁fall	-9.91782
▁specifications	-9.91846
▁pieces	-9.9195
▁De	-9.92116
way	-9.92127
▁feels	-9.9238
▁motor	-9.92409
ating	-9.92494
▁advertisement	-9.92523
▁action	-9.92592
▁word	-9.92609
▁container	-9.92748
▁v	-9.9367
▁sp	-9.93697
▁placed	-9.93763
▁bio	-9.93859
line	-9.94068
how	-9.94272
related	-9.94337
▁mix	-9.9439
▁starting	-9.94752
▁neat	-9.94902
▁accurate	-9.94905
▁Although	-9.95046
▁Hotel	-9.95046
▁bread	-9.95046
▁confidence	-9.95046
▁impossible	-9.95046
▁microwave	-9.95046
▁studio	-9.95046
▁facility	-9.95046
▁cancellation	-9.95047
▁agency	-9.95047
▁road	-9.95047
▁Two	-9.95051
▁wow	-9.95062
▁Park	-9.9507
resistant	-9.95079
▁Tho	-9.95109
▁flat	-9.95138
▁efficiency	-9.95159
▁lid	-9.95169
▁faster	-9.95223
▁grade	-9.95229
fi	-9.95303
nd	-9.95496
▁fixed	-9.95545
▁finished	-9.95674
▁awesome	-9.95685
▁soy	-9.95874
▁reduced	-9.95939
cu	-9.96
▁cr	-9.96015
▁plant	-9.96162
▁fat	-9.96325
▁sets	-9.96338
▁ha	-9.97123
▁weak	-9.9727
▁accounting	-9.97292
▁trend	-9.97293
▁complaint	-9.97388
▁photos	-9.97748
▁tone	-9.98134
▁hi	-9.98166
om	-9.98196
nt	-9.98662
▁force	-9.98779
K	-9.9885
▁US	-9.98864
▁po	-9.98927
▁operat	-9.99035
ap	-9.99157
▁manufacture	-9.99227
▁limit	-9.99275
▁favor	-9.99287
▁quiet	-9.99441
▁sudden	-9.99452
ping	-9.99529
▁note	-9.9957
▁Alright	-9.99591
▁Second	-9.99591
▁Vietnam	-9.99591
▁chocolate	-9.99591
▁compensation	-9.99591
▁garlic	-9.99591
▁impact	-9.99591
▁knew	-9.99591
▁policy	-9.99591
▁sharp	-9.99591
▁brain	-9.99592
▁angry	-9.99592
▁rain	-9.99592
▁Yang	-9.99592
▁draft	-9.99593
▁scene	-9.99594
▁relief	-9.99594
▁advice	-9.99595
▁dark	-9.99595
▁radio	-9.99596
▁Base	-9.99597
▁kit	-9.99601
▁excited	-9.99611
▁measurement	-9.99614
▁myself	-9.99616
▁foods	-9.99623
▁preparation	-9.99637
▁electricity	-9.99644
▁vi	-9.99661
▁stick	-9.99668
▁60	-9.9968
▁shows	-9.99701
ite	-9.99714
▁miss	-9.99748
side	-9.99797
▁reasonable	-9.99803
▁active	-9.99813
ability	-9.99823
▁0	-9.99837
▁hop	-9.99874
▁clearly	-9.99923
▁appliances	-10.0001
N	-10.0061
▁images	-10.0064
▁seconds	-10.0067
▁adjusted	-10.0068
▁funds	-10.0097
rote	-10.0103
▁talked	-10.0123
▁pan	-10.0136
bo	-10.0158
▁user	-10.0168
▁movement	-10.0182
▁keeps	-10.0192
san	-10.0194
-19	-10.0209
▁sides	-10.0209
▁hour	-10.0215
art	-10.0238
▁label	-10.0287
of	-10.0308
yeong	-10.0314
▁Po	-10.0338
▁film	-10.0346
V	-10.0355
and	-10.0356
▁teach	-10.0359
level	-10.0365
book	-10.0365
▁models	-10.039
▁burden	-10.04
▁steam	-10.04
▁mark	-10.0402
▁minim	-10.0403
▁consult	-10.0431
▁straight	-10.0433
▁agricultur	-10.0435
▁conversation	-10.0435
▁household	-10.0435
▁improving	-10.0435
▁interview	-10.0435
▁strategy	-10.0435
▁stretch	-10.0435
▁thousand	-10.0435
▁High	-10.0435
▁liquid	-10.0435
▁toothpaste	-10.0435
▁initial	-10.0435
▁feedback	-10.0435
▁version	-10.0436
▁surgery	-10.0436
▁weird	-10.0436
▁stability	-10.0436
▁keyboard	-10.0436
▁defective	-10.0436
▁partnership	-10.0436
▁Hold	-10.0436
▁reaction	-10.0436
▁huge	-10.0437
▁cards	-10.0439
▁thoroughly	-10.044
▁difficulties	-10.0442
▁bowl	-10.0443
▁ideal	-10.0443
▁cutting	-10.0445
▁experiment	-10.0448
▁glasses	-10.0452
▁wipe	-10.0453
▁brother	-10.0453
▁grain	-10.0457
▁clothing	-10.0457
▁bone	-10.0459
▁conducted	-10.046
▁rental	-10.0462
▁1,000	-10.0472
▁Start	-10.0472
▁agreed	-10.0474
▁makeup	-10.0477
▁Yu	-10.0484
▁grown	-10.049
▁income	-10.0493
▁assist	-10.0493
▁launched	-10.0504
▁sour	-10.0514
▁canceled	-10.0525
▁mat	-10.054
ned	-10.0549
▁tested	-10.0549
▁carrying	-10.0551
30	-10.0586
▁reviewed	-10.0586
▁heating	-10.0596
▁Was	-10.0615
day	-10.0646
▁plate	-10.0673
▁medicine	-10.0677
▁desk	-10.0677
▁outdoor	-10.0679
▁cup	-10.0683
▁disease	-10.0683
▁tools	-10.0684
▁opinion	-10.0685
▁weekend	-10.0686
ni	-10.0694
50	-10.072
▁ate	-10.0722
▁interesting	-10.0732
▁en	-10.0765
tan	-10.0772
▁con	-10.079
▁files	-10.0824
▁projects	-10.0849
10	-10.0871
▁introduc	-10.0883
▁star	-10.0886
▁combine	-10.0908
▁confident	-10.092
▁firm	-10.092
▁efficient	-10.0922
▁distribute	-10.0925
▁lens	-10.0929
▁notice	-10.0933
mpt	-10.0933
nternational	-10.0935
▁Company	-10.0935
▁November	-10.0935
▁combination	-10.0935
▁download	-10.0935
▁pizza	-10.0935
▁progress	-10.0935
▁science	-10.0935
▁sector	-10.0935
▁spread	-10.0935
▁pull	-10.0935
▁batteries	-10.0935
▁birthday	-10.0935
▁jump	-10.0936
▁trading	-10.0936
▁Manager	-10.0936
▁flexible	-10.0936
▁Finally	-10.0936
▁series	-10.0936
▁strap	-10.0936
▁anniversary	-10.0936
▁lack	-10.0936
▁emergency	-10.0939
▁strengthen	-10.0939
▁Both	-10.0939
▁purifier	-10.0939
▁goal	-10.0944
▁reality	-10.0946
▁indoor	-10.0948
▁accurately	-10.0952
▁eight	-10.0956
▁characteristics	-10.0968
▁kinds	-10.0986
▁tool	-10.0991
▁announce	-10.0998
▁cooked	-10.0998
▁parents	-10.1007
ru	-10.1019
▁vegetables	-10.1021
▁cosmetics	-10.1021
▁dish	-10.1028
▁ahead	-10.103
ga	-10.1033
▁others	-10.104
▁sometimes	-10.1047
▁layer	-10.1061
▁economic	-10.1069
▁skills	-10.1074
▁bus	-10.1075
▁Wi	-10.1077
ba	-10.108
▁experts	-10.1087
ake	-10.1096
▁St	-10.1107
▁specialize	-10.1117
▁seats	-10.1119
▁ideas	-10.1133
▁reading	-10.1158
▁update	-10.1176
▁playing	-10.1176
▁drugs	-10.118
▁minimize	-10.1196
▁fiber	-10.1198
▁occur	-10.12
▁acid	-10.1201
ad	-10.1202
▁hurt	-10.1204
▁character	-10.1208
▁drug	-10.121
ab	-10.1218
ice	-10.122
▁pain	-10.1249
let	-10.1278
▁robots	-10.1288
▁submit	-10.1352
wa	-10.1368
ical	-10.1379
▁13	-10.1385
type	-10.1391
▁shoot	-10.1393
ship	-10.1396
▁integrat	-10.1396
▁bean	-10.1412
▁treat	-10.1426
▁achieve	-10.1432
▁promise	-10.1434
▁shoulder	-10.1436
▁stuff	-10.1446
▁continuous	-10.1449
▁Br	-10.1455
▁bro	-10.1458
▁concept	-10.1461
▁begin	-10.1461
▁technic	-10.1462
▁advertising	-10.1462
▁automobile	-10.1462
▁couple	-10.1462
▁detergent	-10.1462
▁fuel	-10.1462
▁grateful	-10.1462
▁mirror	-10.1462
▁senior	-10.1462
▁succeed	-10.1462
▁suffer	-10.1462
▁traffic	-10.1462
▁competition	-10.1462
▁possibility	-10.1462
▁shot	-10.1462
▁score	-10.1462
▁appointment	-10.1462
▁Check	-10.1462
▁compatible	-10.1462
▁pump	-10.1462
▁father	-10.1463
▁pool	-10.1463
▁worth	-10.1463
▁appropriate	-10.1464
▁certified	-10.1464
▁virtual	-10.1464
▁India	-10.1464
▁poor	-10.1465
▁mid	-10.1465
▁quarter	-10.1465
▁supposed	-10.1465
▁controller	-10.1467
▁powerful	-10.1467
▁rapidly	-10.1471
▁activity	-10.1475
▁14	-10.1477
▁bacteria	-10.1483
▁mom	-10.1486
▁successfully	-10.1487
H	-10.149
▁core	-10.1498
▁Put	-10.1502
▁spin	-10.1503
▁processes	-10.1509
night	-10.152
▁helped	-10.153
▁entered	-10.1539
▁tracking	-10.1549
▁printing	-10.1561
▁moved	-10.1561
ian	-10.1562
▁environmental	-10.1564
▁kg	-10.1571
▁removed	-10.1576
ci	-10.1579
▁aim	-10.1618
▁cleaner	-10.1619
▁fishing	-10.162
▁drinking	-10.162
▁cases	-10.1626
▁applications	-10.1657
▁fields	-10.1671
▁studying	-10.1677
▁defects	-10.1678
▁evenly	-10.1683
▁cm	-10.1694
▁frie	-10.1697
▁increases	-10.1703
▁la	-10.1709
▁cooperate	-10.1714
▁concern	-10.1727
rs	-10.1757
▁fur	-10.1762
▁notification	-10.1768
▁student	-10.1768
▁oven	-10.177
ily	-10.1794
ial	-10.1812
ize	-10.1821
▁Pa	-10.1829
▁Jo	-10.1832
▁preci	-10.1842
ture	-10.1843
▁programs	-10.1851
▁pot	-10.1855
▁specializ	-10.1877
lar	-10.1898
▁perform	-10.1911
ok	-10.1912
F	-10.1924
▁lines	-10.1943
▁writ	-10.1946
▁park	-10.1952
▁calls	-10.198
▁load	-10.1981
▁patent	-10.1984
▁mini	-10.1997
▁remote	-10.2002
▁wants	-10.2003
▁proper	-10.2004
que	-10.2006
▁bright	-10.2011
▁port	-10.2011
▁Introduc	-10.2013
hyeon	-10.2016
▁Airport	-10.2017
▁Design	-10.2017
▁Enjoy	-10.2017
▁Number	-10.2017
▁Philippines	-10.2017
▁Saturday	-10.2017
▁Thursday	-10.2017
▁Tuesday	-10.2017
▁aluminum	-10.2017
▁generous	-10.2017
▁lease	-10.2017
▁octopus	-10.2017
▁pocket	-10.2017
▁potential	-10.2017
▁producing	-10.2017
▁ultra	-10.2017
▁alternative	-10.2017
▁bicycle	-10.2017
▁losing	-10.2017
▁overall	-10.2017
▁industrial	-10.2017
▁prefer	-10.2017
▁March	-10.2018
▁juice	-10.2018
▁dead	-10.2018
▁mood	-10.2018
▁gaming	-10.2018
▁stone	-10.2018
▁multiple	-10.2019
▁belt	-10.202
▁Seung	-10.202
▁Station	-10.202
▁Eun	-10.2021
▁Sang	-10.2022
▁Other	-10.2023
▁enable	-10.2024
▁forget	-10.2028
▁Baek	-10.2028
▁expression	-10.2029
▁sad	-10.2032
▁failed	-10.2033
▁accumulated	-10.2034
▁Won	-10.2043
▁soap	-10.2062
▁classic	-10.2062
▁rules	-10.2069
▁posted	-10.2074
▁La	-10.2077
▁optic	-10.2091
▁smells	-10.2108
▁pad	-10.2123
ible	-10.2135
▁eggs	-10.2142
▁walking	-10.2146
▁played	-10.2147
▁nu	-10.2155
▁listening	-10.2157
ut	-10.2184
▁thin	-10.22
▁Bro	-10.2206
ft	-10.2213
20	-10.2229
▁Mad	-10.2238
▁artist	-10.2268
▁Ga	-10.2285
urry	-10.2294
▁Mo	-10.2301
▁diseases	-10.2306
▁leg	-10.2308
vice	-10.2312
▁spoon	-10.2341
▁pattern	-10.2341
▁cafe	-10.2345
▁textbook	-10.2345
▁laptop	-10.2348
▁cons	-10.2351
▁ingredient	-10.2358
▁lighting	-10.238
▁Ho	-10.2396
W	-10.24
▁1,	-10.2412
ding	-10.2424
ect	-10.2463
old	-10.2465
board	-10.2531
law	-10.2533
▁fees	-10.2552
mo	-10.2561
ious	-10.2564
▁rid	-10.2577
▁America	-10.2579
▁IT	-10.2581
▁waste	-10.2582
▁sc	-10.2586
▁tight	-10.2596
unning	-10.2605
▁Consider	-10.2605
▁Actually	-10.2605
▁Instead	-10.2605
▁October	-10.2605
▁September	-10.2605
▁audio	-10.2605
▁blade	-10.2605
▁budget	-10.2605
▁consumption	-10.2605
▁inconvenient	-10.2605
▁institute	-10.2605
▁intelligence	-10.2605
▁mountain	-10.2605
▁salary	-10.2605
▁woman	-10.2605
▁remittance	-10.2605
▁Everything	-10.2605
▁Three	-10.2605
▁recognition	-10.2605
▁seven	-10.2605
▁frozen	-10.2606
▁truck	-10.2606
▁bigge	-10.2606
▁click	-10.2606
▁mouse	-10.2606
▁reference	-10.2606
▁bedroom	-10.2606
▁spring	-10.2606
▁shopping	-10.2606
▁pair	-10.2606
▁arrival	-10.2606
▁mold	-10.2608
▁statement	-10.2608
▁enhance	-10.2609
▁planned	-10.2609
▁confirmation	-10.261
▁brown	-10.2612
▁regulations	-10.2614
▁born	-10.2617
▁briefly	-10.2618
▁auto	-10.2622
▁Up	-10.2623
▁mushrooms	-10.2629
▁Su	-10.263
▁usage	-10.2645
▁legal	-10.2649
▁diet	-10.2666
▁lives	-10.2676
▁stated	-10.2681
▁washed	-10.2683
▁analyze	-10.2686
▁brands	-10.269
▁filming	-10.2691
▁scan	-10.2694
▁stores	-10.2697
mong	-10.2698
▁butter	-10.2698
▁dumplings	-10.2707
▁connected	-10.2709
soo	-10.2715
▁compar	-10.2725
▁charger	-10.2735
▁ability	-10.274
▁considered	-10.2744
▁degrees	-10.2754
ke	-10.2762
▁feed	-10.2774
▁growing	-10.2781
▁entering	-10.2785
▁Th	-10.2791
frie	-10.2797
ard	-10.2814
▁guests	-10.2817
ze	-10.2839
▁phones	-10.2844
ux	-10.2847
gu	-10.2851
▁legs	-10.2866
▁houses	-10.2884
▁farm	-10.2884
east	-10.2911
Fi	-10.2922
ron	-10.293
▁supplement	-10.2936
▁via	-10.2947
▁advertisements	-10.2961
tive	-10.2964
▁vitamin	-10.2967
▁agent	-10.2973
▁defect	-10.2979
▁document	-10.2981
▁discussion	-10.2987
▁arm	-10.2989
▁profits	-10.2991
▁writer	-10.2997
▁Je	-10.2999
▁player	-10.3001
arious	-10.3041
▁homes	-10.3052
ty	-10.3062
uk	-10.3086
▁pets	-10.3092
ify	-10.31
ure	-10.3102
▁conduct	-10.3129
hun	-10.314
▁creat	-10.3143
▁leaves	-10.3144
ag	-10.3159
▁stress	-10.3195
▁Seong	-10.32
▁recognize	-10.3203
▁happens	-10.3209
atic	-10.321
▁wire	-10.3212
im	-10.3213
▁ways	-10.3216
▁broth	-10.3216
▁luck	-10.3216
▁cheap	-10.3225
▁Another	-10.323
▁Bluetooth	-10.323
▁banquet	-10.323
▁club	-10.323
▁compensate	-10.323
▁currency	-10.323
▁embarrassed	-10.323
▁password	-10.323
▁pleasant	-10.323
▁sugar	-10.323
▁themselves	-10.323
▁unexpected	-10.323
▁dream	-10.323
▁editing	-10.323
▁jacket	-10.323
▁scalp	-10.323
▁anymore	-10.323
▁convert	-10.323
▁dishwasher	-10.323
▁personnel	-10.323
▁absorb	-10.323
▁university	-10.3231
▁repay	-10.3231
▁dangerous	-10.3231
▁priority	-10.3231
▁blog	-10.3231
▁laugh	-10.3231
▁sick	-10.3231
▁dad	-10.3232
▁worst	-10.3232
▁handling	-10.3233
▁solutions	-10.3236
▁portable	-10.3237
▁profile	-10.3238
▁rear	-10.3238
▁aren	-10.324
▁actor	-10.3241
proof	-10.3241
▁50%	-10.3242
▁era	-10.3243
▁customized	-10.3245
▁warmth	-10.3248
▁blend	-10.3248
▁consideration	-10.3248
▁actively	-10.325
ory	-10.3252
▁seriously	-10.3258
▁100,000	-10.3258
▁recognized	-10.3258
▁Fee	-10.326
▁accessories	-10.3262
▁patented	-10.3268
▁largest	-10.3272
▁sweat	-10.3293
▁stocks	-10.3294
▁Somin	-10.3294
▁served	-10.3301
▁meals	-10.3304
▁components	-10.3305
▁raised	-10.3319
guk	-10.3326
▁missing	-10.3327
▁covered	-10.3331
▁conditioner	-10.3331
▁hire	-10.3334
▁Make	-10.3336
▁covers	-10.3337
▁visual	-10.3344
▁PC	-10.3358
lly	-10.3362
▁nose	-10.3373
ould	-10.3374
▁recording	-10.3374
▁monitoring	-10.339
▁ba	-10.3395
▁filling	-10.3401
▁ver	-10.342
▁channels	-10.3423
▁se	-10.3425
ental	-10.3426
▁shell	-10.3431
▁Li	-10.3432
▁Sit	-10.344
▁freely	-10.3445
▁adults	-10.3473
der	-10.3486
▁ho	-10.349
▁Wa	-10.3492
-19.	-10.3538
▁sing	-10.3565
ot	-10.3577
▁Ra	-10.3578
ong	-10.3635
▁adult	-10.3644
▁speaker	-10.3645
▁flavor	-10.365
da	-10.3655
▁visited	-10.3661
▁ear	-10.3669
ash	-10.3672
land	-10.3675
com	-10.3677
▁signal	-10.3685
▁bills	-10.3696
yeon	-10.3707
ring	-10.3708
ities	-10.3761
BBB	-10.3784
▁showing	-10.379
▁Us	-10.3795
work	-10.3798
▁broadcast	-10.3828
▁inter	-10.3857
▁implement	-10.386
▁count	-10.3882
▁brief	-10.3883
▁subject	-10.3896
▁CCC	-10.3897
▁doctor	-10.3897
▁drama	-10.3897
▁familiar	-10.3897
▁infrastructure	-10.3897
▁magazine	-10.3897
▁microphone	-10.3897
▁nutrition	-10.3897
▁optimal	-10.3897
▁penalty	-10.3897
▁pleasure	-10.3897
▁regret	-10.3897
▁satisfy	-10.3897
▁shampoo	-10.3897
▁swimming	-10.3897
▁Great	-10.3897
▁input	-10.3897
▁joy	-10.3897
▁hydrogen	-10.3897
▁claim	-10.3897
▁prize	-10.3897
▁vision	-10.3897
▁squa	-10.3897
▁subway	-10.3898
▁fax	-10.3898
▁organic	-10.3898
▁somewhere	-10.3898
▁wrinkle	-10.3898
▁expectations	-10.3898
▁Master	-10.3898
▁certificate	-10.39
▁hardware	-10.3901
▁shine	-10.3903
▁serving	-10.3904
▁bond	-10.3905
ric	-10.3906
▁determine	-10.3906
▁loose	-10.3909
person	-10.3909
▁chain	-10.391
▁resolution	-10.391
▁faithful	-10.3911
▁obtained	-10.3912
▁Tell	-10.3918
▁owners	-10.392
▁mine	-10.3922
▁adjustable	-10.3924
▁achieved	-10.3933
▁sort	-10.3934
▁dried	-10.3936
▁actual	-10.3944
▁originally	-10.3944
▁5%	-10.3962
▁pen	-10.3975
▁gloves	-10.3977
▁colleagues	-10.3978
▁mass	-10.3982
▁seal	-10.3984
rew	-10.3985
▁shooting	-10.3985
▁lotion	-10.3994
▁resources	-10.4013
nic	-10.4018
▁reviews	-10.4054
ors	-10.4059
▁immun	-10.407
▁Per	-10.4071
▁loved	-10.4113
▁experienced	-10.4141
▁offered	-10.4177
▁Sal	-10.4182
sized	-10.4198
▁pads	-10.4201
ish	-10.4217
▁lie	-10.425
▁ID	-10.4254
▁Pro	-10.4287
▁sw	-10.4295
no	-10.4322
▁rates	-10.4345
▁coupon	-10.4347
▁drop	-10.4354
▁guest	-10.4358
▁consumer	-10.437
▁patient	-10.4375
▁suits	-10.4392
pi	-10.4405
▁150	-10.443
che	-10.4431
▁lab	-10.444
▁Koreans	-10.447
▁intention	-10.4494
▁2,	-10.4533
▁Eas	-10.4533
pm	-10.4536
minute	-10.454
speed	-10.4542
▁complain	-10.4553
bra	-10.4565
▁mount	-10.4576
▁burn	-10.4583
▁establish	-10.4585
▁gets	-10.4587
▁retail	-10.4589
▁scratch	-10.4606
xperience	-10.4607
▁sub	-10.4609
▁Europe	-10.461
▁micro	-10.4611
▁emotion	-10.4611
▁CCTV	-10.4611
▁University	-10.4611
▁attack	-10.4611
▁calculate	-10.4611
▁destination	-10.4611
▁ginseng	-10.4611
▁irritat	-10.4611
▁tissue	-10.4611
▁vacuum	-10.4611
▁valuable	-10.4611
▁worries	-10.4611
▁blanket	-10.4611
▁empty	-10.4611
▁hiking	-10.4611
▁proud	-10.4611
▁Center	-10.4611
▁chose	-10.4611
▁dress	-10.4611
▁joke	-10.4611
▁thermal	-10.4611
▁knowledge	-10.4611
▁transparent	-10.4612
▁quantities	-10.4612
▁impressive	-10.4612
▁skirt	-10.4612
▁beginning	-10.4612
▁Busan	-10.4612
▁hungry	-10.4612
▁preference	-10.4612
▁seaweed	-10.4612
▁Jang	-10.4612
▁rock	-10.4612
▁pillow	-10.4612
▁practical	-10.4612
▁technician	-10.4612
▁capture	-10.4612
▁net	-10.4612
▁sister	-10.4612
▁Hope	-10.4612
▁attractive	-10.4612
▁USB	-10.4612
▁European	-10.4613
▁tourist	-10.4613
▁comb	-10.4613
▁percent	-10.4613
dex	-10.4613
▁satisfaction	-10.4614
▁Yeong	-10.4614
▁Kindly	-10.4615
▁rose	-10.4615
▁salesperson	-10.4616
▁everyday	-10.4616
▁affordable	-10.4616
▁machinery	-10.4617
▁scratches	-10.4617
▁approved	-10.4619
▁hu	-10.4622
▁28	-10.4622
▁gray	-10.4623
▁carrier	-10.4624
▁fashion	-10.4625
▁classes	-10.4625
▁rank	-10.4626
▁national	-10.4627
uty	-10.4631
▁continuously	-10.4631
▁younger	-10.4632
▁efficiently	-10.4632
▁Depend	-10.4637
▁normally	-10.4638
▁stronger	-10.4651
▁shirt	-10.4651
▁combined	-10.4652
ier	-10.466
dom	-10.466
by	-10.4664
▁missed	-10.4665
▁registered	-10.467
▁severe	-10.4676
▁coating	-10.4676
dge	-10.4679
ov	-10.4687
▁conducting	-10.4691
▁plug	-10.4691
▁Customers	-10.4698
▁investors	-10.4699
▁guaranteed	-10.47
▁stands	-10.4701
▁integrate	-10.4702
▁substances	-10.4717
▁remov	-10.4726
ates	-10.4727
▁plane	-10.4729
▁printer	-10.4733
go	-10.4745
ium	-10.4749
▁managed	-10.4772
▁returned	-10.479
▁objects	-10.4813
▁laws	-10.4815
▁sleeping	-10.4816
▁traveling	-10.4827
▁suggestions	-10.4834
▁radi	-10.4841
▁instruments	-10.4853
▁factors	-10.4855
▁2.	-10.4862
inch	-10.4865
▁attending	-10.4874
▁starts	-10.489
▁ears	-10.4894
▁Ex	-10.4913
▁cooling	-10.4959
▁God	-10.4967
▁stored	-10.4968
▁markets	-10.498
▁r	-10.5039
▁plants	-10.5047
va	-10.5049
▁Fin	-10.5058
▁fel	-10.5059
set	-10.5068
▁Mi	-10.507
ations	-10.5086
▁chemicals	-10.509
▁cakes	-10.509
gel	-10.5092
▁cameras	-10.5102
▁Mu	-10.5114
▁Ro	-10.5115
▁output	-10.5116
▁leak	-10.5121
▁factor	-10.5122
▁organization	-10.5122
▁computers	-10.5126
▁instrument	-10.5126
▁effort	-10.5127
ang	-10.5133
▁herb	-10.5145
con	-10.5155
ese	-10.5158
ner	-10.5187
ff	-10.5191
▁80	-10.52
ear	-10.5201
form	-10.5212
▁measur	-10.5229
▁records	-10.5231
▁buyer	-10.5241
▁train	-10.525
▁teams	-10.5275
▁advantages	-10.529
▁reduc	-10.5294
known	-10.5309
iness	-10.531
FFF	-10.531
▁purposes	-10.5311
▁ham	-10.5313
▁carrie	-10.5313
▁fight	-10.5318
fry	-10.5321
ml	-10.5329
▁caus	-10.533
▁events	-10.5332
cent	-10.5335
▁tag	-10.5337
▁appear	-10.5347
▁resolve	-10.5352
▁relieve	-10.5357
▁direct	-10.5359
ton	-10.5362
sually	-10.5362
▁rapid	-10.5366
▁utilize	-10.5369
▁potato	-10.5375
▁except	-10.5377
▁ferment	-10.5378
▁transport	-10.5378
▁capital	-10.5381
▁extreme	-10.5381
▁Congratulations	-10.5381
▁Original	-10.5381
▁behavior	-10.5381
▁calendar	-10.5381
▁ceramic	-10.5381
▁challenge	-10.5381
▁choosing	-10.5381
▁climate	-10.5381
▁communicate	-10.5381
▁daughter	-10.5381
▁dedicat	-10.5381
▁entrance	-10.5381
▁flexibility	-10.5381
▁hundred	-10.5381
▁leaving	-10.5381
▁moisturize	-10.5381
▁mortgage	-10.5381
▁relevant	-10.5381
▁session	-10.5381
▁yarn	-10.5381
▁blind	-10.5381
▁bomb	-10.5381
▁Smart	-10.5381
▁Still	-10.5381
▁instructions	-10.5381
▁innovation	-10.5381
▁race	-10.5381
▁title	-10.5381
▁York	-10.5381
▁participants	-10.5381
▁tank	-10.5381
▁timing	-10.5381
▁entertainment	-10.5381
▁community	-10.5381
▁nail	-10.5381
▁pharmaceutical	-10.5381
▁usual	-10.5381
▁craft	-10.5381
▁snow	-10.5381
▁evaluation	-10.5381
▁caught	-10.5381
▁grand	-10.5381
▁reduction	-10.5382
▁establishment	-10.5382
▁fake	-10.5383
▁row	-10.5383
▁socks	-10.5383
▁supplied	-10.5384
▁Maybe	-10.5384
▁hole	-10.5384
▁lip	-10.5385
▁activated	-10.5385
▁Incheon	-10.5386
▁cheer	-10.5386
▁Island	-10.5387
▁recycled	-10.5387
▁hesitate	-10.5387
▁trailer	-10.5389
▁curve	-10.5389
▁toothbrush	-10.539
▁consume	-10.539
▁appearance	-10.539
▁divided	-10.5391
▁Sorry	-10.5391
▁constantly	-10.5392
▁bigger	-10.5392
▁engines	-10.5393
▁mental	-10.5395
▁sun	-10.5398
▁instant	-10.5399
▁corner	-10.54
▁foundation	-10.5401
▁City	-10.5402
▁section	-10.5402
▁adapter	-10.5402
▁bi	-10.5403
▁upper	-10.5406
▁map	-10.5406
▁eaten	-10.5412
▁tend	-10.5422
▁ride	-10.5422
▁promised	-10.5422
▁finance	-10.5427
▁dual	-10.5427
▁publishing	-10.544
▁intens	-10.5451
▁imported	-10.5453
▁king	-10.5456
▁functional	-10.546
▁k	-10.5462
▁steps	-10.5469
▁greater	-10.5472
▁harder	-10.5481
▁naturally	-10.5486
lu	-10.5488
▁falling	-10.551
▁bags	-10.5513
▁acquaintances	-10.5516
▁ti	-10.5536
▁solved	-10.5537
▁speaking	-10.554
▁investing	-10.5547
▁ring	-10.5555
▁hate	-10.5569
▁Dur	-10.5569
▁muscles	-10.5579
▁snacks	-10.5579
▁greatly	-10.5592
▁coat	-10.5597
ket	-10.5598
▁lights	-10.5599
▁Exc	-10.5604
▁panels	-10.5611
▁ca	-10.5622
▁differently	-10.5622
come	-10.5624
▁flowers	-10.5625
cular	-10.5632
▁Lo	-10.5635
▁bite	-10.5647
▁helping	-10.5662
▁referr	-10.5672
tage	-10.5688
▁designing	-10.5754
ware	-10.5764
▁Dr	-10.5772
▁fe	-10.5806
▁thoughts	-10.581
cha	-10.5836
▁Pu	-10.5846
▁beer	-10.5864
cal	-10.5865
angle	-10.5875
PS	-10.5901
▁accidents	-10.5921
▁tip	-10.5922
▁arrives	-10.594
▁recipe	-10.595
▁holiday	-10.5958
▁channel	-10.596
▁expert	-10.5962
▁suggestion	-10.5968
▁topic	-10.597
▁flower	-10.5972
hand	-10.5976
elling	-10.5989
round	-10.5993
▁piece	-10.6004
▁chairs	-10.603
▁movies	-10.603
▁sens	-10.6034
▁fund	-10.6039
▁optimize	-10.6041
▁Cho	-10.61
▁sha	-10.6102
sa	-10.6122
order	-10.6138
scale	-10.6141
ern	-10.6145
bean	-10.6146
▁host	-10.6152
stand	-10.6161
▁Gu	-10.6166
▁nano	-10.6178
made	-10.6179
ball	-10.6181
top	-10.6181
▁dye	-10.6185
▁gather	-10.6189
▁j	-10.6194
▁suite	-10.6195
▁renew	-10.6203
▁remind	-10.6207
▁detach	-10.6208
▁afford	-10.6208
▁avail	-10.6208
▁Du	-10.6209
▁competitive	-10.6213
▁subscribe	-10.6213
▁luxur	-10.6214
▁audience	-10.6214
▁disaster	-10.6214
▁girl	-10.6214
▁vaccine	-10.6214
▁Argh	-10.6214
▁Fortunately	-10.6214
▁Open	-10.6214
▁beneficial	-10.6214
▁circumstances	-10.6214
▁complicated	-10.6214
▁cuisine	-10.6214
▁economy	-10.6214
▁expansion	-10.6214
▁inquiring	-10.6214
▁negative	-10.6214
▁pursue	-10.6214
▁quotation	-10.6214
▁relatively	-10.6214
▁resume	-10.6214
▁signature	-10.6214
▁squid	-10.6214
▁strict	-10.6214
▁synthetic	-10.6214
▁technique	-10.6214
▁village	-10.6214
▁yellow	-10.6214
▁Children	-10.6214
▁reject	-10.6214
▁pricing	-10.6214
▁valve	-10.6214
▁yeah	-10.6214
▁spacious	-10.6214
▁Something	-10.6214
▁kill	-10.6214
▁gym	-10.6214
▁capabilities	-10.6214
▁tough	-10.6214
▁basis	-10.6214
▁occurred	-10.6214
▁marriage	-10.6214
kook	-10.6214
▁glance	-10.6215
▁Keep	-10.6215
▁investigat	-10.6215
▁tailor	-10.6215
▁Year	-10.6215
▁competitiveness	-10.6215
▁sterilization	-10.6215
▁importance	-10.6216
▁Out	-10.6216
▁Hong	-10.6216
▁clearance	-10.6217
▁Stop	-10.6217
▁pink	-10.6217
▁registration	-10.6218
▁pure	-10.6219
▁Award	-10.622
▁recovery	-10.6221
▁silicone	-10.6221
▁pickup	-10.6221
▁independent	-10.6222
▁dirty	-10.6222
▁scary	-10.6222
▁frequently	-10.6223
▁attract	-10.6224
▁June	-10.6227
▁exclusively	-10.6227
▁upgraded	-10.6227
▁rise	-10.623
▁fly	-10.6233
▁3%	-10.6233
▁outlet	-10.6236
▁roll	-10.6236
▁Am	-10.6238
▁Yeon	-10.6241
▁automo	-10.6241
▁grilled	-10.6242
▁dial	-10.6243
▁salty	-10.6249
▁Song	-10.6249
▁previously	-10.6249
▁singer	-10.625
room	-10.6251
▁boots	-10.6253
▁reports	-10.626
▁updated	-10.6261
▁encourage	-10.6267
ative	-10.627
hap	-10.6272
▁towel	-10.6272
▁postponed	-10.6274
▁slip	-10.6275
▁Ta	-10.6279
illa	-10.6282
▁extended	-10.6283
▁seek	-10.6286
▁scale	-10.6289
▁cast	-10.6292
▁replaced	-10.6294
▁operations	-10.6296
▁belly	-10.6296
▁broadcasting	-10.6302
▁invested	-10.6311
ple	-10.6312
▁invited	-10.6326
▁filled	-10.6326
▁Pre	-10.6345
▁shower	-10.635
▁celebrate	-10.635
ey	-10.6354
▁touched	-10.6358
▁graphics	-10.6362
▁executives	-10.6362
▁panel	-10.6371
ber	-10.6374
▁seasoned	-10.6378
▁soil	-10.6382
▁deposited	-10.6383
▁savings	-10.6385
ki	-10.6389
▁expanding	-10.6401
▁gl	-10.6408
▁drones	-10.6408
rap	-10.6413
▁sites	-10.6423
▁trusted	-10.6428
▁wheels	-10.6431
▁environments	-10.6435
▁meters	-10.6438
▁Bo	-10.6455
▁holidays	-10.6477
ery	-10.6504
ular	-10.6508
▁touching	-10.6513
▁menus	-10.6525
▁god	-10.6561
sis	-10.657
▁Sa	-10.6578
tang	-10.6582
▁players	-10.6582
rry	-10.6583
fully	-10.6586
▁du	-10.6595
▁Na	-10.6604
▁bu	-10.6608
▁concerns	-10.6614
▁flo	-10.6622
▁23	-10.665
eun	-10.6654
▁goals	-10.6664
ties	-10.6669
▁wi	-10.6682
▁complaints	-10.6711
ried	-10.6712
ran	-10.6752
▁flag	-10.6756
▁propose	-10.6764
▁ab	-10.6768
men	-10.6768
▁Ne	-10.6782
▁adapt	-10.6796
bs	-10.6811
oid	-10.6816
▁tons	-10.6822
ene	-10.6825
ual	-10.6828
▁ticket	-10.6865
▁21	-10.6868
▁object	-10.6869
3,	-10.6873
▁groups	-10.6876
▁surrounding	-10.6882
▁specification	-10.6882
▁skill	-10.689
▁remains	-10.69
▁requests	-10.69
▁cooperati	-10.6915
▁law	-10.6957
ka	-10.6959
▁offering	-10.6966
fe	-10.6967
U	-10.6981
▁publish	-10.7004
rim	-10.7037
▁hang	-10.7044
▁networks	-10.7045
fish	-10.7054
▁fold	-10.7065
▁imp	-10.7066
▁rot	-10.7068
▁humans	-10.7069
▁gra	-10.7081
▁fac	-10.7082
▁relax	-10.7084
▁Whe	-10.7086
bu	-10.7088
▁upload	-10.7089
▁smoke	-10.7093
ile	-10.7095
▁corn	-10.7099
▁mo	-10.7105
uck	-10.7107
▁exclusive	-10.711
▁120	-10.711
▁dep	-10.7117
▁hack	-10.7122
▁circula	-10.7123
▁waist	-10.7123
▁Clean	-10.7123
▁compliment	-10.7123
▁contribut	-10.7123
moisturizing	-10.7123
▁April	-10.7123
▁August	-10.7123
▁Especially	-10.7123
▁February	-10.7123
▁Perfect	-10.7123
▁bullet	-10.7123
▁campaign	-10.7123
▁copyright	-10.7123
▁dessert	-10.7123
▁doubt	-10.7123
▁garden	-10.7123
▁knife	-10.7123
▁leaf	-10.7123
▁loud	-10.7123
▁ourselves	-10.7123
▁participation	-10.7123
▁perspective	-10.7123
▁precautions	-10.7123
▁razor	-10.7123
▁silver	-10.7123
▁strategies	-10.7123
▁sturdy	-10.7123
▁understood	-10.7123
▁valid	-10.7123
▁vivid	-10.7123
▁wrist	-10.7123
▁Welcome	-10.7123
▁compact	-10.7123
▁insufficient	-10.7123
▁narrow	-10.7123
▁ramen	-10.7123
▁ribs	-10.7123
▁ventilation	-10.7123
▁subtle	-10.7123
▁comment	-10.7123
▁debt	-10.7123
▁guidelines	-10.7123
▁harvest	-10.7123
▁neighborhood	-10.7123
▁celebrity	-10.7123
▁wild	-10.7123
▁sofa	-10.7123
▁console	-10.7123
▁venture	-10.7123
▁kick	-10.7123
▁exposed	-10.7123
▁reputation	-10.7123
▁textile	-10.7124
▁Meet	-10.7124
▁principle	-10.7124
▁temple	-10.7124
▁ceremony	-10.7124
▁manpower	-10.7124
▁fry	-10.7124
▁blow	-10.7124
▁newspaper	-10.7124
▁string	-10.7124
▁respective	-10.7124
▁posture	-10.7124
▁membership	-10.7124
▁percentage	-10.7124
▁imagine	-10.7124
▁cities	-10.7125
▁accessory	-10.7125
▁manner	-10.7125
▁wake	-10.7125
▁cash	-10.7125
▁UK	-10.7126
▁Things	-10.7126
▁arrangement	-10.7126
▁Add	-10.7127
▁negotiate	-10.7127
▁coverage	-10.7127
▁Cool	-10.7127
▁weld	-10.7127
▁subsidiary	-10.7128
▁observed	-10.7128
▁edge	-10.7129
▁turns	-10.7129
dle	-10.7131
▁Big	-10.7134
▁40%	-10.7135
▁respect	-10.714
▁broken	-10.714
▁pipe	-10.7141
▁counter	-10.7142
▁minimal	-10.7144
▁resistance	-10.7148
▁affiliate	-10.7151
▁relieved	-10.7157
▁gone	-10.7161
▁individually	-10.7164
▁slowly	-10.7164
▁older	-10.7165
▁autonomous	-10.717
▁whatever	-10.7174
▁mis	-10.7174
ark	-10.7175
Hyo	-10.7175
▁Over	-10.7176
▁performed	-10.718
▁competitors	-10.7186
▁frying	-10.7193
▁personally	-10.7206
▁tile	-10.7216
▁heater	-10.7219
wear	-10.7223
▁led	-10.7226
▁closely	-10.7242
off	-10.7244
effectiveness	-10.7257
▁reported	-10.7258
▁reschedule	-10.7268
last	-10.7269
▁bother	-10.7283
▁issued	-10.7285
▁ratio	-10.729
▁rented	-10.7291
▁developer	-10.7297
ond	-10.7297
▁3-	-10.7298
▁desp	-10.7302
▁sincere	-10.7311
▁onions	-10.7316
▁35	-10.7322
▁Sam	-10.734
▁levels	-10.7365
dium	-10.7367
▁formed	-10.7373
▁mu	-10.7374
▁Bi	-10.744
▁En	-10.7441
▁drying	-10.7466
▁renting	-10.7474
▁seasoning	-10.75
won	-10.7511
▁King	-10.7512
▁friendly	-10.7529
5%	-10.7533
▁laptops	-10.754
▁che	-10.7544
▁ended	-10.756
▁Ti	-10.758
ise	-10.7592
▁updates	-10.7593
▁90	-10.7598
▁dri	-10.7612
▁apps	-10.7616
▁cups	-10.7618
▁situations	-10.7633
▁Si	-10.7636
▁methods	-10.7642
▁tie	-10.7654
▁thankful	-10.7655
▁gradua	-10.7681
▁45	-10.7698
60	-10.7712
▁containers	-10.7717
▁evaluate	-10.7722
▁overcom	-10.7733
▁San	-10.7769
▁Jun	-10.779
▁tri	-10.7792
▁officials	-10.7801
▁regions	-10.7801
▁dec	-10.7818
▁weigh	-10.782
▁designer	-10.7833
▁disadvantage	-10.7855
▁beverage	-10.7855
▁odor	-10.7855
▁root	-10.7856
▁element	-10.7859
▁article	-10.7859
▁negotiation	-10.7859
▁satellite	-10.7859
ator	-10.786
▁sheet	-10.7864
▁procedure	-10.7865
por	-10.7867
▁muscle	-10.7868
▁snack	-10.7868
▁guy	-10.7872
▁Product	-10.7873
▁wheel	-10.7874
head	-10.7878
▁formula	-10.7879
aid	-10.7894
▁degree	-10.7897
red	-10.7917
▁term	-10.7919
▁li	-10.7949
▁Jin	-10.7955
▁Han	-10.7961
▁par	-10.7965
▁cat	-10.7981
▁draw	-10.8001
▁numbers	-10.8011
▁award	-10.8014
▁push	-10.8017
▁22	-10.8025
▁ink	-10.8035
▁Ver	-10.804
▁songs	-10.8041
▁meter	-10.8041
slip	-10.8049
half	-10.8052
water	-10.8055
house	-10.8056
same	-10.8058
▁complet	-10.8059
▁invit	-10.8065
▁char	-10.8078
▁twist	-10.8086
▁grill	-10.809
▁mention	-10.8091
▁strange	-10.8104
▁constant	-10.8109
▁influence	-10.8109
▁cur	-10.8117
▁remit	-10.8121
▁elastic	-10.8121
ncludes	-10.8122
▁depart	-10.8123
▁resident	-10.8123
ology	-10.8123
▁compos	-10.8123
▁approximate	-10.8123
▁lithium	-10.8123
▁Canada	-10.8123
▁Compar	-10.8123
▁Indonesia	-10.8123
▁Moreover	-10.8123
▁Restaurant	-10.8123
▁SNS	-10.8123
▁Sigh	-10.8123
▁album	-10.8123
▁allergic	-10.8123
▁closing	-10.8123
▁copies	-10.8123
▁crisis	-10.8123
▁cumbersome	-10.8123
▁disappear	-10.8123
▁discover	-10.8123
▁fragrance	-10.8123
▁genuine	-10.8123
▁industries	-10.8123
▁luggage	-10.8123
▁pandemic	-10.8123
▁participating	-10.8123
▁piano	-10.8123
▁professor	-10.8123
▁prototype	-10.8123
▁reliability	-10.8123
▁resort	-10.8123
▁silhouette	-10.8123
▁stories	-10.8123
▁street	-10.8123
▁styling	-10.8123
▁sunscreen	-10.8123
▁uniform	-10.8123
▁volunteer	-10.8123
▁Provide	-10.8123
▁boat	-10.8123
▁cozy	-10.8123
▁gently	-10.8123
▁opportunities	-10.8123
▁sprout	-10.8123
▁cabinet	-10.8123
▁exceed	-10.8123
▁sincerity	-10.8123
▁peak	-10.8123
▁Old	-10.8123
▁extent	-10.8123
▁organizing	-10.8123
▁predict	-10.8123
▁composition	-10.8123
▁sufficient	-10.8123
▁grind	-10.8123
▁outstanding	-10.8123
▁society	-10.8123
▁Genera	-10.8123
▁yard	-10.8123
▁officetel	-10.8123
▁stem	-10.8123
▁honey	-10.8123
▁judge	-10.8123
▁habit	-10.8123
▁preferred	-10.8124
▁ease	-10.8124
▁calm	-10.8124
▁Anyone	-10.8124
▁restrict	-10.8124
▁decoration	-10.8124
▁expiration	-10.8124
▁hook	-10.8124
▁forgot	-10.8124
▁shake	-10.8124
▁withdraw	-10.8124
▁laser	-10.8124
▁liter	-10.8124
▁chef	-10.8124
▁factories	-10.8124
▁hint	-10.8124
▁route	-10.8125
▁toilet	-10.8125
▁concluded	-10.8125
▁functionality	-10.8125
▁assistant	-10.8125
▁insert	-10.8125
▁instructor	-10.8125
▁Long	-10.8126
▁cord	-10.8126
▁spent	-10.8126
▁labor	-10.8127
▁creative	-10.8127
▁finalize	-10.8127
▁satisfactory	-10.8127
▁Hmm	-10.8128
▁maximize	-10.8128
▁cleanser	-10.8128
▁sand	-10.8128
▁worse	-10.8128
▁insulated	-10.8128
▁attachment	-10.8129
▁gum	-10.813
▁BB	-10.813
▁potatoes	-10.8131
▁residential	-10.8131
fr	-10.8132
▁bath	-10.8132
▁July	-10.8132
hief	-10.8133
▁earn	-10.8133
▁disc	-10.8134
▁viewers	-10.8134
▁refreshing	-10.8134
▁Sound	-10.8135
▁melt	-10.8135
▁venue	-10.8135
▁slide	-10.8135
▁renewal	-10.8136
atch	-10.8137
▁designated	-10.8137
▁popularity	-10.8137
▁removal	-10.8138
unch	-10.8139
▁concentration	-10.8143
▁hyung	-10.8143
▁Appl	-10.8145
▁rod	-10.8146
▁highlight	-10.8147
▁pasta	-10.8147
▁tilt	-10.8148
▁temporar	-10.8149
▁30%	-10.8149
▁branches	-10.8149
▁shall	-10.815
ade	-10.8153
▁Seon	-10.8154
▁retailer	-10.8155
▁neatly	-10.8157
▁resolved	-10.8161
▁Chang	-10.8161
▁internally	-10.817
▁lu	-10.8173
▁positively	-10.8177
▁streaming	-10.8179
▁fa	-10.8181
▁noticed	-10.8183
▁wider	-10.8184
ept	-10.8187
▁distributed	-10.8194
▁drawing	-10.8194
▁folding	-10.8201
oli	-10.8202
▁5-	-10.8204
nge	-10.8208
▁fighting	-10.8216
▁affected	-10.8221
▁smaller	-10.8222
▁clinical	-10.8223
▁East	-10.8237
umb	-10.8249
▁Ms	-10.8261
▁cross	-10.8271
▁accordingly	-10.8274
▁hydra	-10.8283
▁spa	-10.8302
▁assets	-10.8304
dental	-10.8311
▁gifts	-10.8312
▁toward	-10.8317
▁ty	-10.8326
▁maintained	-10.8334
▁researchers	-10.8337
yang	-10.8344
shaped	-10.8349
▁engineers	-10.8371
▁improves	-10.8371
not	-10.8378
nter	-10.8388
▁procedures	-10.8388
▁listed	-10.8404
▁tickets	-10.8417
▁enclos	-10.842
▁ski	-10.8441
▁discussed	-10.8459
▁organizations	-10.8473
▁199	-10.8485
▁fo	-10.8513
▁allowed	-10.8514
▁filters	-10.8517
▁buyers	-10.8528
▁warehouses	-10.8536
gen	-10.855
▁chi	-10.8562
▁cleaned	-10.8592
▁spaces	-10.86
fer	-10.8607
bit	-10.8641
▁hurts	-10.8645
▁outdoors	-10.8674
▁desks	-10.8674
▁maker	-10.868
▁courses	-10.8684
▁die	-10.8688
▁movements	-10.8703
▁tables	-10.8716
lace	-10.8734
und	-10.8741
yo	-10.8786
▁Al	-10.8793
▁mon	-10.8797
▁develops	-10.8812
▁matters	-10.8848
▁settings	-10.8849
▁Abo	-10.8862
bout	-10.8863
▁operates	-10.8864
ink	-10.8864
▁meaning	-10.8875
▁exports	-10.8876
▁bottles	-10.8883
pper	-10.8899
▁contracts	-10.8916
3.	-10.892
▁engineer	-10.8935
▁cooperat	-10.8949
▁brochure	-10.8966
▁tree	-10.8974
▁drone	-10.8978
▁egg	-10.8982
▁ages	-10.8984
▁kid	-10.8984
▁shoe	-10.8985
hy	-10.8986
mon	-10.8991
▁sometime	-10.9008
hwa	-10.9019
rge	-10.9019
▁buildings	-10.9022
▁Y	-10.9057
▁Gi	-10.9076
▁analyz	-10.9079
▁cables	-10.9087
▁dig	-10.9094
▁author	-10.91
▁manag	-10.9144
▁manufacturers	-10.9148
tion	-10.9152
J	-10.9154
style	-10.9157
▁breaks	-10.9159
band	-10.9162
driving	-10.9163
body	-10.9164
large	-10.9164
▁reservations	-10.9166
▁sta	-10.9168
▁tape	-10.917
▁aid	-10.9171
long	-10.9178
▁follows	-10.9184
▁talent	-10.92
▁fail	-10.9202
▁decrease	-10.9205
▁tradition	-10.9213
▁accumulate	-10.9213
▁faci	-10.9217
▁bow	-10.9223
▁slight	-10.9229
▁Four	-10.923
aught	-10.9233
▁tap	-10.9233
ompatible	-10.9233
▁hygienic	-10.9233
ordinary	-10.9234
▁knit	-10.9234
▁sustainab	-10.9234
▁Special	-10.9234
▁strawberry	-10.9234
evitably	-10.9234
hui	-10.9234
▁Answer	-10.9234
▁Association	-10.9234
▁Australia	-10.9234
▁French	-10.9234
▁Manufactur	-10.9234
▁Safety	-10.9234
▁Woah	-10.9234
▁YouTube	-10.9234
▁administrator	-10.9234
▁agencies	-10.9234
▁anxious	-10.9234
▁babies	-10.9234
▁backpack	-10.9234
▁challenging	-10.9234
▁conclusion	-10.9234
▁corporation	-10.9234
▁counseling	-10.9234
▁counselor	-10.9234
▁dynamic	-10.9234
▁encounter	-10.9234
▁exciting	-10.9234
▁exterior	-10.9234
▁fleece	-10.9234
▁gloss	-10.9234
▁guidance	-10.9234
▁homepage	-10.9234
▁liquor	-10.9234
▁memories	-10.9234
▁numerous	-10.9234
▁parcel	-10.9234
▁phenomenon	-10.9234
▁plenty	-10.9234
▁polyester	-10.9234
▁population	-10.9234
▁promoting	-10.9234
▁queries	-10.9234
▁raising	-10.9234
▁recharge	-10.9234
▁retreat	-10.9234
▁sundae	-10.9234
▁superior	-10.9234
▁transmission	-10.9234
▁urban	-10.9234
▁Again	-10.9234
▁burst	-10.9234
▁expire	-10.9234
▁fault	-10.9234
▁headphones	-10.9234
▁nitr	-10.9234
▁softener	-10.9234
▁Dream	-10.9234
▁animation	-10.9234
▁indicate	-10.9234
▁Turn	-10.9234
▁strip	-10.9234
▁2022	-10.9234
▁Interest	-10.9234
▁entry	-10.9234
▁sunglasses	-10.9234
▁congratulations	-10.9234
▁historical	-10.9234
▁Sometimes	-10.9234
▁edition	-10.9234
▁laboratory	-10.9234
▁roof	-10.9234
▁curtain	-10.9234
▁pension	-10.9234
▁tomato	-10.9234
▁college	-10.9234
▁outfit	-10.9234
▁pilot	-10.9234
▁waistband	-10.9234
▁vibration	-10.9234
▁boy	-10.9234
▁wallet	-10.9234
▁pride	-10.9234
▁revenue	-10.9234
▁slim	-10.9234
▁Plus	-10.9235
▁zipper	-10.9235
▁seafood	-10.9235
▁scrap	-10.9235
▁path	-10.9235
▁trash	-10.9235
▁insulation	-10.9235
▁wool	-10.9235
▁OOO	-10.9235
▁beginner	-10.9235
▁tall	-10.9235
▁Simpl	-10.9235
▁interface	-10.9235
▁slice	-10.9235
▁flour	-10.9236
▁authority	-10.9236
▁broad	-10.9236
▁elasticity	-10.9236
iliar	-10.9236
▁pouch	-10.9237
▁diverse	-10.9237
▁Rather	-10.9237
▁gun	-10.9237
▁fluor	-10.9237
▁hydro	-10.9237
▁spli	-10.9238
▁distributor	-10.9238
▁Brother	-10.9238
▁Kong	-10.9238
▁mug	-10.9238
▁overlap	-10.9238
▁inches	-10.9238
▁photography	-10.9238
▁specifically	-10.9239
▁restore	-10.9239
▁specified	-10.9239
▁Additionally	-10.924
▁impressed	-10.924
▁wonderful	-10.9241
▁Wash	-10.9242
▁unfortunately	-10.9242
▁endure	-10.9242
▁Green	-10.9242
▁Press	-10.9243
▁Par	-10.9243
▁youngest	-10.9243
▁roughly	-10.9245
▁trial	-10.9246
▁Che	-10.9246
▁chewy	-10.9247
woo	-10.9247
seong	-10.9247
▁savory	-10.9248
▁parties	-10.9249
▁precise	-10.925
▁virus	-10.925
▁Say	-10.9252
▁Yoon	-10.9252
▁suspended	-10.926
▁mechanic	-10.9265
▁cater	-10.9265
▁density	-10.9265
▁span	-10.9268
▁seeds	-10.9268
▁gap	-10.9269
▁More	-10.9271
▁Tae	-10.928
▁crying	-10.928
▁Too	-10.9285
▁wired	-10.9287
▁reasons	-10.929
,500	-10.929
▁effectively	-10.929
▁implemented	-10.9293
bin	-10.9297
ray	-10.9297
▁bak	-10.93
▁mattress	-10.9303
▁shea	-10.9305
seon	-10.9307
▁del	-10.9312
▁aspects	-10.9312
▁earphones	-10.9312
▁regularly	-10.9312
▁pushing	-10.9314
amino	-10.9314
nis	-10.9316
▁theme	-10.9329
▁Young	-10.933
▁hosting	-10.933
ogen	-10.9337
ick	-10.9337
▁soju	-10.9338
▁conveniently	-10.9344
▁widely	-10.9344
▁reserved	-10.9351
▁linked	-10.9352
▁traveler	-10.9355
▁expanded	-10.9358
▁secured	-10.9358
▁buttons	-10.936
ec	-10.9366
▁2-	-10.9367
▁institutions	-10.9375
▁Cha	-10.9375
▁displayed	-10.9377
▁tablet	-10.9381
gro	-10.9388
▁lightly	-10.9392
▁Hall	-10.9395
ward	-10.9403
▁teaching	-10.9406
▁focused	-10.9406
▁animals	-10.9406
▁settle	-10.9408
▁handled	-10.9434
▁ju	-10.9435
▁sooner	-10.9468
▁drie	-10.9469
▁notes	-10.9473
cut	-10.9473
▁flu	-10.9491
▁trees	-10.9501
▁watched	-10.9502
▁swi	-10.9503
▁boiling	-10.9508
▁stat	-10.9533
▁sheets	-10.9533
▁Car	-10.9543
▁sa	-10.955
▁breaking	-10.9576
▁replying	-10.9619
▁Jung	-10.9625
her	-10.9647
▁supported	-10.9698
▁styles	-10.9703
lined	-10.9723
▁agents	-10.9725
▁supplements	-10.9727
ari	-10.973
▁cow	-10.977
▁notifications	-10.979
▁ori	-10.981
av	-10.9811
▁sole	-10.9814
▁characters	-10.9823
▁testing	-10.9835
phon	-10.9836
▁preventing	-10.9839
▁commemorat	-10.9843
DC	-10.9891
▁Wan	-10.9901
ending	-10.9923
▁pill	-10.9935
▁bike	-10.9941
mmer	-10.9942
ja	-10.9942
▁war	-10.9947
▁Sp	-10.9962
▁marin	-10.9968
pped	-10.9981
polo	-10.9986
▁Sea	-10.9987
▁relationships	-10.9991
cro	-11.0052
▁messages	-11.0154
▁prior	-11.0154
▁links	-11.0157
▁fil	-11.0159
▁sl	-11.0161
▁meetings	-11.0177
most	-11.0181
ified	-11.0184
▁tests	-11.0191
▁turbine	-11.0216
▁fans	-11.0224
▁wave	-11.0224
▁saving	-11.0228
▁din	-11.0235
▁languages	-11.0256
▁charges	-11.0277
▁sterilize	-11.029
cho	-11.0293
wesome	-11.0295
▁400	-11.0299
▁reinforce	-11.0301
▁accounts	-11.0303
▁tra	-11.0304
▁apple	-11.0307
▁Any	-11.0311
iti	-11.0315
▁apartments	-11.0324
ook	-11.0342
down	-11.0346
▁clinic	-11.0359
rok	-11.036
▁displays	-11.0362
▁trim	-11.0383
▁suppliers	-11.0392
graph	-11.0411
power	-11.0413
class	-11.0413
point	-11.0413
color	-11.0414
stick	-11.0416
hour	-11.0418
▁admit	-11.0419
month	-11.0421
▁ships	-11.0422
ix	-11.0429
▁stream	-11.0439
▁applie	-11.0457
▁customize	-11.0458
▁premiums	-11.0461
▁frequent	-11.047
▁chew	-11.0472
oo	-11.0478
▁eliminate	-11.048
▁inspect	-11.0481
▁drain	-11.0483
▁congratulat	-11.0484
▁academi	-11.0484
▁authentic	-11.0484
▁bubble	-11.0484
▁perfume	-11.0484
▁permanent	-11.0484
▁polite	-11.0484
▁Delivery	-11.0484
▁London	-11.0484
▁Mountain	-11.0484
▁Oppa	-11.0484
▁Suddenly	-11.0484
▁Third	-11.0484
▁adopted	-11.0484
▁annoying	-11.0484
▁awkward	-11.0484
▁bamboo	-11.0484
▁breathable	-11.0484
▁breathe	-11.0484
▁bulgogi	-11.0484
▁cabbage	-11.0484
▁ceiling	-11.0484
▁climb	-11.0484
▁concrete	-11.0484
▁dancing	-11.0484
▁demonstration	-11.0484
▁description	-11.0484
▁diagnosis	-11.0484
▁dictionary	-11.0484
▁entrepreneurs	-11.0484
▁episode	-11.0484
▁families	-11.0484
▁guitar	-11.0484
▁hanok	-11.0484
▁happily	-11.0484
▁margin	-11.0484
▁misunderstand	-11.0484
▁module	-11.0484
▁pancake	-11.0484
▁plain	-11.0484
▁pollution	-11.0484
▁portfolio	-11.0484
▁preserve	-11.0484
▁productivity	-11.0484
▁quarantine	-11.0484
▁quote	-11.0484
▁shrimp	-11.0484
▁silk	-11.0484
▁studied	-11.0484
▁surf	-11.0484
▁telephone	-11.0484
▁trademark	-11.0484
▁unfamiliar	-11.0484
▁comprehensive	-11.0484
▁smile	-11.0484
▁workshop	-11.0484
▁Play	-11.0484
▁birds	-11.0484
▁freezer	-11.0484
▁rinse	-11.0484
▁sky	-11.0484
▁stove	-11.0484
▁vertical	-11.0484
▁mower	-11.0484
▁bearings	-11.0484
▁absorption	-11.0484
▁sauna	-11.0484
▁Otherwise	-11.0484
▁attractions	-11.0484
▁soccer	-11.0484
▁adventure	-11.0484
▁random	-11.0484
▁crystal	-11.0484
▁induction	-11.0484
▁Market	-11.0484
▁pretend	-11.0484
▁lining	-11.0484
▁primar	-11.0484
▁Micro	-11.0484
▁exposure	-11.0485
▁Cheong	-11.0485
▁convention	-11.0485
▁Happ	-11.0485
▁beige	-11.0485
▁crack	-11.0485
▁dioxide	-11.0485
▁began	-11.0485
▁lift	-11.0485
▁sharing	-11.0485
▁inspir	-11.0485
▁retirement	-11.0485
▁plus	-11.0485
▁screw	-11.0485
▁celebration	-11.0485
▁criteria	-11.0485
▁handsome	-11.0485
▁subscribers	-11.0485
dden	-11.0485
▁spot	-11.0485
▁injection	-11.0485
▁Stand	-11.0486
ustion	-11.0486
▁gear	-11.0486
▁legend	-11.0486
▁winner	-11.0486
▁delete	-11.0486
▁duck	-11.0486
▁alive	-11.0486
▁Rock	-11.0486
▁bump	-11.0487
▁Home	-11.0487
▁stimulate	-11.0487
▁lifestyle	-11.0487
▁UV	-11.0488
▁sleeve	-11.0488
ridge	-11.0488
▁headset	-11.0488
▁Later	-11.0488
▁sew	-11.0488
▁VR	-11.0488
▁buck	-11.0489
▁Germany	-11.0489
▁implementation	-11.0489
▁World	-11.049
▁precision	-11.049
▁confused	-11.049
▁medal	-11.049
▁exception	-11.049
▁pour	-11.049
▁Mean	-11.0491
▁specialty	-11.0492
▁Absolutely	-11.0492
▁systematic	-11.0492
▁format	-11.0492
▁Line	-11.0493
▁Boss	-11.0494
▁realize	-11.0494
hoon	-11.0494
▁visitors	-11.0494
▁consistently	-11.0495
▁exhausted	-11.0496
hyeong	-11.0496
▁Day	-11.0496
▁hip	-11.0496
▁pig	-11.0497
▁risks	-11.0497
▁hose	-11.0498
gung	-11.0499
▁Art	-11.0499
▁sitting	-11.05
▁15%	-11.05
▁29	-11.0501
▁Fight	-11.0504
▁shorten	-11.0504
▁controlled	-11.0504
▁pop	-11.0505
▁thicker	-11.0507
▁Move	-11.0508
▁disappointing	-11.0508
▁200,000	-11.0509
▁taxi	-11.0509
▁revised	-11.0509
▁startup	-11.0512
▁tru	-11.0513
▁packs	-11.0513
▁Gae	-11.0514
▁intestine	-11.0517
ura	-11.0518
▁prevention	-11.0519
▁vote	-11.0519
▁CD	-11.052
98	-11.0522
▁poly	-11.0527
▁clearer	-11.0527
▁Hand	-11.0529
▁l	-11.0532
▁uploaded	-11.0532
▁2,000	-11.0532
▁log	-11.0534
▁Real	-11.0535
▁20,000	-11.0538
shirt	-11.0541
All	-11.0542
▁stopp	-11.0543
▁padding	-11.0552
infra	-11.0553
▁publisher	-11.0553
▁supplemented	-11.0557
▁gram	-11.056
▁deeply	-11.0564
site	-11.0569
▁marked	-11.0578
▁wirelessly	-11.0579
▁Mom	-11.0585
▁carrots	-11.0609
▁deliciously	-11.0637
▁causes	-11.0648
jang	-11.0659
nna	-11.066
▁classifi	-11.067
▁useless	-11.0674
▁payments	-11.0677
▁tasks	-11.0681
▁shades	-11.0681
▁coins	-11.0681
▁1.5	-11.0681
▁inner	-11.0705
▁choices	-11.0705
▁platforms	-11.0705
▁nicely	-11.0713
▁ro	-11.0718
▁totally	-11.0721
▁00	-11.0724
position	-11.0742
▁fare	-11.0747
▁optimiz	-11.0755
BS	-11.0759
3,000	-11.0767
▁bend	-11.0777
▁difficulty	-11.0786
▁survive	-11.0791
▁reader	-11.0797
ager	-11.0801
intend	-11.0836
uch	-11.0846
▁banks	-11.0847
our	-11.0871
▁x	-11.0887
▁musical	-11.0891
▁doll	-11.0894
▁finishing	-11.0896
▁warming	-11.0915
yu	-11.0917
▁Exi	-11.0939
ification	-11.1001
▁centers	-11.1009
▁flavors	-11.101
▁signals	-11.101
TT	-11.1023
▁transmit	-11.1036
40	-11.1042
▁arms	-11.1047
▁writers	-11.1054
▁wondering	-11.1066
▁textbooks	-11.1084
▁onion	-11.1108
▁ovens	-11.1121
▁tu	-11.1127
uff	-11.113
▁350	-11.1142
▁occurs	-11.1159
▁Soo	-11.1159
▁J	-11.1161
▁padd	-11.117
▁matur	-11.1193
▁weekends	-11.1197
dam	-11.1199
▁medicines	-11.12
▁colored	-11.1214
eries	-11.1219
ral	-11.1231
▁insist	-11.1261
65	-11.1273
eath	-11.1287
▁carbonate	-11.1307
ude	-11.1331
▁joints	-11.1349
▁commit	-11.138
▁opens	-11.1405
vel	-11.1419
▁scents	-11.1425
▁moves	-11.1442
▁bars	-11.1451
▁imports	-11.1454
ood	-11.146
▁structures	-11.1462
part	-11.1472
▁Bu	-11.1476
▁Sun	-11.148
▁33	-11.1481
▁arts	-11.1493
▁Fo	-11.1503
▁IP	-11.1505
▁Ko	-11.1512
▁stages	-11.1541
▁Seo	-11.1563
▁cultur	-11.1587
▁h	-11.1593
▁Ye	-11.1617
▁inspections	-11.1619
led	-11.1634
cher	-11.1635
ney	-11.1637
▁26	-11.164
▁mineral	-11.1645
▁installment	-11.1653
▁55	-11.1654
▁acquaintance	-11.1657
▁executive	-11.1658
▁graphic	-11.1658
▁resource	-11.166
▁dumpling	-11.166
▁cosmetic	-11.1661
▁vegetable	-11.1661
onic	-11.1676
▁recommendation	-11.1686
▁spec	-11.1696
▁pin	-11.1699
▁letters	-11.1699
SA	-11.1702
▁tast	-11.1705
▁states	-11.1709
▁answering	-11.1727
vailable	-11.1727
▁asset	-11.1736
▁determin	-11.1792
▁researcher	-11.1801
mission	-11.1832
paper	-11.1832
clear	-11.1837
▁chips	-11.1838
▁cloth	-11.1839
piece	-11.1839
effective	-11.1841
fold	-11.1842
while	-11.1842
▁compete	-11.1844
wide	-11.1846
▁camp	-11.1849
sales	-11.1853
▁Sta	-11.1868
▁broke	-11.1872
▁reveal	-11.1878
▁suspend	-11.1879
▁obtain	-11.1879
▁Africa	-11.1883
▁revise	-11.1884
▁comp	-11.189
▁intuitive	-11.1897
▁rough	-11.1898
▁thorough	-11.1899
▁dirt	-11.1899
appointed	-11.19
▁purifie	-11.1902
▁chip	-11.1905
▁Tak	-11.1906
▁matte	-11.1907
▁sandwich	-11.1907
▁Yo	-11.1908
xcellent	-11.1909
▁extensi	-11.1911
▁quant	-11.1911
ecutive	-11.1912
▁guard	-11.1912
▁birth	-11.1912
▁clip	-11.1912
▁emerg	-11.1912
estival	-11.1913
frequency	-11.1913
inflammatory	-11.1913
parallel	-11.1913
▁Choose	-11.1913
▁Entertainment	-11.1913
▁Exactly	-11.1913
▁Girl	-11.1913
▁Institute	-11.1913
▁Malaysia	-11.1913
▁Ministry	-11.1913
▁Regard	-11.1913
▁Research	-11.1913
▁SEO	-11.1913
▁Seriously	-11.1913
▁Street	-11.1913
▁Ugh	-11.1913
▁Women	-11.1913
▁affairs	-11.1913
▁allergies	-11.1913
▁alright	-11.1913
▁ambitious	-11.1913
▁assembly	-11.1913
▁attribute	-11.1913
▁buffet	-11.1913
▁calculating	-11.1913
▁cashmere	-11.1913
▁category	-11.1913
▁collaborating	-11.1913
▁conversion	-11.1913
▁coordinat	-11.1913
▁correspond	-11.1913
▁craftsmanship	-11.1913
▁disposable	-11.1913
▁district	-11.1913
▁elderly	-11.1913
▁envelope	-11.1913
▁ergonomic	-11.1913
▁fantastic	-11.1913
▁faucet	-11.1913
▁fragrant	-11.1913
▁identify	-11.1913
▁inevitable	-11.1913
▁inexpensive	-11.1913
▁jewelry	-11.1913
▁mussel	-11.1913
▁mutual	-11.1913
▁nozzle	-11.1913
▁paprika	-11.1913
▁piston	-11.1913
▁promising	-11.1913
▁questionnaire	-11.1913
▁scholar	-11.1913
▁scientific	-11.1913
▁scope	-11.1913
▁somewhat	-11.1913
▁speech	-11.1913
▁spirit	-11.1913
▁stomach	-11.1913
▁strike	-11.1913
▁surveillance	-11.1913
▁suspension	-11.1913
▁symbol	-11.1913
▁utensils	-11.1913
▁vacant	-11.1913
▁vegan	-11.1913
▁California	-11.1913
▁Lower	-11.1913
▁arrest	-11.1913
▁barrier	-11.1913
▁grooming	-11.1913
▁pollutants	-11.1913
▁vendor	-11.1913
▁Collect	-11.1913
▁coast	-11.1913
▁compartment	-11.1913
▁denim	-11.1913
▁jaw	-11.1913
▁shaking	-11.1913
▁bleeding	-11.1913
▁loop	-11.1913
▁spill	-11.1913
▁tourism	-11.1913
▁comedian	-11.1913
▁zone	-11.1913
▁combining	-11.1913
▁court	-11.1913
▁mild	-11.1913
▁nationwide	-11.1913
▁rail	-11.1913
▁soothe	-11.1913
▁lobby	-11.1913
▁dispatch	-11.1913
▁engage	-11.1913
▁aroma	-11.1913
▁Robot	-11.1913
▁minus	-11.1913
▁tteokbokki	-11.1913
▁apology	-11.1913
▁kiss	-11.1913
▁river	-11.1913
▁Italian	-11.1913
▁terminal	-11.1913
▁genre	-11.1913
▁permit	-11.1913
▁encryption	-11.1913
▁Found	-11.1913
▁genetic	-11.1913
▁kidney	-11.1913
▁vital	-11.1913
▁minor	-11.1913
▁technological	-11.1913
▁examine	-11.1913
▁shift	-11.1913
▁decade	-11.1913
▁lipstick	-11.1913
▁booth	-11.1913
▁circulation	-11.1913
▁expertise	-11.1913
elecommunication	-11.1913
▁tale	-11.1913
▁scanning	-11.1913
▁Sunday	-11.1913
▁Back	-11.1913
▁moist	-11.1913
▁departure	-11.1913
▁fift	-11.1913
▁Jack	-11.1913
▁rust	-11.1913
▁death	-11.1913
▁desktop	-11.1914
▁rare	-11.1914
▁navigation	-11.1914
▁humidity	-11.1914
▁winning	-11.1914
▁clarify	-11.1914
▁polish	-11.1914
▁ultimate	-11.1914
▁cryptocurrency	-11.1914
▁himself	-11.1914
▁meaningful	-11.1914
care	-11.1914
▁shame	-11.1914
▁Super	-11.1914
▁Under	-11.1914
▁fool	-11.1914
▁breast	-11.1914
▁Ouch	-11.1914
▁objective	-11.1914
▁Food	-11.1915
▁radish	-11.1915
▁chili	-11.1915
▁semi	-11.1915
▁assistance	-11.1915
▁relation	-11.1915
▁peroxide	-11.1915
▁GPS	-11.1915
▁sink	-11.1915
▁worldwide	-11.1916
▁programming	-11.1916
▁grab	-11.1916
▁cutlet	-11.1916
▁skincare	-11.1916
▁vol	-11.1917
▁Cover	-11.1917
▁curry	-11.1917
▁patch	-11.1917
▁mole	-11.1917
▁announcement	-11.1917
eering	-11.1918
▁Earth	-11.1918
▁farmers	-11.1918
▁crispy	-11.1918
▁straw	-11.1919
▁hybrid	-11.1919
▁Ready	-11.1919
▁Sechan	-11.192
▁Never	-11.1921
▁hitch	-11.1921
▁pyeong	-11.1922
▁Spa	-11.1923
▁Seokjin	-11.1923
▁shortage	-11.1923
▁novel	-11.1923
rise	-11.1923
▁syn	-11.1924
▁personality	-11.1924
▁passion	-11.1926
▁construct	-11.1927
▁selection	-11.1927
▁lifetime	-11.1927
▁Stay	-11.1928
ayment	-11.1928
▁Pass	-11.193
▁brighter	-11.193
▁250	-11.1931
▁Dae	-11.1931
▁microscope	-11.1931
▁Light	-11.1931
▁softness	-11.1932
▁obvious	-11.1934
▁Call	-11.1934
▁assembled	-11.1935
▁strive	-11.1938
▁highway	-11.1939
▁upset	-11.194
▁recycling	-11.1941
▁portal	-11.1942
▁soared	-11.1942
▁band	-11.1943
▁palm	-11.1943
▁summarize	-11.1946
▁pity	-11.1946
▁revealed	-11.1947
▁lucky	-11.1948
▁2000	-11.1948
38	-11.1954
▁explod	-11.1958
▁lawn	-11.1959
gil	-11.196
▁depth	-11.1964
▁hospitals	-11.1964
magnetic	-11.1964
▁casual	-11.1966
▁rating	-11.1969
▁heel	-11.1971
▁urgently	-11.1971
▁sneakers	-11.1976
▁symptoms	-11.1976
▁realized	-11.1976
▁tire	-11.1976
▁honestly	-11.1978
▁icon	-11.1979
▁appeared	-11.198
vast	-11.1982
▁coal	-11.1984
ntage	-11.1984
▁cleanl	-11.1984
▁drawer	-11.1995
▁soda	-11.1996
▁Nam	-11.1998
▁van	-11.2001
MP	-11.2003
dol	-11.2005
▁eli	-11.2007
▁treated	-11.2012
▁cla	-11.2012
▁safer	-11.2014
▁kilograms	-11.2017
▁emissions	-11.2017
▁bam	-11.2029
▁nap	-11.2036
▁32	-11.2037
▁flying	-11.204
▁rumors	-11.2058
▁bugs	-11.2058
▁investments	-11.2059
loc	-11.2059
▁foreigners	-11.2073
▁cooler	-11.2097
▁Woo	-11.2105
▁zip	-11.2113
▁seam	-11.2123
25	-11.2123
▁holders	-11.2124
▁ok	-11.2125
tain	-11.2137
▁800	-11.2139
▁achievements	-11.2142
▁Dis	-11.2148
▁packaged	-11.2159
istics	-11.2171
▁cl	-11.218
▁acting	-11.2189
900	-11.2193
▁Da	-11.2196
▁picked	-11.2198
son	-11.2202
▁bin	-11.2205
▁tent	-11.2206
▁Every	-11.2212
▁Ju	-11.2218
▁waves	-11.2222
▁apples	-11.2226
ptic	-11.223
bsolutely	-11.2245
▁officer	-11.2247
▁Sc	-11.2254
▁brushing	-11.2256
lock	-11.2271
▁24-	-11.2275
▁theater	-11.2279
▁transferr	-11.2297
eep	-11.2299
▁pickle	-11.23
▁Products	-11.2306
▁cats	-11.231
▁articles	-11.2311
▁elements	-11.2312
▁negotiations	-11.2312
▁satellites	-11.2312
▁weighs	-11.2314
▁awards	-11.2315
▁su	-11.2316
vas	-11.2316
▁emphasize	-11.2335
▁focusing	-11.2348
▁happening	-11.2348
▁surroundings	-11.2354
▁Eat	-11.2368
▁stayed	-11.2368
▁Mar	-11.2371
▁sum	-11.2387
▁recipes	-11.2397
▁topics	-11.2398
▁tips	-11.2398
It	-11.2427
▁outputs	-11.244
izing	-11.2443
sium	-11.2467
▁drops	-11.2468
▁coupons	-11.2484
uous	-11.2489
▁toys	-11.249
▁Seve	-11.2492
size	-11.2516
▁screening	-11.2522
met	-11.2525
▁refunded	-11.2531
▁speakers	-11.2537
▁outer	-11.2554
▁discussions	-11.2571
▁vitamins	-11.259
esel	-11.2597
▁patterns	-11.2615
▁spoons	-11.2615
▁cafes	-11.2618
▁fell	-11.2625
ater	-11.2631
▁seller	-11.2633
ouch	-11.2651
▁Sol	-11.2654
▁pots	-11.2654
▁31	-11.2678
pray	-11.2679
log	-11.2683
▁acids	-11.2695
▁fibers	-11.2703
▁trends	-11.2711
▁plates	-11.275
sumed	-11.2776
▁labels	-11.2781
89	-11.2806
▁react	-11.2809
ider	-11.2815
▁130	-11.2844
veral	-11.287
▁motors	-11.2882
▁falls	-11.2889
cific	-11.289
istic	-11.2898
Hyeon	-11.2924
▁loans	-11.2927
▁mm	-11.2942
asse	-11.2949
▁locks	-11.2962
▁sn	-11.2974
▁Top	-11.2994
800	-11.2995
▁Free	-11.3003
56	-11.3004
▁Gla	-11.301
ield	-11.3027
val	-11.303
myeon	-11.3044
▁000	-11.3051
▁compress	-11.306
▁wraps	-11.3071
win	-11.3107
▁lend	-11.3111
▁generat	-11.313
ops	-11.315
▁neur	-11.3158
apo	-11.3161
▁posts	-11.3179
▁Hu	-11.3199
▁Men	-11.3222
purpose	-11.3234
TO	-11.3304
▁lecture	-11.3312
▁task	-11.3318
▁shade	-11.3319
▁animal	-11.332
▁achievement	-11.332
▁substance	-11.3325
▁sport	-11.3329
▁dollar	-11.3335
▁coin	-11.3345
▁Fu	-11.335
▁Hye	-11.3359
ibility	-11.3382
▁AA	-11.3389
acy	-11.3452
▁recover	-11.3493
grade	-11.3497
je	-11.3499
▁approach	-11.35
wheat	-11.3501
holder	-11.3502
300	-11.3504
play	-11.3506
back	-11.3507
bacteria	-11.3507
grain	-11.3507
limited	-11.3508
Seok	-11.3508
performance	-11.3509
function	-11.3509
step	-11.3509
food	-11.351
tech	-11.351
▁plac	-11.3511
Jin	-11.3511
you	-11.3512
Pa	-11.3519
cheon	-11.3519
▁bake	-11.3526
Min	-11.353
▁decid	-11.3534
▁scar	-11.3535
▁wor	-11.3543
▁faith	-11.3544
▁Yoo	-11.3556
cell	-11.3557
ged	-11.3558
ranging	-11.3561
▁trail	-11.3562
▁equal	-11.3564
▁leisure	-11.3564
▁upgrade	-11.3564
▁silicon	-11.3565
▁cry	-11.3567
▁comput	-11.3572
▁relie	-11.3572
▁consistent	-11.3574
▁cultivat	-11.3576
▁Hyun	-11.3576
▁Cut	-11.3577
touch	-11.3577
▁mill	-11.3577
▁dai	-11.3577
▁replenish	-11.3578
▁advertise	-11.3578
▁shut	-11.3579
ressive	-11.3579
▁Continu	-11.3579
▁Featur	-11.3579
▁provision	-11.3579
▁simulat	-11.3579
dimensional	-11.3579
▁Adjust	-11.3579
▁Black	-11.3579
▁CPU	-11.3579
▁Certainly	-11.3579
▁Chicken	-11.3579
▁Compani	-11.3579
▁Computer	-11.3579
▁Definitely	-11.3579
▁ERP	-11.3579
▁Electronic	-11.3579
▁Hahaha	-11.3579
▁Hospital	-11.3579
▁Hwang	-11.3579
▁Kimchi	-11.3579
▁Kitchen	-11.3579
▁Shipping	-11.3579
▁Support	-11.3579
▁Switch	-11.3579
▁Tokyo	-11.3579
▁Trust	-11.3579
▁Ttuwalgi	-11.3579
▁advise	-11.3579
▁aircraft	-11.3579
▁algorithm	-11.3579
▁although	-11.3579
▁antioxidant	-11.3579
▁anxiety	-11.3579
▁ashamed	-11.3579
▁associate	-11.3579
▁association	-11.3579
▁assurance	-11.3579
▁augment	-11.3579
▁background	-11.3579
▁bankrupt	-11.3579
▁bidding	-11.3579
▁bodies	-11.3579
▁breathing	-11.3579
▁calculation	-11.3579
▁charcoal	-11.3579
▁clutch	-11.3579
▁command	-11.3579
▁concentrate	-11.3579
▁courier	-11.3579
▁criminal	-11.3579
▁cucumber	-11.3579
▁cycle	-11.3579
▁embroider	-11.3579
▁essence	-11.3579
▁excuse	-11.3579
▁eyebrow	-11.3579
▁fatigue	-11.3579
▁fusion	-11.3579
▁garbage	-11.3579
▁ghost	-11.3579
▁gimbap	-11.3579
▁girlfriend	-11.3579
▁grandmother	-11.3579
▁happiness	-11.3579
▁hormones	-11.3579
▁hygiene	-11.3579
▁hypoallergenic	-11.3579
▁identity	-11.3579
▁journey	-11.3579
▁judgment	-11.3579
▁landlord	-11.3579
▁lounge	-11.3579
▁meticulous	-11.3579
▁microfiber	-11.3579
▁motorcycle	-11.3579
▁nowadays	-11.3579
▁osteoporosis	-11.3579
▁overview	-11.3579
▁pencil	-11.3579
▁pesticide	-11.3579
▁punishment	-11.3579
▁recruit	-11.3579
▁seedlings	-11.3579
▁semester	-11.3579
▁smoking	-11.3579
▁splash	-11.3579
▁steadily	-11.3579
▁stroller	-11.3579
▁studies	-11.3579
▁suspicious	-11.3579
▁television	-11.3579
▁tongue	-11.3579
▁typhoons	-11.3579
▁ugly	-11.3579
▁utility	-11.3579
▁wrench	-11.3579
▁2019	-11.3579
▁Blue	-11.3579
▁France	-11.3579
▁coconut	-11.3579
▁commission	-11.3579
▁eventually	-11.3579
▁interruption	-11.3579
▁knee	-11.3579
▁passport	-11.3579
▁phase	-11.3579
▁salad	-11.3579
ventilat	-11.3579
▁National	-11.3579
▁deduction	-11.3579
▁drum	-11.3579
▁escap	-11.3579
▁horizontal	-11.3579
▁royal	-11.3579
▁shuttle	-11.3579
▁cattle	-11.3579
▁crime	-11.3579
▁frag	-11.3579
▁serum	-11.3579
▁slippers	-11.3579
▁stamp	-11.3579
▁false	-11.3579
▁stairs	-11.3579
▁recipient	-11.3579
onestly	-11.3579
▁Shin	-11.3579
▁domain	-11.3579
▁pace	-11.3579
▁carpet	-11.3579
▁dementia	-11.3579
▁noisy	-11.3579
▁strawberries	-11.3579
▁diversify	-11.3579
▁webtoon	-11.3579
▁brass	-11.358
▁lady	-11.358
viation	-11.358
▁boring	-11.358
▁ripped	-11.358
▁cradle	-11.358
▁exempt	-11.358
LCD	-11.358
▁versatile	-11.358
▁afterwards	-11.358
▁Control	-11.358
▁emit	-11.358
▁dough	-11.358
▁Protect	-11.358
▁steady	-11.358
▁Daegu	-11.358
▁immers	-11.358
▁Honey	-11.358
▁central	-11.358
▁scientists	-11.358
▁argu	-11.358
▁begun	-11.358
▁Port	-11.358
koung	-11.358
▁alloy	-11.358
▁traction	-11.358
▁decline	-11.358
▁reopen	-11.358
▁Cell	-11.358
▁extraordinary	-11.358
▁incident	-11.358
▁Hahahaha	-11.3581
obile	-11.3581
▁Price	-11.3581
▁Bank	-11.3581
ropoli	-11.3581
▁hygienically	-11.3581
▁refin	-11.3581
▁tuna	-11.3581
▁flash	-11.3581
▁whitening	-11.3581
▁indeed	-11.3581
▁enterprise	-11.3582
▁hostel	-11.3582
▁lung	-11.3582
RW	-11.3582
▁brake	-11.3582
▁settlement	-11.3582
▁infection	-11.3582
▁bland	-11.3582
▁insane	-11.3582
▁mango	-11.3582
▁crew	-11.3582
▁earnest	-11.3583
▁ownership	-11.3583
▁Carbon	-11.3583
▁permission	-11.3583
▁hide	-11.3583
▁involved	-11.3583
▁accessible	-11.3583
▁dating	-11.3583
▁brightness	-11.3583
▁incorrectly	-11.3584
nspir	-11.3584
▁secretary	-11.3584
▁Gang	-11.3584
▁healthier	-11.3584
▁south	-11.3584
DF	-11.3585
ography	-11.3585
▁diary	-11.3585
kuk	-11.3586
▁surge	-11.3586
▁pores	-11.3586
▁Haha	-11.3586
▁mall	-11.3586
▁2020	-11.3586
▁defense	-11.3586
▁considerate	-11.3586
▁chest	-11.3587
▁straighten	-11.3587
▁corrosion	-11.3587
▁suppress	-11.3587
▁translated	-11.3588
▁mice	-11.3588
▁90%	-11.3588
▁truth	-11.3588
▁viruses	-11.3588
▁explore	-11.3589
▁360	-11.3589
▁Beach	-11.3591
▁outsole	-11.3591
▁Club	-11.3592
▁detachable	-11.3592
▁partial	-11.3592
▁hanger	-11.3592
▁robotic	-11.3592
▁Show	-11.3593
▁identified	-11.3593
▁OO	-11.3593
▁improvement	-11.3593
▁employ	-11.3594
▁Five	-11.3594
▁Cute	-11.3594
▁dear	-11.3595
▁vest	-11.3596
itch	-11.3596
ourse	-11.3597
▁discharged	-11.3598
▁billion	-11.3598
▁48	-11.36
▁roasting	-11.36
▁lenses	-11.36
▁tension	-11.3601
▁shabu	-11.3601
▁bitter	-11.3603
▁intensive	-11.3603
▁described	-11.3603
▁sprinkl	-11.3604
uce	-11.3604
hood	-11.3604
▁Ear	-11.3606
▁rip	-11.3611
▁Sae	-11.3613
▁Mac	-11.3614
▁male	-11.3614
▁1%	-11.3618
▁fryer	-11.3619
▁hir	-11.3621
▁Whoa	-11.3622
▁roller	-11.3623
▁clam	-11.3623
▁ambi	-11.3623
▁decreased	-11.3625
▁warning	-11.3626
▁greeting	-11.3626
▁wise	-11.3628
▁setup	-11.3629
▁HD	-11.363
▁Yeo	-11.363
▁costume	-11.3632
▁refuse	-11.3632
▁confidently	-11.3633
▁occasion	-11.3633
▁Air	-11.3633
▁talented	-11.3634
▁Pen	-11.3634
▁adhesive	-11.3636
▁arrow	-11.3636
▁endless	-11.3637
▁quietly	-11.3638
▁risen	-11.3639
▁dyed	-11.3641
▁scissors	-11.3643
▁shelf	-11.3643
▁derive	-11.3644
▁folded	-11.3647
fat	-11.3648
iving	-11.3651
▁recovering	-11.3652
▁approaching	-11.3653
▁gathered	-11.3653
▁particles	-11.3655
▁Leav	-11.3655
▁math	-11.366
uction	-11.3661
▁banding	-11.3666
▁Find	-11.3667
▁utilized	-11.3669
▁manually	-11.3671
▁1000	-11.3676
▁Ri	-11.3677
▁cam	-11.3677
▁stressed	-11.3679
seo	-11.3683
▁Yun	-11.3685
▁lighter	-11.3688
aged	-11.369
going	-11.3692
Data	-11.3699
▁determined	-11.3699
▁semiconductors	-11.3704
▁lately	-11.3712
▁contractor	-11.3712
lio	-11.3716
▁cookie	-11.372
▁closer	-11.3724
▁liver	-11.3725
▁projector	-11.373
▁formal	-11.3736
▁funding	-11.374
▁balanced	-11.375
▁importer	-11.375
▁tenants	-11.3754
▁chill	-11.3755
▁locally	-11.3766
▁Aha	-11.377
aven	-11.3785
case	-11.3788
▁tear	-11.3798
umble	-11.38
▁oily	-11.3804
9.9	-11.3836
▁packed	-11.3839
▁Choi	-11.3847
▁lovely	-11.3848
▁steriliz	-11.3848
life	-11.385
▁lectures	-11.3854
▁malls	-11.3855
OS	-11.3858
tast	-11.3866
▁mixing	-11.3871
yi	-11.3873
embe	-11.3877
▁kilo	-11.3883
zo	-11.3891
▁worker	-11.3892
▁rub	-11.3897
▁minerals	-11.3905
▁installments	-11.3905
▁pins	-11.3906
▁recommendations	-11.3911
▁targeting	-11.3948
▁turbines	-11.3956
▁soar	-11.396
▁Le	-11.3963
▁unnecessar	-11.3963
▁island	-11.3965
15	-11.3972
▁clock	-11.3988
▁Ham	-11.3991
▁tablets	-11.4007
▁brochures	-11.4007
lap	-11.4025
erra	-11.4048
▁beverages	-11.4058
▁disadvantages	-11.4058
▁odors	-11.4058
▁roots	-11.4058
▁Her	-11.4068
▁Salt	-11.4089
▁Dep	-11.4095
inate	-11.412
▁donation	-11.4124
▁stocked	-11.4133
▁watery	-11.414
RM	-11.414
▁disclose	-11.4142
▁reporting	-11.4146
▁leaks	-11.4195
state	-11.4196
▁Buy	-11.4207
▁Gl	-11.4225
▁discipline	-11.4226
▁viewing	-11.4229
▁squeeze	-11.4233
oxide	-11.4264
▁reproduce	-11.4264
▁propos	-11.4278
600	-11.4278
roid	-11.4299
▁Store	-11.4339
▁memo	-11.4344
▁Ja	-11.4356
▁Set	-11.4357
▁rat	-11.436
fine	-11.4488
ome	-11.4493
abilities	-11.4497
▁urge	-11.4516
▁36	-11.4521
ago	-11.4535
bris	-11.4543
▁continu	-11.4595
1,000	-11.4602
rive	-11.4689
▁fea	-11.4695
▁interacti	-11.4751
tended	-11.4812
ister	-11.4819
▁Rai	-11.4845
jo	-11.4847
gible	-11.4858
▁featur	-11.4867
ik	-11.4881
▁lac	-11.4882
ane	-11.492
yong	-11.493
▁solv	-11.4962
pher	-11.5011
▁pil	-11.503
inous	-11.5065
ko	-11.5087
ump	-11.5097
▁Dan	-11.5151
▁War	-11.5158
ool	-11.5161
have	-11.5169
anda	-11.5182
ometer	-11.5183
bbing	-11.5196
uri	-11.5203
ode	-11.5205
air	-11.5224
teri	-11.524
tex	-11.525
gang	-11.5251
arine	-11.5253
82	-11.5256
himi	-11.5258
▁99	-11.5283
una	-11.5285
ave	-11.5295
▁institution	-11.532
▁Customer	-11.5325
▁colleague	-11.5326
▁glove	-11.5326
▁component	-11.5326
▁noodle	-11.5331
▁investor	-11.5342
ummer	-11.5357
Ha	-11.5391
rtificial	-11.5391
▁differentiate	-11.5392
dvance	-11.5394
▁focuse	-11.5397
nea	-11.5413
▁je	-11.5415
dded	-11.5415
making	-11.5418
▁relat	-11.542
▁ammoni	-11.5451
tention	-11.546
hee	-11.5483
▁Bio	-11.5491
sole	-11.5495
scissors	-11.5503
shelf	-11.5503
flow	-11.5503
Y	-11.5504
generation	-11.5505
▁magne	-11.5505
profit	-11.5507
derive	-11.5507
foot	-11.5508
company	-11.5509
well	-11.551
writ	-11.551
▁holder	-11.551
young	-11.5511
check	-11.5511
will	-11.5513
box	-11.5513
watch	-11.5513
game	-11.5514
electric	-11.5515
▁excellen	-11.5523
000	-11.5528
▁Nu	-11.5529
cost	-11.5535
▁restock	-11.5544
echnology	-11.5547
▁describe	-11.555
▁Note	-11.555
▁divide	-11.5551
tract	-11.5552
▁surprise	-11.5552
▁medicin	-11.556
▁architectur	-11.5564
▁unfortunate	-11.5565
▁quart	-11.5565
Su	-11.5566
▁emergenc	-11.5566
▁agg	-11.5567
fficient	-11.5575
▁manipulat	-11.5575
▁possess	-11.5576
▁toast	-11.5576
▁transform	-11.5577
▁tail	-11.5577
▁Bae	-11.5578
quar	-11.5578
▁terra	-11.5578
ontact	-11.5578
overnment	-11.5579
▁hobb	-11.5579
licious	-11.5579
▁Thai	-11.5579
▁represent	-11.5579
▁neighbor	-11.5579
verseas	-11.5579
▁drastic	-11.5579
vocab	-11.5579
▁Shoot	-11.5579
▁disinfect	-11.5579
arbecue	-11.5579
▁Agricultur	-11.5579
▁Challenge	-11.5579
▁Comfort	-11.5579
▁Correct	-11.5579
▁Daniel	-11.5579
▁Department	-11.5579
▁Digit	-11.5579
▁Drug	-11.5579
▁GPU	-11.5579
▁HACCP	-11.5579
▁MRI	-11.5579
▁Natural	-11.5579
▁Nevertheless	-11.5579
▁Pfizer	-11.5579
▁Russia	-11.5579
▁Strawberry	-11.5579
▁Sweet	-11.5579
▁Taiwan	-11.5579
▁VIP	-11.5579
▁absence	-11.5579
▁absurd	-11.5579
▁academy	-11.5579
▁accuracy	-11.5579
▁adhesion	-11.5579
▁annoyed	-11.5579
▁bracelet	-11.5579
▁brillian	-11.5579
▁bulbs	-11.5579
▁caffeine	-11.5579
▁calculator	-11.5579
▁calorie	-11.5579
▁chalk	-11.5579
▁chestnut	-11.5579
▁circle	-11.5579
▁clarity	-11.5579
▁commodities	-11.5579
▁communicating	-11.5579
▁confusion	-11.5579
▁connectivity	-11.5579
▁crypto	-11.5579
▁curriculum	-11.5579
▁diagnose	-11.5579
▁diameter	-11.5579
▁dimensions	-11.5579
▁earthquake	-11.5579
▁editor	-11.5579
▁embarrassing	-11.5579
▁examination	-11.5579
▁eyeshadow	-11.5579
▁fascinat	-11.5579
▁female	-11.5579
▁gasoline	-11.5579
▁gourmet	-11.5579
▁helmet	-11.5579
▁hologra	-11.5579
▁incredible	-11.5579
▁incredibly	-11.5579
▁indicator	-11.5579
▁invented	-11.5579
▁invention	-11.5579
▁keyword	-11.5579
▁legitimate	-11.5579
▁livestock	-11.5579
▁mafia	-11.5579
▁monkfish	-11.5579
▁negligence	-11.5579
▁neutral	-11.5579
▁nickname	-11.5579
▁nutrient	-11.5579
▁obstacle	-11.5579
▁overcharged	-11.5579
▁oxygen	-11.5579
▁palette	-11.5579
▁phrase	-11.5579
▁plaque	-11.5579
▁police	-11.5579
▁presence	-11.5579
▁proportion	-11.5579
▁pumpkin	-11.5579
▁qualification	-11.5579
▁qualified	-11.5579
▁racing	-11.5579
▁reconsider	-11.5579
▁regulate	-11.5579
▁replied	-11.5579
▁salmon	-11.5579
▁scenario	-11.5579
▁slippery	-11.5579
▁slogan	-11.5579
▁sponsor	-11.5579
▁strategic	-11.5579
▁syrup	-11.5579
▁thread	-11.5579
▁transplant	-11.5579
▁tunnel	-11.5579
▁ultraviolet	-11.5579
▁vegetarian	-11.5579
▁vocal	-11.5579
▁BPA	-11.5579
▁Baby	-11.5579
▁Build	-11.5579
▁Business	-11.5579
▁Half	-11.5579
▁attempt	-11.5579
▁bundle	-11.5579
▁burdensome	-11.5579
▁collaborate	-11.5579
▁delicate	-11.5579
▁desperate	-11.5579
▁elegan	-11.5579
▁enthusiast	-11.5579
▁germs	-11.5579
▁liberal	-11.5579
▁omitted	-11.5579
▁political	-11.5579
▁reverse	-11.5579
▁ridiculous	-11.5579
▁soothing	-11.5579
▁stably	-11.5579
▁velvet	-11.5579
▁visibility	-11.5579
▁workplace	-11.5579
precedent	-11.5579
▁Flex	-11.5579
▁Power	-11.5579
▁Reduce	-11.5579
▁agenda	-11.5579
▁amenities	-11.5579
▁basket	-11.5579
▁latte	-11.5579
▁refill	-11.5579
▁simultaneous	-11.5579
▁suitcases	-11.5579
▁Color	-11.5579
▁Double	-11.5579
▁Olympics	-11.5579
▁Personal	-11.5579
▁wax	-11.5579
▁audit	-11.5579
▁bidet	-11.5579
▁Defen	-11.5579
▁voting	-11.5579
▁Greetings	-11.5579
▁assign	-11.5579
▁bionics	-11.5579
▁dropped	-11.5579
▁rescue	-11.5579
▁lamp	-11.5579
furnished	-11.5579
▁White	-11.5579
dilute	-11.5579
▁Normal	-11.5579
▁alarms	-11.5579
▁peel	-11.5579
▁rugged	-11.5579
▁bored	-11.5579
▁threat	-11.5579
▁Help	-11.5579
▁Program	-11.5579
▁dormitory	-11.5579
▁Morning	-11.558
▁communities	-11.558
▁defeat	-11.558
▁goosebumps	-11.558
▁prioritize	-11.558
▁ruin	-11.558
▁steal	-11.558
jja	-11.558
▁infant	-11.558
▁Teacher	-11.558
▁Woojae	-11.558
▁accommodate	-11.558
▁crowdfunding	-11.558
▁comic	-11.558
▁polymer	-11.558
▁dense	-11.558
▁configuration	-11.558
▁modified	-11.558
ological	-11.558
▁bleach	-11.558
▁tripod	-11.558
▁Motor	-11.558
▁reorganize	-11.558
▁Gangwon	-11.558
▁shortcomings	-11.558
▁securities	-11.558
▁lump	-11.558
▁IOT	-11.558
▁Prize	-11.558
▁Thailand	-11.558
▁lottery	-11.558
▁2021	-11.558
▁devi	-11.558
▁outerwear	-11.558
▁circuit	-11.558
▁modify	-11.558
▁thigh	-11.558
▁collar	-11.558
▁tofu	-11.558
▁latch	-11.558
▁Single	-11.558
▁excessive	-11.558
▁Grand	-11.558
▁reception	-11.558
▁spark	-11.558
▁Western	-11.558
▁Think	-11.558
▁metabus	-11.558
▁Ramen	-11.558
▁Hanok	-11.558
▁disappointment	-11.558
▁electromagnetic	-11.558
▁irre	-11.558
▁FDA	-11.558
▁hobbies	-11.558
▁Write	-11.558
▁wiring	-11.558
▁pedal	-11.558
▁fluid	-11.5581
▁amplifier	-11.5581
▁wiping	-11.5581
▁stack	-11.5581
▁Room	-11.5581
gnition	-11.5581
▁Yong	-11.5581
▁fulfill	-11.5581
▁resin	-11.5581
▁confidential	-11.5581
▁copper	-11.5581
▁twin	-11.5581
▁impos	-11.5581
▁utilization	-11.5582
▁Chef	-11.5582
▁brag	-11.5582
▁cried	-11.5582
▁dude	-11.5582
▁Kwangsoo	-11.5582
▁transformation	-11.5582
▁explosion	-11.5582
▁antique	-11.5582
▁automation	-11.5582
▁hung	-11.5582
▁token	-11.5583
▁condo	-11.5583
▁digesti	-11.5583
▁extension	-11.5583
▁reward	-11.5583
▁deform	-11.5583
▁Work	-11.5583
finite	-11.5583
▁coke	-11.5583
▁Estate	-11.5583
▁motivat	-11.5583
▁radius	-11.5583
▁temper	-11.5583
▁resell	-11.5583
▁verify	-11.5583
▁Visi	-11.5583
enzy	-11.5584
▁handmade	-11.5584
▁bait	-11.5584
▁Kang	-11.5584
▁defend	-11.5584
▁meaningless	-11.5584
▁tint	-11.5585
▁footage	-11.5585
▁Hanam	-11.5585
▁1.3	-11.5585
aneous	-11.5586
▁personalized	-11.5586
▁Pick	-11.5586
▁aunt	-11.5586
uitable	-11.5586
▁explosi	-11.5586
cient	-11.5586
▁fermentation	-11.5587
▁mint	-11.5588
▁fig	-11.5588
▁pregnant	-11.5588
▁execut	-11.5588
▁mod	-11.5588
▁Myeong	-11.5589
▁contaminat	-11.5589
▁underway	-11.5589
▁Ultra	-11.5589
agger	-11.559
▁airline	-11.559
▁140	-11.559
▁Bong	-11.5591
,200	-11.5591
▁town	-11.5591
▁residue	-11.5591
▁refreshed	-11.5592
▁roasted	-11.5592
suit	-11.5592
▁hub	-11.5592
▁barely	-11.5592
▁Apart	-11.5594
▁mustard	-11.5594
lsan	-11.5594
▁Italy	-11.5595
▁specialist	-11.5595
▁varieties	-11.5596
▁reminder	-11.5596
▁detection	-11.5599
▁excluded	-11.5599
▁repeated	-11.5599
▁iP	-11.56
zel	-11.56
▁Americano	-11.5601
▁peaceful	-11.5601
▁bass	-11.5601
hye	-11.5601
▁comply	-11.5601
vity	-11.5603
▁MC	-11.5603
otic	-11.5604
▁remodeling	-11.5604
▁PM	-11.5605
▁Gra	-11.5606
▁Sports	-11.5606
▁deliveries	-11.5606
▁earth	-11.5606
rising	-11.5607
jae	-11.5609
▁parent	-11.561
▁Full	-11.5611
▁Fac	-11.5615
▁inflation	-11.5616
▁Boy	-11.5617
▁creator	-11.5618
atory	-11.5619
▁Team	-11.562
▁brushes	-11.562
▁detector	-11.5623
▁2%	-11.5623
▁greasy	-11.5623
▁aging	-11.5624
▁closure	-11.5627
▁insight	-11.5628
▁Soft	-11.5629
▁cleansing	-11.563
▁Wor	-11.5631
▁washable	-11.5631
▁eel	-11.5632
▁dip	-11.5633
▁torn	-11.5635
▁remotely	-11.5639
▁definition	-11.5641
▁eliminated	-11.5642
▁publication	-11.5645
▁firmly	-11.5646
▁smoked	-11.5649
▁acquisition	-11.565
▁rude	-11.565
▁rotate	-11.5651
▁lying	-11.5654
▁pushed	-11.5655
rade	-11.5656
nish	-11.5657
▁relaxed	-11.5663
ugg	-11.5665
▁tid	-11.5666
▁bent	-11.5671
▁citizens	-11.5673
▁dangers	-11.5673
▁tech	-11.5674
▁hood	-11.5675
▁trained	-11.568
▁bulky	-11.5681
▁shorter	-11.5688
▁wheat	-11.5689
native	-11.5695
▁belong	-11.5696
NE	-11.5697
94	-11.57
▁graph	-11.5707
▁risky	-11.5711
▁65	-11.5719
▁loaded	-11.5719
▁concerned	-11.5721
cceleration	-11.5729
▁Ask	-11.573
ctual	-11.5732
▁mounted	-11.5733
▁union	-11.5738
reach	-11.5738
▁steamed	-11.5743
▁burdened	-11.5743
▁filmed	-11.5744
▁ran	-11.5749
▁hy	-11.575
▁hanging	-11.5754
▁picky	-11.5757
fly	-11.5762
▁detected	-11.5768
▁Hydroge	-11.577
roll	-11.577
uxe	-11.5775
▁pr	-11.578
▁beard	-11.58
▁swing	-11.5808
Hui	-11.5828
▁trap	-11.5837
▁upon	-11.5841
▁measured	-11.5845
deok	-11.5847
scent	-11.5862
▁pressed	-11.5863
▁performing	-11.5872
▁died	-11.5877
▁authorize	-11.5878
▁none	-11.5887
▁reinforc	-11.5892
▁pal	-11.5895
activate	-11.5913
▁triple	-11.5916
aker	-11.5921
▁Done	-11.5942
han	-11.5945
zed	-11.6009
Wh	-11.6027
▁wearer	-11.6066
CO	-11.6081
inal	-11.6092
icul	-11.6099
bel	-11.6108
▁supervis	-11.6129
100	-11.6187
▁rec	-11.619
▁Wear	-11.6211
▁infect	-11.6216
app	-11.6216
AC	-11.6217
active	-11.623
▁shi	-11.628
lick	-11.6283
star	-11.6367
▁por	-11.6383
▁interfere	-11.6401
▁triang	-11.6421
▁col	-11.6442
No	-11.6456
oki	-11.6472
▁graduate	-11.6589
▁convinc	-11.6612
agging	-11.6617
hone	-11.6617
▁reache	-11.6661
▁lim	-11.6663
91	-11.6665
neu	-11.6667
yaki	-11.667
▁Tea	-11.6681
ided	-11.6692
nti	-11.6728
lobal	-11.6731
ancy	-11.6736
fore	-11.6747
▁urg	-11.6767
▁interact	-11.6792
Ho	-11.6817
▁convince	-11.6894
▁gate	-11.6958
▁donate	-11.6959
ncy	-11.6974
▁Bra	-11.6994
▁transmitt	-11.6996
axi	-11.7017
55	-11.7061
▁oxid	-11.7081
ork	-11.7091
lish	-11.7095
ference	-11.7112
inder	-11.7121
otto	-11.7122
inner	-11.7166
▁separat	-11.7206
▁lov	-11.7229
▁op	-11.7264
▁rad	-11.7302
▁sanitize	-11.7355
skit	-11.7409
▁Pri	-11.7486
▁bare	-11.7496
▁controll	-11.752
pite	-11.7593
▁85	-11.7594
hea	-11.7604
posed	-11.7609
▁visualiz	-11.7626
lac	-11.7628
SI	-11.7647
▁cra	-11.7673
▁PE	-11.7681
▁125	-11.7725
raised	-11.7727
▁welcom	-11.7728
cement	-11.7734
▁AS	-11.7749
▁compet	-11.7815
▁rumor	-11.7816
eria	-11.7818
▁carrot	-11.7818
▁tenant	-11.7821
▁bug	-11.7826
▁rule	-11.7827
▁appliance	-11.7829
▁expense	-11.783
▁inhibit	-11.7848
▁requirement	-11.7848
▁foreigner	-11.79
mate	-11.79
Chan	-11.7906
▁Star	-11.7913
▁distribut	-11.7934
▁fro	-11.7947
▁Bul	-11.7969
▁utiliz	-11.7978
▁180	-11.7983
low	-11.7984
source	-11.7991
oven	-11.7994
definition	-11.8001
depth	-11.8004
fare	-11.8005
density	-11.8005
breaking	-11.8005
degree	-11.8005
resistance	-11.8006
▁greet	-11.8007
weak	-11.8007
activity	-11.8007
loved	-11.8007
parents	-11.8007
efficiency	-11.8008
cancer	-11.8008
family	-11.8009
together	-11.8009
AAA	-11.8009
▁surround	-11.801
vote	-11.801
You	-11.801
The	-11.8017
▁summar	-11.8023
▁secur	-11.8023
▁fla	-11.8026
▁organ	-11.803
bone	-11.8033
▁striv	-11.8033
▁releas	-11.8033
ID	-11.8035
ologist	-11.8036
party	-11.8037
structi	-11.8038
▁LA	-11.8042
▁def	-11.8043
section	-11.8044
▁Office	-11.8048
lution	-11.8048
ssured	-11.805
▁discharge	-11.805
▁boost	-11.805
▁assemble	-11.805
▁approve	-11.8052
▁satisfie	-11.8052
FT	-11.8057
App	-11.8057
gyeong	-11.806
▁caf	-11.8064
▁residu	-11.8064
▁Additional	-11.8065
▁Kind	-11.8065
▁definite	-11.8068
▁origin	-11.8069
▁Admi	-11.8072
▁stimul	-11.8073
▁significant	-11.8076
hyun	-11.8076
reviously	-11.8076
▁interpret	-11.8077
▁convey	-11.8077
▁abnormal	-11.8077
▁humid	-11.8078
▁automat	-11.8078
▁univers	-11.8078
▁retire	-11.8078
reakfast	-11.8078
arranty	-11.8079
magine	-11.8079
ndustrial	-11.8079
nvestment	-11.8079
phic	-11.8079
adian	-11.8079
gnant	-11.8079
▁Photo	-11.8079
rgon	-11.8079
▁loyal	-11.8079
nformation	-11.8079
▁decorati	-11.8079
▁equi	-11.8079
jeong	-11.8079
berries	-11.8079
configur	-11.8079
▁telecom	-11.8079
▁Profess	-11.8079
▁allergy	-11.8079
▁exfoliat	-11.8079
▁mosquito	-11.8079
▁twent	-11.8079
Together	-11.8079
commerce	-11.8079
oriented	-11.8079
upermarket	-11.8079
▁Cheonan	-11.8079
▁Coffee	-11.8079
▁Condition	-11.8079
▁Corona	-11.8079
▁Customize	-11.8079
▁Egypt	-11.8079
▁Fruit	-11.8079
▁Hawaii	-11.8079
▁Individual	-11.8079
▁Jennie	-11.8079
▁Lightweight	-11.8079
▁Management	-11.8079
▁Mexic	-11.8079
▁Mosquito	-11.8079
▁OEM	-11.8079
▁Optimiz	-11.8079
▁Option	-11.8079
▁President	-11.8079
▁Purchas	-11.8079
▁RAM	-11.8079
▁SUV	-11.8079
▁School	-11.8079
▁Studi	-11.8079
▁System	-11.8079
▁Throw	-11.8079
▁Travel	-11.8079
▁Wolf	-11.8079
▁Yonsei	-11.8079
▁accomplish	-11.8079
▁acoustic	-11.8079
▁additives	-11.8079
▁antibiotic	-11.8079
▁approval	-11.8079
▁argh	-11.8079
▁assessment	-11.8079
▁autumn	-11.8079
▁avocado	-11.8079
▁bandwidth	-11.8079
▁battle	-11.8079
▁battlefield	-11.8079
▁belief	-11.8079
▁bellflower	-11.8079
▁bibimbap	-11.8079
▁bound	-11.8079
▁bouquet	-11.8079
▁braces	-11.8079
▁breathability	-11.8079
▁cardigan	-11.8079
▁cartridges	-11.8079
▁cavities	-11.8079
▁celebrities	-11.8079
▁chandelier	-11.8079
▁collision	-11.8079
▁compatibility	-11.8079
▁concert	-11.8079
▁conflict	-11.8079
▁consignment	-11.8079
▁consumable	-11.8079
▁contrary	-11.8079
▁contrast	-11.8079
▁decorated	-11.8079
▁decreasing	-11.8079
▁default	-11.8079
▁depression	-11.8079
▁dismiss	-11.8079
▁distinguishe	-11.8079
▁disturb	-11.8079
▁downturn	-11.8079
▁drunk	-11.8079
▁engrave	-11.8079
▁evolv	-11.8079
▁expenditure	-11.8079
▁fraud	-11.8079
▁frustration	-11.8079
▁gamjatang	-11.8079
▁gentle	-11.8079
▁gesture	-11.8079
▁hamburger	-11.8079
▁hazard	-11.8079
▁identification	-11.8079
▁ignore	-11.8079
▁illustration	-11.8079
▁imprint	-11.8079
▁impurities	-11.8079
▁injuries	-11.8079
▁intelligent	-11.8079
▁jjamppong	-11.8079
▁journal	-11.8079
▁ketchup	-11.8079
▁kilometers	-11.8079
▁knead	-11.8079
▁lifespan	-11.8079
▁lukewarm	-11.8079
▁messenger	-11.8079
▁metaboli	-11.8079
▁microplastic	-11.8079
▁military	-11.8079
▁museum	-11.8079
▁napkins	-11.8079
▁newsletter	-11.8079
▁nourish	-11.8079
▁nutritious	-11.8079
▁obesity	-11.8079
▁oblig	-11.8079
▁obsess	-11.8079
▁pajama	-11.8079
▁pamphlet	-11.8079
▁passenger	-11.8079
▁penalties	-11.8079
▁plywood	-11.8079
▁portraits	-11.8079
▁preservative	-11.8079
▁protocol	-11.8079
▁punk	-11.8079
▁regulator	-11.8079
▁religio	-11.8079
▁relocation	-11.8079
▁revitalize	-11.8079
▁sausage	-11.8079
▁scattered	-11.8079
▁scooter	-11.8079
▁sebum	-11.8079
▁segment	-11.8079
▁shelves	-11.8079
▁shipbuilding	-11.8079
▁sophistication	-11.8079
▁stereo	-11.8079
▁stolen	-11.8079
▁struggle	-11.8079
▁struggling	-11.8079
▁subsidies	-11.8079
▁substitute	-11.8079
▁synergy	-11.8079
▁tamper	-11.8079
▁template	-11.8079
▁trigger	-11.8079
▁turbo	-11.8079
▁umbrella	-11.8079
▁unavoidable	-11.8079
▁unfair	-11.8079
▁unloading	-11.8079
▁yogurt	-11.8079
alaxy	-11.8079
baek	-11.8079
▁2016	-11.8079
▁Buddh	-11.8079
▁Complete	-11.8079
▁Counsel	-11.8079
▁Haeundae	-11.8079
▁Industry	-11.8079
▁Official	-11.8079
▁Strong	-11.8079
▁bankruptcy	-11.8079
▁carelessness	-11.8079
▁complement	-11.8079
▁firewall	-11.8079
▁hangover	-11.8079
▁illegal	-11.8079
▁imaging	-11.8079
▁kettle	-11.8079
▁landfill	-11.8079
▁lazy	-11.8079
▁memorable	-11.8079
▁neglect	-11.8079
▁pupp	-11.8079
▁ramp	-11.8079
▁ramyeon	-11.8079
▁romance	-11.8079
▁shadow	-11.8079
▁tartar	-11.8079
▁telescope	-11.8079
▁trunk	-11.8079
vinyl	-11.8079
▁Fresh	-11.8079
▁Gangnam	-11.8079
▁Goodbye	-11.8079
▁Model	-11.8079
▁asleep	-11.8079
▁clue	-11.8079
▁conceal	-11.8079
▁diaper	-11.8079
▁edited	-11.8079
▁flakes	-11.8079
▁harmony	-11.8079
▁moderate	-11.8079
▁motel	-11.8079
▁pulse	-11.8079
▁relay	-11.8079
▁remark	-11.8079
▁serial	-11.8079
▁sipp	-11.8079
▁snug	-11.8079
▁violate	-11.8079
▁witness	-11.8079
▁Geum	-11.8079
▁bookstore	-11.8079
▁database	-11.8079
▁fortune	-11.8079
▁illness	-11.8079
▁landscape	-11.8079
▁rush	-11.8079
▁skate	-11.8079
▁2014	-11.8079
▁analog	-11.8079
▁barley	-11.8079
▁braking	-11.8079
▁shaving	-11.8079
▁barrel	-11.8079
▁coronavirus	-11.8079
▁cube	-11.8079
▁jeans	-11.8079
▁layout	-11.8079
▁socket	-11.8079
▁sushi	-11.8079
▁Professional	-11.8079
▁capitalists	-11.8079
▁injury	-11.8079
▁lemon	-11.8079
▁prosthes	-11.8079
▁arbitrarily	-11.8079
▁sentence	-11.8079
▁Talk	-11.8079
▁distant	-11.8079
epellent	-11.8079
▁Risk	-11.8079
▁storm	-11.8079
lphabet	-11.8079
▁alert	-11.8079
▁leash	-11.8079
▁library	-11.8079
▁freshener	-11.808
▁goodbye	-11.808
embrane	-11.808
▁barefoot	-11.808
▁shiny	-11.808
▁disabled	-11.808
▁Pension	-11.808
▁volleyball	-11.808
▁revolution	-11.808
▁consistency	-11.808
▁exploring	-11.808
▁prettie	-11.808
▁entrust	-11.808
▁2011	-11.808
▁porridge	-11.808
▁Music	-11.808
▁colour	-11.808
▁shimmer	-11.808
▁Intelligence	-11.808
▁mobility	-11.808
▁cardio	-11.808
▁appeal	-11.808
copier	-11.808
▁nerve	-11.808
▁weapon	-11.808
▁campsite	-11.808
▁imagination	-11.808
▁geograph	-11.808
▁Married	-11.808
▁ecosystem	-11.808
▁briquette	-11.808
▁chopp	-11.808
▁shoelace	-11.808
▁jelly	-11.808
ylon	-11.808
▁knitwear	-11.808
▁negotiating	-11.808
▁hydration	-11.808
▁staple	-11.808
▁Left	-11.808
▁balm	-11.808
▁hatch	-11.808
▁motion	-11.808
▁rooftop	-11.808
▁Energ	-11.808
▁declare	-11.808
▁quiz	-11.808
▁heavi	-11.808
▁Drink	-11.808
▁Breath	-11.808
pliers	-11.808
▁biology	-11.808
▁occupation	-11.808
▁adhere	-11.808
▁Seongwoo	-11.808
▁slot	-11.808
▁IoT	-11.808
▁captain	-11.808
▁flame	-11.808
essel	-11.808
▁clipper	-11.8081
▁breed	-11.8081
▁Life	-11.8081
▁melon	-11.8081
▁tuned	-11.8081
▁Gift	-11.8081
▁owe	-11.8081
▁abdom	-11.8081
▁conceptual	-11.8081
▁enem	-11.8081
▁nine	-11.8081
Tex	-11.8081
▁Lisa	-11.8081
▁impression	-11.8081
▁Bibi	-11.8081
▁herself	-11.8081
▁tube	-11.8081
▁bakery	-11.8082
▁grape	-11.8082
▁Excel	-11.8082
▁omission	-11.8082
▁Fast	-11.8082
▁Jihye	-11.8082
▁Deok	-11.8082
▁Paris	-11.8082
▁freshwater	-11.8082
▁alternate	-11.8082
earby	-11.8082
▁multipurpose	-11.8082
▁sunlight	-11.8082
▁arch	-11.8082
ksha	-11.8082
▁diabetes	-11.8082
▁interpretation	-11.8082
▁opt	-11.8082
▁colon	-11.8082
▁fluent	-11.8083
▁terrace	-11.8083
▁Jongkook	-11.8083
▁2015	-11.8083
▁intake	-11.8083
▁capability	-11.8083
▁Wind	-11.8083
We	-11.8083
dispens	-11.8083
▁Pet	-11.8083
raft	-11.8083
▁intell	-11.8083
▁erased	-11.8083
▁Jongno	-11.8083
▁Stir	-11.8083
▁Watch	-11.8084
▁Luck	-11.8084
duct	-11.8084
iamond	-11.8084
▁brew	-11.8084
▁Key	-11.8084
▁extinguisher	-11.8084
▁documentary	-11.8084
▁rays	-11.8084
▁stake	-11.8084
▁deteriorated	-11.8084
▁possession	-11.8084
▁pitch	-11.8084
▁bold	-11.8085
▁bedding	-11.8085
▁painful	-11.8085
▁Hyung	-11.8085
▁remitted	-11.8085
▁shy	-11.8085
▁commercialized	-11.8085
▁Whew	-11.8085
▁cultivation	-11.8085
▁harmoni	-11.8086
▁crunchy	-11.8086
▁mindset	-11.8086
▁coding	-11.8086
▁flap	-11.8086
▁bonus	-11.8086
▁clamp	-11.8086
▁Charg	-11.8087
▁flaw	-11.8087
▁overflow	-11.8087
gwon	-11.8087
▁Order	-11.8087
▁2.5	-11.8087
▁crab	-11.8087
▁mile	-11.8088
▁otherwise	-11.8088
▁relaxation	-11.8088
▁unclear	-11.8088
▁recreat	-11.8088
▁sang	-11.8088
▁2008	-11.8089
▁thickness	-11.8089
▁endorse	-11.8089
Modern	-11.8089
artial	-11.809
▁Kid	-11.809
▁immigra	-11.809
uickly	-11.8091
▁sandwiches	-11.8091
▁ethic	-11.8091
▁awareness	-11.8092
▁OLED	-11.8092
▁catalyst	-11.8092
▁conferencing	-11.8092
▁Loo	-11.8092
▁RV	-11.8092
▁acknowledged	-11.8093
▁sati	-11.8093
▁dorm	-11.8093
▁stickers	-11.8094
▁mamm	-11.8095
▁outsource	-11.8095
▁Grill	-11.8095
DM	-11.8095
▁Yi	-11.8095
▁Fourth	-11.8095
bai	-11.8095
▁mining	-11.8096
orrow	-11.8096
▁uniqueness	-11.8096
▁creation	-11.8097
▁cutter	-11.8099
▁hospitality	-11.8099
omit	-11.8099
▁portion	-11.8099
▁architecture	-11.8099
▁Failed	-11.8099
▁hassle	-11.81
▁floss	-11.8101
▁penetrate	-11.8101
▁Bite	-11.8101
▁Durable	-11.8101
wort	-11.8101
▁1.2	-11.8102
▁compa	-11.8103
▁Jeong	-11.8104
▁equally	-11.8104
▁leisurely	-11.8104
▁Hang	-11.8105
▁tower	-11.8106
▁broker	-11.8106
▁symp	-11.8106
▁123	-11.8107
▁intuitively	-11.8108
▁CE	-11.8108
▁Tro	-11.8108
▁booster	-11.8109
▁upward	-11.8109
▁outward	-11.8114
▁metall	-11.8115
▁corne	-11.8115
▁tray	-11.8116
▁influencer	-11.8118
▁listings	-11.812
worker	-11.8122
▁mixer	-11.8122
▁Allow	-11.8122
▁Head	-11.8123
▁somehow	-11.8124
▁Coin	-11.8126
▁restocked	-11.8127
▁spare	-11.8128
▁sight	-11.8129
▁smoother	-11.8129
▁stranger	-11.813
▁Whoo	-11.8132
▁pine	-11.8133
▁African	-11.8134
LAN	-11.8134
▁overtime	-11.8136
▁sacrific	-11.8137
▁Tw	-11.8137
▁fle	-11.8139
▁Test	-11.8143
▁SD	-11.8147
▁alley	-11.8148
▁formation	-11.8149
▁tightly	-11.8153
▁Seol	-11.8155
eady	-11.8156
▁warn	-11.8156
▁matches	-11.8158
▁quitting	-11.8158
▁tir	-11.8158
▁stuffy	-11.8161
▁Tong	-11.8167
▁Ahh	-11.817
gged	-11.817
▁sticky	-11.8174
▁crossed	-11.8179
▁twisted	-11.8179
▁pic	-11.818
▁earned	-11.8181
▁trainer	-11.8184
▁tender	-11.8186
▁End	-11.8187
▁burner	-11.819
▁usability	-11.8191
emory	-11.8191
▁eva	-11.8192
ersion	-11.8195
albi	-11.8196
bility	-11.8197
▁Time	-11.8205
▁charm	-11.8205
aries	-11.821
▁Rin	-11.8218
▁gastr	-11.8219
▁colder	-11.8219
▁relate	-11.8223
jung	-11.8225
frost	-11.8227
▁transit	-11.8247
▁deli	-11.8252
▁banne	-11.828
▁taper	-11.8289
▁Chun	-11.8305
▁poster	-11.8327
▁differentiat	-11.8327
▁na	-11.8345
mediate	-11.8353
▁Ni	-11.8355
rison	-11.8361
▁trop	-11.8367
▁praise	-11.8368
inos	-11.8377
▁cooker	-11.8378
▁cran	-11.8389
redit	-11.8391
lmost	-11.8425
ST	-11.8456
nsa	-11.8456
digit	-11.8463
▁realiz	-11.8476
▁competen	-11.8485
▁defin	-11.8486
ER	-11.8523
▁oppo	-11.8542
▁specif	-11.8561
via	-11.859
occupy	-11.8594
▁Sub	-11.8597
▁Prim	-11.8602
▁User	-11.8634
▁fl	-11.8648
▁intentional	-11.8671
▁submitt	-11.8675
anned	-11.8735
HE	-11.8744
CR	-11.8758
▁har	-11.8772
izz	-11.8791
key	-11.8799
temporar	-11.8804
ural	-11.8905
▁Log	-11.8906
pending	-11.8908
ock	-11.8918
ora	-11.8942
compression	-11.8951
cious	-11.8965
jajangmyeon	-11.9089
asically	-11.9209
ixture	-11.9381
CT	-11.9422
▁assume	-11.9431
▁vig	-11.9504
ailure	-11.9516
▁drag	-11.9548
ua	-11.9588
ition	-11.961
▁bik	-11.9612
ility	-11.9646
▁Act	-11.9724
FC	-11.9783
AL	-11.9839
▁Gar	-11.9845
▁95	-11.9932
▁bon	-11.9939
▁jjajang	-12.0158
400,000	-12.0206
wel	-12.0298
▁160	-12.03
pping	-12.0323
rude	-12.0336
PP	-12.0373
ipe	-12.0383
▁Stor	-12.0446
erie	-12.0479
layered	-12.0496
mega	-12.0502
visor	-12.0547
▁absolute	-12.0583
therap	-12.067
▁Organi	-12.0676
added	-12.0733
▁flip	-12.075
▁economical	-12.0795
▁qui	-12.0839
▁Maj	-12.0919
plugs	-12.0998
mounted	-12.1021
▁Mak	-12.1056
▁critic	-12.1062
▁Chu	-12.1127
self	-12.1139
▁semiconductor	-12.1146
▁kilogram	-12.115
▁brow	-12.1153
▁earphone	-12.1154
▁aspect	-12.1154
▁competitor	-12.1157
▁emission	-12.1163
▁characteristic	-12.1163
patient	-12.1183
served	-12.1183
▁rotation	-12.1202
▁inject	-12.1205
utonomous	-12.122
▁Dar	-12.1221
ccessories	-12.1223
▁pota	-12.1237
▁Ox	-12.1246
imp	-12.1253
DA	-12.1259
door	-12.1265
iki	-12.127
▁align	-12.1278
lways	-12.1284
ough	-12.1285
olong	-12.1296
fused	-12.1298
▁disappoint	-12.1308
▁recycl	-12.1309
nstantly	-12.1321
risk	-12.1329
▁photograph	-12.1331
wise	-12.1332
authorize	-12.1335
greasy	-12.1335
solv	-12.1335
closure	-12.1337
Woo	-12.1339
virus	-12.1339
carbonate	-12.1339
concentration	-12.1339
respect	-12.1339
Yeon	-12.134
fashion	-12.134
flavor	-12.134
resolution	-12.134
open	-12.1341
connected	-12.1341
forget	-12.1341
Baek	-12.1341
national	-12.1341
born	-12.1341
distance	-12.1341
length	-12.1341
wife	-12.1342
satisfied	-12.1342
accept	-12.1342
strong	-12.1342
sound	-12.1342
alcohol	-12.1342
exist	-12.1343
However	-12.1343
service	-12.1344
safe	-12.1344
Hey	-12.1345
hyung	-12.1345
▁accord	-12.1346
HD	-12.1349
weigh	-12.1351
living	-12.1351
look	-12.1353
chain	-12.1358
rank	-12.1359
▁ensur	-12.1363
stream	-12.1367
lead	-12.1367
price	-12.1374
▁peace	-12.1375
▁slee	-12.1375
bak	-12.1377
▁exclud	-12.1377
▁repeat	-12.1377
▁exhaust	-12.1379
▁identifie	-12.1383
▁hug	-12.1385
▁suppose	-12.1385
▁Gree	-12.1386
boile	-12.1388
▁Auto	-12.1388
reeze	-12.1391
ntains	-12.1392
enhanc	-12.1392
▁plat	-12.1394
▁warehous	-12.1394
▁vulnerab	-12.1394
▁surg	-12.1398
▁defens	-12.1398
▁crisp	-12.1398
▁German	-12.1398
▁immediate	-12.1399
igures	-12.1403
pop	-12.1404
uick	-12.1404
▁loach	-12.1406
▁entertain	-12.1407
▁temp	-12.1408
▁Read	-12.1408
nterprise	-12.1408
▁fluctuat	-12.1409
▁inflat	-12.1409
▁jog	-12.1409
▁exhibit	-12.1409
▁Install	-12.141
ublic	-12.141
▁princip	-12.141
roperty	-12.141
▁regenerati	-12.141
▁responsi	-12.141
eason	-12.1411
atellite	-12.1411
eaweed	-12.1411
▁prosper	-12.1411
▁differ	-12.1411
▁curio	-12.1412
emperature	-12.1412
▁appeti	-12.1412
onsumer	-12.1412
reatment	-12.1412
ushion	-12.1412
itamin	-12.1412
evelopment	-12.1412
nsurance	-12.1412
iquette	-12.1412
leaning	-12.1412
cryption	-12.1412
tails	-12.1412
organisms	-12.1412
nowledge	-12.1412
sorption	-12.1412
cidentally	-12.1413
▁Child	-12.1413
discriminat	-12.1413
encrypt	-12.1413
▁Broadcast	-12.1413
robic	-12.1413
▁Occupa	-12.1413
▁accomodat	-12.1413
▁illuminat	-12.1413
▁thyroid	-12.1413
▁tremendous	-12.1413
▁turtle	-12.1413
altitude	-12.1413
assembling	-12.1413
chemistry	-12.1413
educat	-12.1413
ematical	-12.1413
espresso	-12.1413
mplify	-12.1413
ocardi	-12.1413
opathy	-12.1413
othermal	-12.1413
patitis	-12.1413
prescribe	-12.1413
refundable	-12.1413
responsibilities	-12.1413
terroris	-12.1413
trochemical	-12.1413
urmeric	-12.1413
▁Accept	-12.1413
▁AlphaGo	-12.1413
▁Analog	-12.1413
▁Beauty	-12.1413
▁Beijing	-12.1413
▁Bulgogi	-12.1413
▁Cloud	-12.1413
▁Construct	-12.1413
▁Convenien	-12.1413
▁Crazy	-12.1413
▁DNA	-12.1413
▁Daejeon	-12.1413
▁Direct	-12.1413
▁Dumpling	-12.1413
▁Establish	-12.1413
▁Ethiopia	-12.1413
▁Extreme	-12.1413
▁Foreign	-12.1413
▁GHz	-12.1413
▁Garlic	-12.1413
▁HDMI	-12.1413
▁Immediately	-12.1413
▁Independent	-12.1413
▁Junior	-12.1413
▁Kyung	-12.1413
▁Magazine	-12.1413
▁Method	-12.1413
▁Middle	-12.1413
▁Mugunghwa	-12.1413
▁Netflix	-12.1413
▁Netherlands	-12.1413
▁Nioxin	-12.1413
▁Nowadays	-12.1413
▁PRO	-12.1413
▁Pizza	-12.1413
▁Planning	-12.1413
▁Potatoes	-12.1413
▁Project	-12.1413
▁Province	-12.1413
▁Recording	-12.1413
▁Remember	-12.1413
▁SHI	-12.1413
▁SMEs	-12.1413
▁Salute	-12.1413
▁Saori	-12.1413
▁Shopping	-12.1413
▁Sleep	-12.1413
▁Thanksgiving	-12.1413
▁Thousand	-12.1413
▁Toowoomba	-12.1413
▁Turbo	-12.1413
▁Typical	-12.1413
▁Ulleung	-12.1413
▁VAT	-12.1413
▁Vehicle	-12.1413
▁Village	-12.1413
▁Virtua	-12.1413
▁Yulmu	-12.1413
▁accelerate	-12.1413
▁accompani	-12.1413
▁acquire	-12.1413
▁acrylic	-12.1413
▁adverse	-12.1413
▁aerospace	-12.1413
▁affinity	-12.1413
▁ambulance	-12.1413
▁applause	-12.1413
▁applicable	-12.1413
▁applicants	-12.1413
▁applicator	-12.1413
▁attitude	-12.1413
▁awaken	-12.1413
▁barcode	-12.1413
▁bargain	-12.1413
▁biscuit	-12.1413
▁blonde	-12.1413
▁blueprint	-12.1413
▁blush	-12.1413
▁bounc	-12.1413
▁boutique	-12.1413
▁bravo	-12.1413
▁caliber	-12.1413
▁candidate	-12.1413
▁capsule	-12.1413
▁carbohydrates	-12.1413
▁categories	-12.1413
▁century	-12.1413
▁chapter	-12.1413
▁cheonggukjang	-12.1413
▁chrysanthemum	-12.1413
▁citrus	-12.1413
▁clarification	-12.1413
▁collapse	-12.1413
▁collimator	-12.1413
▁commuting	-12.1413
▁compliance	-12.1413
▁compromise	-12.1413
▁condolence	-12.1413
▁condominium	-12.1413
▁confusing	-12.1413
▁continent	-12.1413
▁courage	-12.1413
▁crucial	-12.1413
▁cylinder	-12.1413
▁demonstrate	-12.1413
▁dentist	-12.1413
▁deployment	-12.1413
▁disagreement	-12.1413
▁discomfort	-12.1413
▁disruption	-12.1413
▁dissipat	-12.1413
▁division	-12.1413
▁earbud	-12.1413
▁eldest	-12.1413
▁electrodes	-12.1413
▁elevator	-12.1413
▁enforcement	-12.1413
▁enormous	-12.1413
▁excrement	-12.1413
▁exercising	-12.1413
▁experiencing	-12.1413
▁fertilizers	-12.1413
▁fierce	-12.1413
▁fingerprint	-12.1413
▁fingertips	-12.1413
▁fortunate	-12.1413
▁fossil	-12.1413
▁franchise	-12.1413
▁frequencies	-12.1413
▁frustrating	-12.1413
▁gigantic	-12.1413
▁gloomy	-12.1413
▁goddess	-12.1413
▁greedy	-12.1413
▁griddle	-12.1413
▁grocery	-12.1413
▁guiding	-12.1413
▁herbicides	-12.1413
▁idiom	-12.1413
▁inconsistent	-12.1413
▁intact	-12.1413
▁junior	-12.1413
▁kelp	-12.1413
▁league	-12.1413
▁literature	-12.1413
▁lonely	-12.1413
▁motorhome	-12.1413
▁mouthwash	-12.1413
▁mucosa	-12.1413
▁muffler	-12.1413
▁necessity	-12.1413
▁neither	-12.1413
▁numeric	-12.1413
▁orchestra	-12.1413
▁outbreak	-12.1413
▁pellet	-12.1413
▁penicilli	-12.1413
▁persimmon	-12.1413
▁pharmacy	-12.1413
▁philosophy	-12.1413
▁phishing	-12.1413
▁pierc	-12.1413
▁pineapple	-12.1413
▁pistol	-12.1413
▁poison	-12.1413
▁pollack	-12.1413
▁pomegranate	-12.1413
▁privacy	-12.1413
▁province	-12.1413
▁redesign	-12.1413
▁refrigerant	-12.1413
▁regain	-12.1413
▁regenerate	-12.1413
▁reimburse	-12.1413
▁repurchase	-12.1413
▁resilien	-12.1413
▁restructuring	-12.1413
▁revive	-12.1413
▁ribb	-12.1413
▁robust	-12.1413
▁roulette	-12.1413
▁routine	-12.1413
▁sampling	-12.1413
▁sarcopenia	-12.1413
▁screenshot	-12.1413
▁sequentially	-12.1413
▁simplified	-12.1413
▁sluggish	-12.1413
▁smiling	-12.1413
▁spaghetti	-12.1413
▁splatter	-12.1413
▁stiff	-12.1413
▁subtitles	-12.1413
▁sujebi	-12.1413
▁swallow	-12.1413
▁swollen	-12.1413
▁syllables	-12.1413
▁tackle	-12.1413
▁thermometer	-12.1413
▁thermostat	-12.1413
▁throat	-12.1413
▁thunderstorm	-12.1413
▁tobacco	-12.1413
▁toiletries	-12.1413
▁translator	-12.1413
▁tricky	-12.1413
▁tweezers	-12.1413
▁underground	-12.1413
▁unpleasant	-12.1413
▁unrivaled	-12.1413
▁vacancy	-12.1413
▁valley	-12.1413
▁vegetati	-12.1413
▁vinegar	-12.1413
▁waffle	-12.1413
▁whipped	-12.1413
▁whiske	-12.1413
▁wound	-12.1413
▁yolk	-12.1413
▁zinc	-12.1413
hopsticks	-12.1413
▁1080	-12.1413
▁Follow	-12.1413
▁Further	-12.1413
▁Plastic	-12.1413
▁abrasion	-12.1413
▁clench	-12.1413
▁cyber	-12.1413
▁fountain	-12.1413
▁jerk	-12.1413
▁ocean	-12.1413
▁patrol	-12.1413
▁prestig	-12.1413
▁psychiatr	-12.1413
▁slurp	-12.1413
Amazing	-12.1413
conductivity	-12.1413
iyeok	-12.1413
rhythm	-12.1413
▁Confiden	-12.1413
▁Orange	-12.1413
▁Paraben	-12.1413
▁Pepper	-12.1413
▁Reaper	-12.1413
▁Slide	-12.1413
▁athlete	-12.1413
▁balloons	-12.1413
▁biometrics	-12.1413
▁buffer	-12.1413
▁chrom	-12.1413
▁companion	-12.1413
▁eyeliner	-12.1413
▁gangster	-12.1413
▁gluco	-12.1413
▁jealous	-12.1413
▁lyrics	-12.1413
▁mAh	-12.1413
▁modifications	-12.1413
▁phthalate	-12.1413
▁revenge	-12.1413
▁unpaid	-12.1413
▁witty	-12.1413
▁workload	-12.1413
▁workmanship	-12.1413
▁Built	-12.1413
▁Learn	-12.1413
▁Machine	-12.1413
▁Plant	-12.1413
▁Secure	-12.1413
▁Service	-12.1413
▁Steel	-12.1413
▁clogg	-12.1413
▁formulations	-12.1413
▁freak	-12.1413
▁keypad	-12.1413
▁melamine	-12.1413
▁renovations	-12.1413
▁rival	-12.1413
fission	-12.1413
▁Balance	-12.1413
▁Lacto	-12.1413
▁NFTs	-12.1413
▁True	-12.1413
▁annex	-12.1413
▁antenna	-12.1413
▁corru	-12.1413
▁debut	-12.1413
▁extinct	-12.1413
▁fiction	-12.1413
▁flutter	-12.1413
▁toxins	-12.1413
▁tractor	-12.1413
▁Gently	-12.1413
▁Type	-12.1413
▁backyard	-12.1413
▁boom	-12.1413
▁garment	-12.1413
▁prevalen	-12.1413
▁terribl	-12.1413
▁walkthrough	-12.1413
▁zero	-12.1413
▁Aww	-12.1413
▁breakthrough	-12.1413
▁leftover	-12.1413
▁loft	-12.1413
▁nursing	-12.1413
▁pause	-12.1413
▁rug	-12.1413
▁timeshare	-12.1413
orias	-12.1413
▁humor	-12.1413
▁procure	-12.1413
▁dispenser	-12.1413
▁earrings	-12.1413
▁nostra	-12.1413
▁radicals	-12.1413
▁violen	-12.1413
▁Cloth	-12.1413
skelet	-12.1413
▁Norway	-12.1413
▁badges	-12.1413
▁slimmer	-12.1413
pixel	-12.1413
▁Smell	-12.1413
▁partitions	-12.1413
▁Greg	-12.1413
▁Small	-12.1413
▁chron	-12.1413
▁neurons	-12.1413
rizon	-12.1413
▁12345	-12.1413
▁mustache	-12.1413
PAR	-12.1413
acetate	-12.1413
essay	-12.1413
▁distill	-12.1413
▁necro	-12.1413
▁pioneer	-12.1413
▁burger	-12.1413
▁orange	-12.1413
▁Turkey	-12.1413
▁pep	-12.1413
▁retro	-12.1413
▁memorize	-12.1413
▁abandon	-12.1413
▁mutation	-12.1413
▁diffuser	-12.1413
666	-12.1413
▁Case	-12.1413
▁typical	-12.1413
▁gopchang	-12.1413
▁lawyer	-12.1413
ogue	-12.1413
▁musk	-12.1413
▁volcan	-12.1413
▁sustainability	-12.1413
onvention	-12.1413
▁Totally	-12.1413
▁malatang	-12.1413
▁tequila	-12.1413
zza	-12.1413
atula	-12.1413
▁microorganisms	-12.1413
spyware	-12.1413
▁accent	-12.1413
▁hinder	-12.1413
▁Patent	-12.1413
▁sentiment	-12.1413
▁backwards	-12.1413
▁shutdown	-12.1413
▁wages	-12.1413
Maintain	-12.1413
▁insects	-12.1413
▁teenagers	-12.1413
▁Flam	-12.1413
▁Ssang	-12.1413
▁flood	-12.1413
pearl	-12.1413
▁occupant	-12.1413
▁olive	-12.1413
purity	-12.1413
▁lawsuit	-12.1413
chlorine	-12.1413
▁dozen	-12.1413
▁abnormalities	-12.1413
▁humble	-12.1413
deaf	-12.1413
▁Software	-12.1413
▁intersection	-12.1413
▁Jja	-12.1413
▁cashback	-12.1413
▁bloom	-12.1413
lvani	-12.1413
▁recurr	-12.1413
▁advisor	-12.1413
▁induce	-12.1413
▁craze	-12.1413
▁hardened	-12.1413
▁loyalty	-12.1413
▁scarier	-12.1413
▁backrest	-12.1413
▁ISO	-12.1413
▁Label	-12.1413
▁periodically	-12.1413
▁stride	-12.1414
▁blockchain	-12.1414
▁daisy	-12.1414
▁dare	-12.1414
▁deny	-12.1414
saturat	-12.1414
▁Upgrade	-12.1414
▁Delicious	-12.1414
▁graduation	-12.1414
▁Happiness	-12.1414
▁unusual	-12.1414
▁chives	-12.1414
▁collide	-12.1414
▁refreshment	-12.1414
▁appetite	-12.1414
▁sparkling	-12.1414
Hyuk	-12.1414
▁Standard	-12.1414
▁Boos	-12.1414
▁betray	-12.1414
▁debat	-12.1414
▁overheat	-12.1414
latinum	-12.1414
▁HDR	-12.1414
▁Revolution	-12.1414
▁Cros	-12.1414
▁Fire	-12.1414
▁vessel	-12.1414
▁Lead	-12.1414
▁River	-12.1414
▁Donghyun	-12.1414
▁makgeolli	-12.1414
▁viral	-12.1414
▁passionate	-12.1414
▁shellfish	-12.1414
▁weekdays	-12.1414
▁Sehyung	-12.1414
iberty	-12.1414
▁Party	-12.1414
▁prosperity	-12.1414
▁observation	-12.1415
▁stabilization	-12.1415
▁Cheol	-12.1415
▁Temple	-12.1415
▁bacon	-12.1415
shin	-12.1415
▁prosecutor	-12.1415
▁humidifiers	-12.1415
▁stalls	-12.1415
▁composite	-12.1415
▁liability	-12.1415
▁magic	-12.1415
▁vase	-12.1415
▁diving	-12.1415
▁initiate	-12.1415
▁necklace	-12.1415
▁Below	-12.1415
▁Ambiguous	-12.1415
▁childcare	-12.1415
▁cheating	-12.1415
▁Communication	-12.1415
▁idol	-12.1415
▁slipping	-12.1415
▁abnormality	-12.1415
▁appreciation	-12.1415
▁vibra	-12.1415
▁corona	-12.1415
▁Chung	-12.1416
▁biotechnolog	-12.1416
▁EMS	-12.1416
▁drainage	-12.1416
▁scarf	-12.1416
▁stuck	-12.1416
cheol	-12.1416
▁Exper	-12.1416
▁magnifi	-12.1416
affe	-12.1416
▁Yoonji	-12.1416
entral	-12.1416
▁disorder	-12.1416
▁framework	-12.1416
▁belongings	-12.1416
▁groupware	-12.1416
▁jogg	-12.1416
▁gene	-12.1416
▁YA	-12.1416
▁portability	-12.1416
▁survival	-12.1416
▁replenishment	-12.1417
▁classroom	-12.1417
▁marbles	-12.1417
▁yen	-12.1417
▁overeat	-12.1417
▁stabilizes	-12.1417
▁conveyor	-12.1417
azz	-12.1417
▁gameplay	-12.1417
▁fluctuation	-12.1417
▁greenhouse	-12.1417
▁chase	-12.1417
crumbs	-12.1417
▁programmer	-12.1417
▁batch	-12.1417
▁aloe	-12.1417
▁geni	-12.1417
▁cabin	-12.1417
▁lever	-12.1418
▁villa	-12.1418
ittle	-12.1418
▁retain	-12.1418
▁pigment	-12.1418
▁20.3	-12.1418
▁foil	-12.1418
▁1998	-12.1418
▁glue	-12.1418
▁Jeonju	-12.1419
▁overlook	-12.1419
▁peer	-12.1419
▁regeneration	-12.1419
▁primer	-12.1419
yeop	-12.1419
▁Fix	-12.1419
▁separation	-12.1419
▁Administration	-12.1419
▁rally	-12.1419
lateral	-12.1419
roscope	-12.1419
▁loaches	-12.1419
▁3.5	-12.1419
glare	-12.1419
▁sex	-12.1419
▁showcase	-12.1419
▁massive	-12.1419
▁subjective	-12.1419
▁nowhere	-12.1419
▁grant	-12.142
atomic	-12.142
▁Demi	-12.142
▁duty	-12.142
hyang	-12.142
▁entertainer	-12.142
▁manipulation	-12.142
▁headband	-12.142
▁veter	-12.142
creen	-12.1421
▁landline	-12.1421
▁lane	-12.1421
▁tick	-12.1421
▁cannon	-12.1421
▁realistic	-12.1421
▁vibe	-12.1421
▁underwear	-12.1421
▁Swis	-12.1421
▁toppings	-12.1421
▁resend	-12.1421
▁butler	-12.1421
adius	-12.1421
▁blis	-12.1422
▁BJ	-12.1422
▁accidentally	-12.1422
▁setback	-12.1422
NG	-12.1423
▁SBS	-12.1423
▁hackers	-12.1423
▁soldier	-12.1423
▁LF	-12.1423
▁Drive	-12.1424
▁blo	-12.1424
▁hairstyle	-12.1425
▁runner	-12.1425
▁195	-12.1425
▁Mix	-12.1425
pita	-12.1425
ookie	-12.1425
▁effortless	-12.1426
▁spit	-12.1426
▁jam	-12.1426
▁cardboard	-12.1426
▁toaster	-12.1426
TE	-12.1427
urine	-12.1427
▁approaches	-12.1427
▁EU	-12.1427
▁specialties	-12.1427
▁rig	-12.1427
▁brighten	-12.1428
▁Image	-12.1428
▁USD	-12.1428
▁cancelling	-12.1428
▁employer	-12.1428
▁abuse	-12.1429
▁domestically	-12.1429
▁RF	-12.1429
bang	-12.1429
tamate	-12.143
▁countryside	-12.143
▁Deb	-12.1431
▁Hair	-12.1431
remium	-12.1431
▁vulnerabilit	-12.1431
▁DR	-12.1432
▁mop	-12.1432
ank	-12.1432
▁Meat	-12.1432
▁booklet	-12.1432
▁Brave	-12.1432
▁itching	-12.1433
epp	-12.1433
arriage	-12.1433
▁Kwa	-12.1435
▁treasure	-12.1435
▁DB	-12.1435
▁subst	-12.1435
▁Wang	-12.1436
▁probe	-12.1436
▁Automati	-12.1436
ndeed	-12.1437
▁fungi	-12.1437
Cream	-12.1438
▁Ride	-12.1438
fungus	-12.1438
▁lag	-12.1439
ntroduction	-12.1439
▁EV	-12.144
▁Gong	-12.1441
basin	-12.1441
▁appoint	-12.1442
icid	-12.1442
▁grass	-12.1442
yeol	-12.1443
▁nation	-12.1444
▁reck	-12.1444
opy	-12.1447
▁68	-12.1447
▁GO	-12.1447
▁wink	-12.1448
▁Moni	-12.145
▁secretion	-12.1451
▁Van	-12.1451
▁reuse	-12.1452
kko	-12.1454
cycling	-12.1454
▁Moisturize	-12.1454
▁tar	-12.1454
TA	-12.1455
▁litt	-12.1456
▁extraction	-12.1457
zers	-12.1457
▁instruct	-12.1464
anotechnology	-12.1467
▁mala	-12.1467
▁pastel	-12.1469
▁RO	-12.147
▁disp	-12.1471
mption	-12.1472
▁Remove	-12.1473
conscious	-12.1476
▁demo	-12.1481
agic	-12.1482
EG	-12.1483
amine	-12.1483
ethane	-12.1483
▁photographer	-12.1484
86.	-12.1487
▁stra	-12.1488
aque	-12.1488
ontent	-12.1491
sorb	-12.1495
rifying	-12.1497
etect	-12.15
repare	-12.1506
generators	-12.1507
▁Reliab	-12.1509
▁Spo	-12.1509
▁plea	-12.1515
ford	-12.1522
war	-12.1526
enture	-12.1534
▁hugg	-12.1543
ireless	-12.156
▁deserve	-12.1572
emand	-12.1576
▁swell	-12.1577
anometer	-12.1603
▁selfie	-12.1617
humidifier	-12.164
jector	-12.1642
▁rotational	-12.1645
▁critical	-12.1648
▁browse	-12.1679
▁rotat	-12.1683
OU	-12.1699
events	-12.1699
▁spac	-12.1701
▁verifi	-12.1762
▁Mor	-12.1774
▁credi	-12.1794
onstitution	-12.1882
▁Jji	-12.1908
Swoo	-12.1934
▁marinate	-12.1961
▁arrang	-12.2084
▁Guar	-12.2093
OE	-12.2098
GB	-12.2146
ctive	-12.2171
j	-12.2176
▁Organ	-12.2207
sisted	-12.2227
RN	-12.2241
minated	-12.2335
Sens	-12.2372
▁replica	-12.2391
orium	-12.2406
rosis	-12.2416
mulated	-12.2436
▁Basic	-12.2459
2009	-12.2463
pical	-12.2583
▁cab	-12.2657
▁interchange	-12.2781
▁standardiz	-12.2796
MA	-12.2804
ecogniz	-12.2918
▁committe	-12.2928
acin	-12.2995
▁Gri	-12.3014
▁evaluat	-12.3078
▁localize	-12.3091
minin	-12.3144
MS	-12.315
RS	-12.3246
if	-12.3309
carot	-12.3347
58	-12.3511
▁Joon	-12.3516
▁commemorati	-12.3598
IR	-12.3606
ipped	-12.363
ragon	-12.3712
▁Fail	-12.3712
▁opp	-12.4029
olish	-12.4067
▁minimiz	-12.4199
▁recogni	-12.435
▁interchangeabl	-12.4511
▁foreclos	-12.4746
▁emphasiz	-12.4807
mmunity	-12.4921
▁estimat	-12.4952
plicate	-12.5041
▁announc	-12.5143
▁celebrat	-12.5453
▁activat	-12.5463
▁Multi	-12.5475
tlers	-12.5502
nstitution	-12.5689
▁imitat	-12.5783
economics	-12.5806
weatshirt	-12.5807
▁Hydro	-12.5878
▁Explo	-12.5898
▁structur	-12.5979
▁transi	-12.6043
▁boot	-12.6123
▁danger	-12.6139
▁citizen	-12.6144
▁particle	-12.6149
▁sneaker	-12.6152
▁symptom	-12.6152
▁mushroom	-12.6163
▁explo	-12.6164
▁headquarter	-12.6169
▁Sky	-12.6173
rrow	-12.6175
aux	-12.6202
cquisition	-12.621
dhesive	-12.6214
omotive	-12.6215
ffiliate	-12.6222
ccasional	-12.6224
greement	-12.6227
utomatically	-12.623
eratin	-12.6231
▁serv	-12.6241
▁eliminat	-12.6255
▁intestin	-12.6257
▁mechani	-12.6262
▁administrati	-12.6275
▁Liabilit	-12.6292
▁loos	-12.6305
▁roast	-12.6306
▁refresh	-12.6307
▁pip	-12.6307
where	-12.6314
▁Remov	-12.6315
flation	-12.6321
▁microscop	-12.6335
Sports	-12.6336
employ	-12.6337
intensive	-12.6337
shabu	-12.6337
venue	-12.6338
construct	-12.6338
vitamins	-12.6338
tension	-12.6339
savory	-12.6339
▁remodel	-12.634
invested	-12.634
toothbrush	-12.6341
establish	-12.6341
profile	-12.6341
produce	-12.6341
character	-12.6341
visual	-12.6341
glasses	-12.6341
corn	-12.6342
▁accumulat	-12.6342
reviewed	-12.6342
official	-12.6342
register	-12.6342
system	-12.6342
protein	-12.6342
high	-12.6342
inspection	-12.6342
▁damag	-12.6342
strength	-12.6342
weather	-12.6342
pressure	-12.6342
condition	-12.6343
certain	-12.6343
noodles	-12.6343
powder	-12.6343
collect	-12.6343
trust	-12.6343
spicy	-12.6343
white	-12.6343
built	-12.6343
natural	-12.6343
product	-12.6343
mentioned	-12.6343
received	-12.6343
▁cycli	-12.6343
with	-12.6343
space	-12.6345
Let	-12.6345
▁arriv	-12.6351
▁independen	-12.6355
cancel	-12.6357
▁resist	-12.6365
reflecti	-12.6367
▁hesita	-12.6372
control	-12.6374
▁impress	-12.6374
▁observ	-12.6377
▁Attach	-12.6381
▁insulat	-12.6381
▁acknowledge	-12.6382
▁translate	-12.6384
ctory	-12.6384
▁confuse	-12.6384
▁excite	-12.6386
▁locate	-12.6386
▁profession	-12.6392
trolle	-12.6393
▁flavo	-12.6393
lectric	-12.6393
▁appreciat	-12.6395
▁incorrect	-12.6398
▁divers	-12.6398
▁batter	-12.6398
▁Current	-12.6399
▁anniversar	-12.6399
▁reliabl	-12.6399
▁necessar	-12.6399
▁creativ	-12.64
▁crunch	-12.6401
imagin	-12.6402
oscope	-12.6402
▁prime	-12.6403
▁stabiliz	-12.6403
Infinit	-12.6404
▁physi	-12.6405
▁energ	-12.6406
▁diabet	-12.6407
believ	-12.6408
xpiration	-12.6408
xclusive	-12.6408
insula	-12.6408
▁refrigerat	-12.6408
ssential	-12.6408
quipped	-12.6408
▁criteri	-12.6409
▁Communicat	-12.6409
▁navigat	-12.6409
▁Tech	-12.6409
rosecutor	-12.6409
▁Temp	-12.641
electr	-12.641
harmaceutical	-12.641
▁electron	-12.641
evolution	-12.641
ception	-12.641
akgeolli	-12.641
▁reput	-12.641
▁situat	-12.641
etabus	-12.6411
▁commun	-12.6411
andwich	-12.6411
cientists	-12.6411
tructure	-12.6411
▁telecommu	-12.6411
▁supple	-12.6411
▁excel	-12.6411
ransparent	-12.6412
ircuit	-12.6412
hahaha	-12.6412
osmetics	-12.6412
omplex	-12.6412
onsultation	-12.6412
kirt	-12.6412
rystal	-12.6412
ibration	-12.6412
llege	-12.6412
ersatile	-12.6412
olume	-12.6412
▁Gwan	-12.6412
▁advent	-12.6412
nnovative	-12.6412
nquire	-12.6412
nquiries	-12.6412
▁govern	-12.6412
ntegrate	-12.6412
pecifically	-12.6412
▁teenage	-12.6412
amera	-12.6412
▁Cancel	-12.6412
inimize	-12.6412
ranches	-12.6412
▁Consist	-12.6412
▁champion	-12.6412
▁Turk	-12.6412
historic	-12.6412
▁alpha	-12.6413
iquid	-12.6413
▁succ	-12.6413
uge	-12.6413
ediat	-12.6413
▁Olympi	-12.6413
▁blank	-12.6413
▁jack	-12.6413
riends	-12.6413
▁quadr	-12.6413
taract	-12.6413
▁Gyeongsang	-12.6413
▁Surpris	-12.6413
▁affirm	-12.6413
cumulati	-12.6413
script	-12.6413
▁Compound	-12.6413
▁Corporat	-12.6413
▁Distribut	-12.6413
▁Engineer	-12.6413
▁Implement	-12.6413
▁Reinforc	-12.6413
▁Uiseong	-12.6413
▁advoca	-12.6413
▁alkaline	-12.6413
▁bathrobe	-12.6413
▁bracket	-12.6413
▁bulge	-12.6413
▁bungalow	-12.6413
▁caravan	-12.6413
▁carcinogen	-12.6413
▁categoriz	-12.6413
▁compound	-12.6413
▁condens	-12.6413
▁correlat	-12.6413
▁dermatolog	-12.6413
▁diagnostic	-12.6413
▁disconnect	-12.6413
▁eradicat	-12.6413
▁intimidat	-12.6413
▁knob	-12.6413
▁misinterpret	-12.6413
▁recalculat	-12.6413
▁respirat	-12.6413
▁savior	-12.6413
▁shrink	-12.6413
▁subdivid	-12.6413
▁vaccinat	-12.6413
REE	-12.6413
curred	-12.6413
ethylene	-12.6413
gnosis	-12.6413
hydroxy	-12.6413
igarettes	-12.6413
irplane	-12.6413
karyotes	-12.6413
lentiful	-12.6413
microenvironment	-12.6413
necessities	-12.6413
neurotransmitter	-12.6413
ombie	-12.6413
onthly	-12.6413
synthesis	-12.6413
veillance	-12.6413
ylitol	-12.6413
▁1,200,000	-12.6413
▁2020123	-12.6413
▁Accurate	-12.6413
▁Activate	-12.6413
▁Agency	-12.6413
▁Atlantic	-12.6413
▁Berkeley	-12.6413
▁Biotechnology	-12.6413
▁Blood	-12.6413
▁Bravo	-12.6413
▁Brazil	-12.6413
▁Candidate	-12.6413
▁Captain	-12.6413
▁Cardigan	-12.6413
▁Ceremony	-12.6413
▁CfExpress	-12.6413
▁Complaint	-12.6413
▁Completion	-12.6413
▁Cooperatives	-12.6413
▁DDR	-12.6413
▁DHL	-12.6413
▁DVD	-12.6413
▁Different	-12.6413
▁Discount	-12.6413
▁District	-12.6413
▁Dynamics	-12.6413
▁ECU	-12.6413
▁EPUB	-12.6413
▁Employee	-12.6413
▁Emulsion	-12.6413
▁Environment	-12.6413
▁Expedition	-12.6413
▁Faucet	-12.6413
▁Fierce	-12.6413
▁Fifth	-12.6413
▁Flavor	-12.6413
▁GIF	-12.6413
▁Grandmother	-12.6413
▁Gyeongju	-12.6413
▁Headquarters	-12.6413
▁Instagram	-12.6413
▁Intuitive	-12.6413
▁Jangkalguksu	-12.6413
▁Jjingko	-12.6413
▁Jupiter	-12.6413
▁Kalguksu	-12.6413
▁Kalik	-12.6413
▁Kevin	-12.6413
▁Laboratory	-12.6413
▁Maintenance	-12.6413
▁Manipulat	-12.6413
▁Mogadishu	-12.6413
▁Movies	-12.6413
▁Muslim	-12.6413
▁NVMe	-12.6413
▁Oakland	-12.6413
▁Optimu	-12.6413
▁Pencil	-12.6413
▁Pocket	-12.6413
▁Pohang	-12.6413
▁Poseidon	-12.6413
▁Prosthetic	-12.6413
▁Publishing	-12.6413
▁Recommend	-12.6413
▁Respect	-12.6413
▁Respons	-12.6413
\	-13.9757
q	-13.9758
