{
  "src_word2id": {
    "<pad>": 0,
    "<s>": 1,
    "</s>": 2,
    "<unk>": 3,
    ".": 4,
    ",": 5,
    "\u2581": 6,
    "\uc744": 7,
    "\ub97c": 8,
    "\uc758": 9,
    "?": 10,
    "\ub294": 11,
    "\uac00": 12,
    "\uc740": 13,
    "\u2581the": 14,
    "\uc774": 15,
    "\u2581\uc218": 16,
    "\uc5d0": 17,
    "\u2581\uc788\uc2b5\ub2c8\ub2e4": 18,
    "s": 19,
    "\ud55c": 20,
    "\ub3c4": 21,
    "\u2581to": 22,
    "\u2581I": 23,
    "'": 24,
    "\u2581a": 25,
    "\u2581you": 26,
    "\uc785\ub2c8\ub2e4": 27,
    "\ub85c": 28,
    "\uace0": 29,
    "\uc73c\ub85c": 30,
    "and": 31,
    "\u2581\uc800\ud76c": 32,
    "\u2581\uc774": 33,
    "\u2581of": 34,
    "\ud560": 35,
    "\u2581is": 36,
    "\u2581it": 37,
    "\uacfc": 38,
    "\uc9c0": 39,
    "\ud569\ub2c8\ub2e4": 40,
    "ing": 41,
    "\u2581in": 42,
    "\u2581\uac83": 43,
    "\u2581for": 44,
    "\uc640": 45,
    "\u2581\uc788\ub294": 46,
    "\u2581\ub124": 47,
    "\uc5d0\uc11c": 48,
    "\u2581BBB": 49,
    "\u2581\uc81c\ud488": 50,
    "\ud558\uace0": 51,
    "!": 52,
    "\u2581that": 53,
    "\u2581\ub354": 54,
    "\u2581FFF": 55,
    "\u2581AAA": 56,
    "\u2581\ud569\ub2c8\ub2e4": 57,
    "\u2581can": 58,
    "\uac8c": 59,
    "\uc11c": 60,
    "\u2581\uadf8": 61,
    "-": 62,
    "\ub9cc": 63,
    "\uc694": 64,
    "\uc2b5\ub2c8\ub2e4": 65,
    "\u2581be": 66,
    "\u2581\uc544": 67,
    "t": 68,
    "\u2581\ud55c": 69,
    "\ud558\ub294": 70,
    "\u2581your": 71,
    "\ud558\uac8c": 72,
    "\u2581\ud68c\uc0ac": 73,
    "\u2581\uadf8\ub9ac\uace0": 74,
    "\u2581are": 75,
    "\u2581with": 76,
    "ed": 77,
    "\u2581\uc548": 78,
    "\u2581have": 79,
    "\u2581It": 80,
    "\u2581we": 81,
    "\u2581\uc798": 82,
    "\ub41c": 83,
    "\uc778": 84,
    "\ud788": 85,
    "\u2581will": 86,
    "\u2581\uc9c0\uae08": 87,
    "\u2581We": 88,
    "\uba74": 89,
    "\u2581\uc800\ub294": 90,
    "\u25811": 91,
    "\u2581\ubc14\ub78d\ub2c8\ub2e4": 92,
    "\uc77c": 93,
    "\u2581\uc704\ud574": 94,
    "\u2581this": 95,
    "\u2581\ub300\ud55c": 96,
    "\u2581\uc81c\uac00": 97,
    "\u2581\ub300\ud574": 98,
    "\u2581\uac83\uc785\ub2c8\ub2e4": 99,
    "\u2581\ub2e4\ub978": 100,
    "\uae30": 101,
    "\u25813": 102,
    "\ud588\uc2b5\ub2c8\ub2e4": 103,
    "\u2581\uc5f0\ub77d": 104,
    "\ub098": 105,
    "\u2581\ud560": 106,
    "1": 107,
    "\u2581\ub2e4": 108,
    "\u2581\ub54c": 109,
    "\u2581\uc800\ud76c\ub294": 110,
    "\u2581on": 111,
    "\u2581The": 112,
    "\u2581\ubc0f": 113,
    "\u2581\uc6b0\ub9ac": 114,
    "\u25812": 115,
    "m": 116,
    "\u2581\ub108\ubb34": 117,
    "\u2581\ub610\ud55c": 118,
    "\u2581\ud574": 119,
    "\u2581\ubaa8\ub4e0": 120,
    "\u2581our": 121,
    "\u2581\uc6b0\ub9ac\ub294": 122,
    "\u2581\uc88b\uc740": 123,
    "\uc790": 124,
    "~": 125,
    "\u2581so": 126,
    "\ud574": 127,
    "\u2581\uc800\ud76c\uac00": 128,
    "\u2581\ub098\ub294": 129,
    "\u2581\ub2f9\uc2e0": 130,
    "\ud558\uc5ec": 131,
    "\u2581\uadc0\uc0ac": 132,
    "\u2581\ub9ce\uc774": 133,
    "d": 134,
    "\ub2e4": 135,
    "\u2581\uc8fc\ubb38": 136,
    "\u2581\uc880": 137,
    "\u2581\uadf8\ub798\uc11c": 138,
    "\u2581\uc9c4\uc9dc": 139,
    "\u2581\uadc0\ud558": 140,
    "\u2581\uac83\uc744": 141,
    "n": 142,
    "\u2581\ubb38\uc81c": 143,
    "\u2581\ub9ce\uc740": 144,
    "\u2581as": 145,
    "e": 146,
    "\u2581\uc774\ub807\uac8c": 147,
    "\u2581like": 148,
    "\uc57c": 149,
    "\u2581\uc8fc": 150,
    "\u2581\ub098": 151,
    "\u2581\ub429\ub2c8\ub2e4": 152,
    "\u2581\ud568\uaed8": 153,
    "\u2581\uadf8\ub7f0\ub370": 154,
    "\u2581\ub0b4": 155,
    "\u2581\ub54c\ubb38\uc5d0": 156,
    "\uae4c\uc9c0": 157,
    "\u2581\uc624": 158,
    "\u2581\uc81c": 159,
    "\u2581\uac10\uc0ac\ud569\ub2c8\ub2e4": 160,
    "\u2581\uc0ac\uc6a9": 161,
    "\u2581\uc815\ub9d0": 162,
    "2": 163,
    "\u2581\uc2f6\uc2b5\ub2c8\ub2e4": 164,
    "\u2581\uac70": 165,
    "\u2581\uc774\uac70": 166,
    "\u2581You": 167,
    "\ub429\ub2c8\ub2e4": 168,
    "\u2581\uc548\ub155\ud558\uc138\uc694": 169,
    "\u2581\ub9e4\uc6b0": 170,
    "ly": 171,
    "\u2581\uc5b4\ub5bb\uac8c": 172,
    "\u2581\uac19\uc2b5\ub2c8\ub2e4": 173,
    "\u2581company": 174,
    "\ub2c8\ub2e4": 175,
    "f": 176,
    "\u2581\uc800": 177,
    "\u2581\ub610": 178,
    "\uc5d0\uac8c": 179,
    "\u2581\uc81c\ud488\uc740": 180,
    "\u2581\uac00\ub2a5\ud569\ub2c8\ub2e4": 181,
    "\uc801\uc778": 182,
    "\u2581at": 183,
    "\u2581\ub2e4\uc2dc": 184,
    "\uc8fc\uc154\uc11c": 185,
    "\u2581\uadf8\ub7fc": 186,
    "\u2581\ub0b4\uac00": 187,
    "\u2581me": 188,
    "\u2581\uba54\uc77c": 189,
    "\u2581\uc11c\ube44\uc2a4": 190,
    "\u2581\uc774\ubc88": 191,
    "\u2581\uc544\ub2c8": 192,
    "\uc6b4": 193,
    "\u2581product": 194,
    "\u2581\uc774\uc81c": 195,
    "\u2581\ub4f1": 196,
    "\u2581\uc57c": 197,
    "if": 198,
    "\u2581\ud604\uc7ac": 199,
    "\uac1c": 200,
    "\ub418\uc5b4": 201,
    "\u2581\uc5b4\ub5a4": 202,
    "\u25815": 203,
    "\u2581an": 204,
    "\u2581\uac83\uc774": 205,
    "\u2581\uc5b4": 206,
    "\u2581\ubcf4\ub0b4": 207,
    "\uc2dc": 208,
    "\u2581\ud55c\uad6d": 209,
    "\u2581\ud558\uc9c0\ub9cc": 210,
    "\u2581\ud655\uc778": 211,
    "\u258110": 212,
    "\u2581\uc2dc\uac04": 213,
    "\ub144": 214,
    "\u2581\ubb50": 215,
    "\u2581\ub450": 216,
    "\u2581was": 217,
    "\u2581from": 218,
    "\u2581not": 219,
    "\u2581\ud615": 220,
    "\u2581\uc911": 221,
    "\u2581\uc5ec\uae30": 222,
    "\u2581\ubc14\ub85c": 223,
    "\u2581\uc77c": 224,
    "\u2581\uc624\ub298": 225,
    "\u2581\ud558\ub294": 226,
    "\u2581\ub420": 227,
    "\u2581\uc788\uc5b4": 228,
    "\u2581but": 229,
    "\u2581\uac8c": 230,
    "\u2581time": 231,
    "\ud558\uae30": 232,
    "\u2581\uba87": 233,
    "\u2581\ubc30\uc1a1": 234,
    "\u2581\ub2e4\uc591": 235,
    "\u2581\ud558\ub098": 236,
    "by": 237,
    "\u2581\ud639\uc2dc": 238,
    "\u2581\uac00\uaca9": 239,
    "\uc2b5\ub2c8\uae4c": 240,
    "\u2581\uc65c": 241,
    "\u2581\uc0c1\ud488": 242,
    "ll": 243,
    "\u2581\uacbd\uc6b0": 244,
    "\u2581\uac00\uc7a5": 245,
    "\u2581\uadf8\ub7ec\uba74": 246,
    "\u2581\ud558\uace0": 247,
    "\u2581there": 248,
    "\u2581\uc5bc\ub9c8": 249,
    "\u2581think": 250,
    "\ub3c4\ub85d": 251,
    "\u2581about": 252,
    "\u2581has": 253,
    "\ud558\uc9c0": 254,
    "\u2581\ud1b5\ud574": 255,
    "y": 256,
    "\u2581\ud6c4": 257,
    "\uc6a9": 258,
    "\u2581\ubb38\uc758": 259,
    "\ub9ac": 260,
    "\u2581Yes": 261,
    "\u2581know": 262,
    "\u2581\ub2e4\uc74c": 263,
    "\u2581\uc804": 264,
    "\u2581also": 265,
    "\u2581all": 266,
    "\u2581or": 267,
    "\u2581\ubaa8\ub450": 268,
    "\u2581\ud558\uaca0\uc2b5\ub2c8\ub2e4": 269,
    "\u2581us": 270,
    "\u2581\uc54c\uace0": 271,
    "\u2581\uadf8\uac83": 272,
    "\u2581do": 273,
    "\u2581\uac19\uc740": 274,
    "\u2581\uac00\uc9c0": 275,
    "\u2581\uc5c6\uc2b5\ub2c8\ub2e4": 276,
    "\u2581\uc788\uc744": 277,
    "\uc2e4": 278,
    "\u2581\uae30\uc220": 279,
    "\u2581\uadf8\ub4e4": 280,
    "\u2581\ucd94\uac00": 281,
    "\u2581\ub9d0": 282,
    "\ud574\uc11c": 283,
    "\ud558\uc2e4": 284,
    "\u2581\uc0c8\ub85c\uc6b4": 285,
    "\u2581\uc774\uac8c": 286,
    "\u2581\uc8fc\uc138\uc694": 287,
    "\u2581\uc704\ud55c": 288,
    "\u2581\ub4dc\ub9bd\ub2c8\ub2e4": 289,
    "\u2581\uadf8\ub0e5": 290,
    "\u2581right": 291,
    "\u2581\ub370": 292,
    "\u2581my": 293,
    "\u2581\ud070": 294,
    "\u2581Thi": 295,
    "\u25814": 296,
    "\u2581\uc788\uc5b4\uc694": 297,
    "\u2581\ubd80\ud0c1\ub4dc\ub9bd\ub2c8\ub2e4": 298,
    "\u2581\uc804\uc5d0": 299,
    "\u2581\uace0\uac1d": 300,
    "\u2581\ub2f9\uc0ac": 301,
    "\u2581\ud55c\ubc88": 302,
    "\u2581\ubabb": 303,
    "\ub418\uc5c8\uc2b5\ub2c8\ub2e4": 304,
    "\u2581would": 305,
    "\u2581good": 306,
    "\u2581\uc788": 307,
    "\u2581\ub514\uc790\uc778": 308,
    "\u2581\uc81c\uc791": 309,
    "\ub77c\uace0": 310,
    "\u2581\uc774\ub7f0": 311,
    "\uc801\uc73c\ub85c": 312,
    "\ubd80\ud130": 313,
    "\u2581\ubcf4": 314,
    "\u2581\uc9c4\ud589": 315,
    "\uc73c\uba74": 316,
    "\ub4e4\uc774": 317,
    "\u2581products": 318,
    "\u2581\uac74": 319,
    "\uc6d4": 320,
    "\ud558\uaca0\uc2b5\ub2c8\ub2e4": 321,
    "\u2581\uc640": 322,
    "\u2581\uadf8\ub7f0": 323,
    "\u2581\ub418\uc5b4": 324,
    "re": 325,
    "\u2581\uc54c\ub824": 326,
    "\u2581\ud310\ub9e4": 327,
    "\u2581\uc774\uac83": 328,
    "\u2581\uc790": 329,
    "\ub4dc\ub9bd\ub2c8\ub2e4": 330,
    "\u2581\uad6c\ub9e4": 331,
    "\u2581\uba3c\uc800": 332,
    "\u2581\uc54a\uc2b5\ub2c8\ub2e4": 333,
    "\u2581\ubc88": 334,
    "\u2581\uc6d0": 335,
    "\u2581\uc774\ubc88\uc5d0": 336,
    "\u2581\uc815\ubcf4": 337,
    "\u2581\uace0\uac1d\ub2d8": 338,
    "\u2581\uad00\uc2ec": 339,
    "\u2581\uacc4\uc57d": 340,
    "\u2581use": 341,
    "\u2581\ub3d9\uc548": 342,
    "\u2581want": 343,
    "\u2581\uc0dd\uac01": 344,
    "\u2581\ub530\ub77c": 345,
    "\ubcf4\ub2e4": 346,
    "\u2581\uc0dd\uc0b0": 347,
    "\u2581\uc81c\uacf5\ud569\ub2c8\ub2e4": 348,
    "\u2581\uc788\ub3c4\ub85d": 349,
    "\u2581\ud68c\uc2e0": 350,
    "r": 351,
    "\uc9c4": 352,
    "\u2581contact": 353,
    "\u2581\ube68\ub9ac": 354,
    "\u2581\uc2dc": 355,
    "\u2581\uac00\uc9c0\uace0": 356,
    "\u2581\uc788\ub2e4": 357,
    "\u2581\ub3fc": 358,
    "\u2581\ube60\ub978": 359,
    "\u2581How": 360,
    "\u2581\ub9d0\uc500": 361,
    "\u2581\uae30\ub2a5": 362,
    "\u2581more": 363,
    "\u2581\uc815\ub3c4": 364,
    "\u2581please": 365,
    "\u2581\uadf8\ub807\uac8c": 366,
    "\ud574\uc57c": 367,
    "\uaca0\uc2b5\ub2c8\ub2e4": 368,
    "\u2581\uadf8\ub7ec\ub098": 369,
    "\u2581\uac70\uc608\uc694": 370,
    "\u2581\uc788\ub098\uc694": 371,
    "\ub420": 372,
    "\u2581\ud68c\uc758": 373,
    "\ub2c8": 374,
    "\ud558\uc600\uc2b5\ub2c8\ub2e4": 375,
    "\u2581There": 376,
    "\uc774\ub098": 377,
    "\u2581\uc6b0\ub9ac\uac00": 378,
    "\u2581\uc88b\uc2b5\ub2c8\ub2e4": 379,
    "\u2581\uc9c1\uc811": 380,
    "\u2581\uc694\uccad": 381,
    "\u2581\uac70\uc57c": 382,
    "\u2581\uad00\ub828": 383,
    "\uc5b4": 384,
    "\u2581\uc608\uc57d": 385,
    "\u2581\ud544\uc694": 386,
    "\u2581\uac00": 387,
    "\u2581A": 388,
    "\u2581\uacc4\uc18d": 389,
    "\u2581one": 390,
    "\u2581because": 391,
    "\u2581\uac78": 392,
    "\ud558\uba74": 393,
    "\u2581\uc0ac\uc6a9\ud560": 394,
    "\u2581\ubbf8": 395,
    "\u2581\uc608": 396,
    "\u2581\uc870\uae08": 397,
    "\u2581\uc0ac\uc5c5": 398,
    "\uc5d0\ub294": 399,
    "\u2581\uc18c\uac1c": 400,
    "\uc2dc\uae38": 401,
    "\u2581That": 402,
    "\u2581\uc774\uba54\uc77c": 403,
    "\u2581\uc544\ub2c8\ub77c": 404,
    "\u2581\uc904": 405,
    "\u2581\uac19\uc774": 406,
    "\u2581\uac00\ub2a5\ud55c": 407,
    "\u2581\uac19\uc544\uc694": 408,
    "\u2581make": 409,
    "\u2581\uc528": 410,
    "al": 411,
    "\u2581\ub300\ud574\uc11c": 412,
    "\u2581\uad00\ub9ac": 413,
    "\u2581Please": 414,
    "\u2581don": 415,
    "\u2581\uc88b\uc544": 416,
    "\u2581\uc544\uc9c1": 417,
    "\uc9c8": 418,
    "\ub358": 419,
    "\u2581Oh": 420,
    "\u2581get": 421,
    "\u2581\uc0ac": 422,
    "\u2581\uc81c\ud488\uc785\ub2c8\ub2e4": 423,
    "\ub098\uc694": 424,
    "\u2581\uc774\uc0c1": 425,
    "\u2581out": 426,
    "\u2581any": 427,
    "\u2581up": 428,
    "\uc2e0": 429,
    "\u2581\ud574\uc678": 430,
    "\ub4dc\ub9ac\uaca0\uc2b5\ub2c8\ub2e4": 431,
    "very": 432,
    "\u2581\uc7ac\uace0": 433,
    "\u2581\uc5f0\uad6c": 434,
    "\u2581\uac70\ub798": 435,
    "\u2581\uc608\uc815\uc785\ub2c8\ub2e4": 436,
    "\u2581\uadf8\ub7ec\ub2c8\uae4c": 437,
    "\u2581\ud558\uba74": 438,
    "\ud558\ub824\uace0": 439,
    "\u2581when": 440,
    "\u2581been": 441,
    "\u2581\uc54c\uaca0\uc2b5\ub2c8\ub2e4": 442,
    "\u2581\ub530\ub77c\uc11c": 443,
    "\u2581\uac1c\ubc1c": 444,
    "\u2581\uc0dd\uac01\ud569\ub2c8\ub2e4": 445,
    "\u2581\ub418\uc5c8\uc2b5\ub2c8\ub2e4": 446,
    "\u2581\uc77c\uc815": 447,
    "\u2581\uadc0\ud558\uaed8\uc11c": 448,
    "\u2581order": 449,
    "\u2581new": 450,
    "\u2581\uc81c\ud488\uc5d0": 451,
    "\uc8fc\uc2ed\uc2dc\uc624": 452,
    "ve": 453,
    "\u2581\uc5c6\uc774": 454,
    "\u2581\ub3c4\uc6c0\uc774": 455,
    "\uc8e0": 456,
    "\uc138\uc694": 457,
    "\u2581So": 458,
    "\u2581What": 459,
    "\u2581In": 460,
    "\uc8fc": 461,
    "\u2581\ub4dc\ub9ac\uaca0\uc2b5\ub2c8\ub2e4": 462,
    "\u2581really": 463,
    "\u2581\uac10\uc0ac\ub4dc\ub9bd\ub2c8\ub2e4": 464,
    "\u2581\ub2f9\uc2e0\uc774": 465,
    "\u2581\ub108": 466,
    "\u2581\uc9c0\ub09c": 467,
    "\u2581\uc5ec\ub7ec\ubd84": 468,
    "\ubd84": 469,
    "\u2581OK": 470,
    "\u2581\ubbf8\ud305": 471,
    "\u2581\uc2dc\uac04\uc774": 472,
    "\ub4e4": 473,
    "\u2581\uc774\ub7ec": 474,
    "\u2581\uc810": 475,
    "\u2581did": 476,
    "\u2581\uc138": 477,
    "\u2581\ud544\uc694\ud55c": 478,
    "\u2581\uc8c4\uc1a1\ud569\ub2c8\ub2e4": 479,
    "\u2581\ud56d\uc0c1": 480,
    "\u2581\uc81c\ud488\uc774": 481,
    "\u2581\uc788\uc744\uae4c\uc694": 482,
    "\u2581\uadf8\ub798": 483,
    "\u2581\ud488\uc9c8": 484,
    "\u2581\uc81c\uc548": 485,
    "\uae38": 486,
    "\u2581\uc57d": 487,
    "\u2581S": 488,
    "\u2581\ubcf4\uace0": 489,
    "\u2581\uc900\ube44": 490,
    "\u2581\ub354\uc6b1": 491,
    "\u2581\ub370\uc774\ud130": 492,
    ")": 493,
    "\u2581\ub418\ub294": 494,
    "\u2581first": 495,
    "\u2581\uc788\ub294\uc9c0": 496,
    "\u2581\uc0ac\uc2e4": 497,
    "\u2581\uac83\uc73c\ub85c": 498,
    "\u2581\uc218\ub3c4": 499,
    "\u2581\uc774\ubbf8": 500,
    "\u2581\ub0b4\uc6a9": 501,
    "\u2581\ub9c8": 502,
    "\u2581no": 503,
    "\u2581\ubc29\ubb38": 504,
    "\u2581\uc0d8\ud50c": 505,
    "\u2581\uac81\ub2c8\ub2e4": 506,
    "\u2581\ubcfc": 507,
    "\u2581\uc8fc\uc2dc\uba74": 508,
    "\uc5d0\ub3c4": 509,
    "\u2581\uadf8\ub807\uc9c0": 510,
    "\u2581send": 511,
    "\u2581\ubb50\uc57c": 512,
    "\u2581\uc5ec\ub7ec": 513,
    "\u2581\uc5c6\ub294": 514,
    "\u2581\ucd5c\uace0": 515,
    "\u2581\uc5b8\uc81c\ub4e0": 516,
    "\u2581\uc6b0\ub9ac\uc758": 517,
    "\ub300": 518,
    "\ub124\uc694": 519,
    "\u2581them": 520,
    "\u2581\uc27d\uac8c": 521,
    "\u2581\uc0ac\ud56d": 522,
    "\u2581\uc74c\uc2dd": 523,
    "\u2581No": 524,
    "\uc774\ub77c\uace0": 525,
    "\ub294\ub370": 526,
    "\uc0ac": 527,
    "\u2581\ud638\ud154": 528,
    "\u2581\ud68c\uc0ac\uc5d0\uc11c": 529,
    "\u2581\uc788\uae30": 530,
    "\uac70\ub098": 531,
    "\u2581help": 532,
    "\uc2dc\uac04": 533,
    "\u25817": 534,
    "\u2581\ubb3c\ub860": 535,
    "\u2581\ub2f5\ubcc0": 536,
    "\u2581\uc77c\uc774": 537,
    "\u2581\uc774\uc6a9": 538,
    "\ud558\ub3c4\ub85d": 539,
    "\u2581just": 540,
    "\u2581\ucd1d": 541,
    "\\\\\\": 542,
    "\ud558\uc2dc\uba74": 543,
    "\u2581\uc2dc\uc2a4\ud15c": 544,
    "\u2581\uc788\uc5b4\uc11c": 545,
    "\u2581\uc8fc\uc2dc\uae30": 546,
    "\u2581\ubb3c": 547,
    "\u2581take": 548,
    "\u2581now": 549,
    "\u2581who": 550,
    "\ub124": 551,
    "\u2581\ubc29\ubc95": 552,
    "\u2581\uc544\ub2c8\uc57c": 553,
    "\u2581\uc0ac\ub78c": 554,
    "\u25816": 555,
    "\u2581possible": 556,
    "\u2581much": 557,
    "\u2581And": 558,
    "\u258130": 559,
    "\u2581other": 560,
    "\u2581\ucd5c\ub300": 561,
    "\u2581\ud574\uc57c": 562,
    "\u2581\ub9cc\uc57d": 563,
    "\u2581\uc5b8\uc81c": 564,
    "\u2581\uc77c\ub2e8": 565,
    "\u2581\uc54c": 566,
    "\u2581\uc120\uc0dd\ub2d8": 567,
    "\u2581\uc790\uc138": 568,
    "\u2581going": 569,
    "\u2581\ucc98\ub9ac": 570,
    "\u2581well": 571,
    "\u2581\uac10\uc0ac": 572,
    "\u2581am": 573,
    "\u2581\uc0c1\ud669": 574,
    "\ud558\uc138\uc694": 575,
    "\u2581business": 576,
    "\u2581\uc6b0\uc640": 577,
    "\u2581need": 578,
    "\u2581Thank": 579,
    "\u2581\uc54a": 580,
    "\ud615": 581,
    "\u2581what": 582,
    "\u2581But": 583,
    "\u2581\uc57d\uac04": 584,
    "\u2581\uc18c\uc7ac": 585,
    "\u2581\ud574\ub2f9": 586,
    "\u2581work": 587,
    "\u2581\ucc28": 588,
    "\u2581\ud560\uc778": 589,
    "\u258120": 590,
    "\ub791": 591,
    "\u2581\ud655\uc778\ud574": 592,
    "\u2581\uc5c6": 593,
    "\u2581they": 594,
    "\u2581\ube44": 595,
    "\u2581\\\\\\": 596,
    "\uae30\ub97c": 597,
    "\u2581two": 598,
    "\u2581\uc2dc\uc791": 599,
    "\uc131": 600,
    "\u2581\ub9db": 601,
    "\u2581\uc800\ud76c\uc5d0\uac8c": 602,
    "\u2581\ub531": 603,
    "\u2581than": 604,
    "\u2581\uc788\uace0": 605,
    "\u2581price": 606,
    "\u2581\uc0ac\ud56d\uc774": 607,
    "\u2581\ubd80\ubd84": 608,
    "\u2581\uce5c\uc560\ud558\ub294": 609,
    "\u2581\ud2b9\ud788": 610,
    "\u2581made": 611,
    "\u2581\uc77c\ubd80": 612,
    "\u2581\uc0ac\uc9c4": 613,
    "\u2581\ubd10": 614,
    "\u2581\ud611\ub825": 615,
    "\u2581\uc9c0\uc6d0": 616,
    "\u2581\ud53c\ubd80": 617,
    "\u2581\ubcf8": 618,
    "\u2581\ubc1b": 619,
    "able": 620,
    "\u2581how": 621,
    "\u2581\uc885\ub958": 622,
    "\u2581\ub9c9": 623,
    "\u2581100": 624,
    "\u2581\uc55e\uc73c\ub85c": 625,
    "\ub77c": 626,
    "\u2581\ub192\uc740": 627,
    "\u2581check": 628,
    "/": 629,
    "\ub2ec\ub7ec": 630,
    "\u2581lot": 631,
    "\u2581\uae30\uc5c5": 632,
    "\u2581meeting": 633,
    "\u2581\uc778\ud574": 634,
    "\u2581\ud3ec\ud568": 635,
    "\u2581\uc548\uc804": 636,
    "\u2581\uc9d1": 637,
    "\uc2dc\uba74": 638,
    "\u2581\uac1c": 639,
    "\u2581\uc628\ub77c\uc778": 640,
    "\u2581\uc544\ubb34": 641,
    "\u2581\uaf2d": 642,
    "\u2581people": 643,
    "ever": 644,
    "\u2581only": 645,
    "\u2581go": 646,
    "\u2581\uc791\uc5c5": 647,
    "\ub77c\ub294": 648,
    "\u2581he": 649,
    "\u2581\uc124\uce58": 650,
    "\u2581\ub0b4\uc77c": 651,
    "\ub418\ub294": 652,
    "\u2581\uc0c9\uc0c1": 653,
    "\u2581\uc2e0\uc81c\ud488": 654,
    "\u2581\uc544\uc8fc": 655,
    "\u2581\uacc4\ud68d": 656,
    "er": 657,
    "\ubc88": 658,
    "\u258112": 659,
    "\u2581\uac01": 660,
    "\u2581\ucca8\ubd80": 661,
    "\u2581\uc9c0\ubd88": 662,
    "\u2581\uc6b0\uc120": 663,
    "\u2581\uc5f0\uacb0": 664,
    "\u2581\ubc14": 665,
    "\u2581\uc7a5\ube44": 666,
    "\ub2c8\uae4c": 667,
    "\ub4e4\uc740": 668,
    "\u2581\uacb0\uacfc": 669,
    "\u2581Korea": 670,
    "\u2581\uae30\ub2e4\ub9ac": 671,
    "\u2581\ubb34\uc2a8": 672,
    "were": 673,
    "\u2581high": 674,
    "\u2581\uc788\uc5c8\uc2b5\ub2c8\ub2e4": 675,
    "\u2581\uc190": 676,
    "\u2581\ubd80": 677,
    "\u2581too": 678,
    "\u2581\uc800\uc5d0\uac8c": 679,
    "\uc5c8\uc2b5\ub2c8\ub2e4": 680,
    "\u2581\uc9c0": 681,
    "\u2581\uc138\uacc4": 682,
    "\ucc98\ub7fc": 683,
    "\u2581\ud658\ubd88": 684,
    "\u2581\ud558": 685,
    "\u2581\ub9ce": 686,
    "\uc218": 687,
    "\u2581\uadf8\uac8c": 688,
    "\uc774\uc5d0\uc694": 689,
    "\uba70": 690,
    "\u2581\ub300": 691,
    "\uc2a4": 692,
    "\u2581\uc2dc\uc7a5": 693,
    "\u2581\uc788\ub2e4\ub294": 694,
    "(": 695,
    "\u2581\ucd9c\uc2dc": 696,
    "\u25818": 697,
    "\uae4c\uc694": 698,
    "\u2581\uae30\ud68c": 699,
    "\uc774\uc57c": 700,
    "\u2581D": 701,
    "\u2581\uc804\ud654": 702,
    "\u2581should": 703,
    "\u2581\uc788\uc73c\uba74": 704,
    "\u2581over": 705,
    "\u2581\uacf5\uae09": 706,
    "\u2581look": 707,
    "\u2581\ucd5c\ub300\ud55c": 708,
    "\uc778\ub370": 709,
    "3": 710,
    "\uc6b8": 711,
    "\u2581\uc788\uc73c\uc2dc\uba74": 712,
    "\u2581\ubd84": 713,
    "\u2581\uac74\uac15": 714,
    "\u2581\uc548\uc5d0": 715,
    "\u2581\ub530": 716,
    "\u2581\uc124\uc815": 717,
    "\u2581\ub2ec": 718,
    "\u2581\ub178\ub825": 719,
    "\u2581\ud588\uc2b5\ub2c8\ub2e4": 720,
    "\u2581\ubcc0\uacbd": 721,
    "\u2581\uc778\uae30": 722,
    "\uc528": 723,
    "\u2581\uc815\ud655": 724,
    "\u2581\ubc88\uc9f8": 725,
    "\u2581\uc0b4": 726,
    "\u2581\ubd80\ub3d9\uc0b0": 727,
    "\u2581here": 728,
    "\uc7a5": 729,
    "\ud558\uc2e0": 730,
    "\u2581\ubd80\ud0c1": 731,
    "es": 732,
    "\u2581\uac83\uc774\ub2e4": 733,
    "\u2581\uadf8\uac83\uc744": 734,
    "\uc774\ub2e4": 735,
    "\ub4e4\uc744": 736,
    "\u2581\uc774\uc57c": 737,
    "\uc90d\ub2c8\ub2e4": 738,
    "\u2581\uc120\ud0dd": 739,
    "\u2581\uc774\uc720": 740,
    "\u2581\ud22c\uc790": 741,
    "\u2581next": 742,
    "\u2581let": 743,
    "\u2581\uc81c\uc870": 744,
    "\u2581\uc124\uba85": 745,
    "\u2581\uc0ac\ub78c\ub4e4": 746,
    "th": 747,
    "\uc810": 748,
    "\uc9c0\ub9cc": 749,
    "\u2581see": 750,
    "\u2581\ubcf4\ud638": 751,
    "\uba85": 752,
    "\u2581\uccab": 753,
    "\u2581\uc5b4\uc81c": 754,
    "\u2581\uac8c\uc784": 755,
    "\u2581\uc785\ub2c8\ub2e4": 756,
    "\u2581\ub54c\ubb38\uc785\ub2c8\ub2e4": 757,
    "\u2581\ubbf8\uad6d": 758,
    "\uc778\uac00\uc694": 759,
    "\u2581\ubc1b\uc544": 760,
    "\u2581\uae30\uc874": 761,
    "\u2581\uc800\ub3c4": 762,
    "\u2581\ubd84\ub4e4": 763,
    "\u2581\uacbd\ud5d8": 764,
    "\u2581\ub9de\uc544": 765,
    "\u2581\uc0c8": 766,
    "\u2581\ube44\uc6a9": 767,
    "\u2581long": 768,
    "\u2581\ub0a0": 769,
    "\u2581\uc6d0\ud558\ub294": 770,
    "\u2581\uad6c\uc131": 771,
    "\u2581\uace0": 772,
    "\u2581\ud504\ub85c\uc81d\ud2b8": 773,
    "\u2581again": 774,
    "\u2581\ub420\uae4c\uc694": 775,
    "\u2581\ub3c4\ucc29": 776,
    "\u2581come": 777,
    "\u2581E": 778,
    "\u2581customers": 779,
    "\u2581used": 780,
    "\u2581\uc0ac\uace0": 781,
    "\u2581\ube0c\ub79c\ub4dc": 782,
    "\u2581\uc624\ube60": 783,
    "\u2581\uc790\ub3d9": 784,
    "\u2581\uc9c1\uc6d0": 785,
    "\u2581\ucc98\uc74c": 786,
    "\u2581\uc801\uc6a9": 787,
    "\u2581\uc18c\ud504\ud2b8\uc6e8\uc5b4": 788,
    "\u2581\uc0ac\uc774\uc988": 789,
    "\u2581\uc54a\uace0": 790,
    "\uc8fc\uc2dc\uba74": 791,
    "\u2581As": 792,
    "\u2581\uacb0\uc81c": 793,
    "\u2581Ou": 794,
    "\u2581\uc0c1\ud0dc": 795,
    "\u2581\ud574\uc11c": 796,
    "\u2581\uacb0\uc815": 797,
    "\u2581\uc598\uae30": 798,
    "\u2581\uac1c\uc778": 799,
    "\u2581after": 800,
    "\u2581\uac71\uc815": 801,
    "\uae4c": 802,
    "\u2581\uc774\uc57c\uae30": 803,
    "\uc544": 804,
    "\u2581\uad6c": 805,
    "\u2581\ubc1b\uc744": 806,
    "\u2581\ud558\uc9c0": 807,
    "\u258115": 808,
    "\u2581\uc8fc\uc2e0": 809,
    "\u2581day": 810,
    "\u2581\uae30\uc069\ub2c8\ub2e4": 811,
    "\u2581\uc9c4\uc2ec": 812,
    "\uc785\ub2c8\uae4c": 813,
    "\u2581\uae30": 814,
    "\u2581\ubc30\ud130\ub9ac": 815,
    "\u2581He": 816,
    "\u2581\ub4dc\ub9b4": 817,
    "\u2581\uc624\ud6c4": 818,
    "\ucc28": 819,
    "\u2581\uc788\uac8c": 820,
    "\u2581\uc628": 821,
    "\u2581\ubd88\ud3b8": 822,
    "\u2581\uc704\uce58": 823,
    "\u2581\ud55c\uad6d\uc5d0\uc11c": 824,
    "\u2581\uc624\ub798": 825,
    "\ube44": 826,
    "\u2581\uadf8\ub807\uc8e0": 827,
    "\u2581provide": 828,
    "\u2581\uc81c\uacf5": 829,
    "\uce58": 830,
    "\u2581\ud544\uc694\ud569\ub2c8\ub2e4": 831,
    "\u2581\uac83\ub3c4": 832,
    "\u2581\ub41c": 833,
    "\u2581\uc788\ub2e4\uace0": 834,
    "\u2581\ub418": 835,
    "\u2581\uc7a5\uce58": 836,
    "\u2581\ub9de": 837,
    "\u2581\ub098\uc640": 838,
    "\u2581\ud558\ub294\ub370": 839,
    "\u2581week": 840,
    "\u2581\uc704\ud574\uc11c": 841,
    "\u2581\ud6a8\uacfc": 842,
    "\ub09c": 843,
    "\uc0c1": 844,
    "\u2581last": 845,
    "\u2581\uace7": 846,
    "\u2581does": 847,
    "\u2581soon": 848,
    "\u2581\uc2dd\uc0ac": 849,
    "\uac1c\uc758": 850,
    "\u2581\uc88b\uc544\uc694": 851,
    "\uc6d0": 852,
    "\u2581\ub4dc\ub9ac\uace0": 853,
    "\uc18c": 854,
    "\ub9b4": 855,
    "\u2581\ubb34": 856,
    "\u2581\uc88b\uaca0\uc2b5\ub2c8\ub2e4": 857,
    "\u2581\uc18c\uac1c\ud574": 858,
    "\u25819": 859,
    "\u2581e": 860,
    "\u2581Then": 861,
    "\u2581\ucd5c\uadfc": 862,
    "\u2581\ud558\ub8e8": 863,
    "\u2581\uc218\ub7c9": 864,
    "\u258150": 865,
    "\u2581\ub458": 866,
    "\u2581\uad00": 867,
    "\u2581\uae08\uc561": 868,
    "\u2581\ub9cc": 869,
    "\uac00\uc694": 870,
    "\u2581Wow": 871,
    "\u2581\ube44\uc988\ub2c8\uc2a4": 872,
    "\u2581\uc788\ub294\ub370": 873,
    "\u2581\uac70\uc758": 874,
    "many": 875,
    "\u2581\uad11\uace0": 876,
    "\ub370": 877,
    "\u2581\ud3b8": 878,
    "\u2581\ubc1b\uc558\uc2b5\ub2c8\ub2e4": 879,
    "\u2581\ubc18": 880,
    "\ub2e4\ub294": 881,
    "\u2581\ub9cc\ub098": 882,
    "\u2581\ud0c0": 883,
    "\u2581\ud6c4\uc5d0": 884,
    "\u2581\ub4e4\uc5c8\uc2b5\ub2c8\ub2e4": 885,
    "\u2581\ucc3e": 886,
    "\u2581\uc5c5\ubb34": 887,
    "\u2581\ub3c4\uc6c0": 888,
    "\u2581\uc0c8\ub85c": 889,
    "\ub2e4\uace0": 890,
    "\u2581\uae30\uacc4": 891,
    "\uc2dd": 892,
    "\u2581\ub3c4\uc640": 893,
    "\u2581\uac15": 894,
    "\ub4e0": 895,
    "\u2581\uc911\uc694\ud55c": 896,
    "\ub0c5": 897,
    "\u2581\uc870\uc808": 898,
    "\uc796\uc544\uc694": 899,
    "\uae34": 900,
    "\u2581ask": 901,
    "\u2581\ubc1c\uc804": 902,
    "\u2581\uc694\uc998": 903,
    "\u2581\uc989": 904,
    "\u2581won": 905,
    "\u2581\ub17c\uc758": 906,
    "\u2581\uce74\uba54\ub77c": 907,
    "\u2581\uc5c6\uc5b4\uc694": 908,
    "\u2581\uae30\ub300": 909,
    "\u2581\ubc29": 910,
    "\uc8fc\uc138\uc694": 911,
    "\u2581\uc0ac\uc6a9\ud558\uc5ec": 912,
    "\uba74\uc11c": 913,
    "\u2581\ub418\uc9c0": 914,
    "\u2581\uc6d0\ub798": 915,
    "\u2581\uacf5\uac04": 916,
    "\uac70\ub4e0\uc694": 917,
    "\ud55c\ud14c": 918,
    "\u2581even": 919,
    "\u2581year": 920,
    "\u2581\uc911\uc5d0": 921,
    "\u2581\uc788\uaca0\uc2b5\ub2c8\ub2e4": 922,
    "\u2581Do": 923,
    "\u2581\uc2e0": 924,
    "\u2581\ub3fc\uc694": 925,
    "\uc801": 926,
    "\u2581\uc778": 927,
    "\u2581\uc591": 928,
    "\u2581\ucef4\ud4e8\ud130": 929,
    "\u2581\uc5f4": 930,
    "\u2581design": 931,
    "\u2581\ubcf4\uad00": 932,
    "\ub7ec": 933,
    "\u2581Is": 934,
    "\u2581\uc2a4\ub9c8\ud2b8": 935,
    "\u2581\uc704": 936,
    "\u2581\uc788\ub2e4\uba74": 937,
    "\ub2f9": 938,
    "\ub2d8": 939,
    "\u2581place": 940,
    "\u2581\uce74\ud0c8\ub85c\uadf8": 941,
    "\ub300\ub85c": 942,
    "\u2581\uac19\uc544": 943,
    "\u2581\ub0a9\ud488": 944,
    "\u2581\uc88b\uc744": 945,
    "\u2581\uc644\uc804": 946,
    "\u2581\ub0a0\uc9dc": 947,
    "\u2581information": 948,
    "\u2581\ub418\uac8c": 949,
    "\uac04": 950,
    "\u2581\uacf3": 951,
    "\u2581\uc90d\ub2c8\ub2e4": 952,
    "\u2581\uac00\uaca9\uc774": 953,
    "\u2581\ub204\uad6c": 954,
    "\u2581\uc694\uad6c": 955,
    "\u2581\uae30\uc900": 956,
    "\u2581\uc644\ubcbd": 957,
    "\u2581\ub9c8\uc74c": 958,
    "\u2581\ubaa8\ub378": 959,
    "\u2581\ucd94\ucc9c": 960,
    "\u2581They": 961,
    "\u2581\uc608\uc0c1": 962,
    "\u2581days": 963,
    "ous": 964,
    "\u2581\uc720\uc9c0": 965,
    "\u2581\ud68c\uc0ac\uc5d0": 966,
    "\u2581\uc54a\uc744": 967,
    "\u2581service": 968,
    "\u2581\uadf8\uac70": 969,
    "\u2581through": 970,
    "\u2581could": 971,
    "\u2581different": 972,
    "\u2581\ub300\ub7c9": 973,
    "\u2581contract": 974,
    "\u2581give": 975,
    "\uc778\uc9c0": 976,
    "\u2581\uc131\uacf5": 977,
    "\u2581\ubcf4\ub0b4\ub4dc\ub9ac\uaca0\uc2b5\ub2c8\ub2e4": 978,
    "\u2581\uc774\uac74": 979,
    "\u2581\uc804\ubb38": 980,
    "\uc77c\uc5d0": 981,
    "\u2581\ucde8\uc18c": 982,
    "\u2581\uc54a\uc740": 983,
    "\ub85c\ubd80\ud130": 984,
    "\u2581\uc9c0\uc5ed": 985,
    "\u2581\uc5ec\ud589": 986,
    "out": 987,
    "\u2581\uac80\uc0ac": 988,
    "\u2581\uadc0\uc0ac\uc640": 989,
    "\ub4dc": 990,
    "\u2581\uac19\uc740\ub370": 991,
    "\u2581un": 992,
    "\u2581number": 993,
    "\u2581\uc791\uc131": 994,
    "\u2581Hello": 995,
    "\u2581\uc635\uc158": 996,
    "\uac1c\uc6d4": 997,
    "\u2581\uc0ac\uc6a9\uc790": 998,
    "\u2581\ub192": 999,
    "\uc838": 1000,
    "\u2581du": 1001,
    "\u2581\ub9c8\ucf00\ud305": 1002,
    "\u2581\uc74c": 1003,
    "\uc8fc\uc2e0": 1004,
    "\ud558\uba74\uc11c": 1005,
    "\u2581\ud3ec\uc7a5": 1006,
    "\uc608\uc694": 1007,
    "\u2581\uc790\ub8cc": 1008,
    "\u2581\uc6d0\ud558\uc2dc\ub294": 1009,
    "\u2581\uc544\uc774": 1010,
    "\u2581\ub6f0\uc5b4": 1011,
    "\u2581buy": 1012,
    "\u2581three": 1013,
    "\u2581\uc77c\uc8fc\uc77c": 1014,
    "\u2581\uc788\uc73c\uba70": 1015,
    "\u2581\ucda9\ubd84": 1016,
    "\u2581\ub9de\uc544\uc694": 1017,
    "\u2581\ub9cc\ub4e4\uc5b4": 1018,
    "\u2581\ub4e4\uc5b4": 1019,
    "\ud588\ub358": 1020,
    "\u2581\uc54a\ub294": 1021,
    "st": 1022,
    "\u2581\ubcf4\uc138\uc694": 1023,
    "\u2581\uc774\ud574": 1024,
    "\u2581\ud06c\uae30": 1025,
    "\u2581\uc124\uacc4": 1026,
    "\u2581\uc2e0\uccad": 1027,
    "\ub0a0": 1028,
    "\u2581\uc218\ucd9c": 1029,
    "\uc0ac\uc758": 1030,
    "\u2581hope": 1031,
    "\u2581\uc8fc\uc18c": 1032,
    "\u2581way": 1033,
    "\u2581\uc81c\uac70": 1034,
    "\uc9d1\ub2c8\ub2e4": 1035,
    "\u2581\uc774\ub984": 1036,
    "\u2581\ubcf4\uc548": 1037,
    "\u2581\ucc28\ub7c9": 1038,
    "\u2581\ucc3e\uace0": 1039,
    "\u2581\uc6b4\uc601": 1040,
    "\ud654": 1041,
    "\u2581\ud574\uc694": 1042,
    "\ud2b8": 1043,
    "\u2581\uc8fc\uc694": 1044,
    "\u2581\ud30c\uc77c": 1045,
    "D": 1046,
    "\u2581\uc778\ud130\ub137": 1047,
    "\u2581\ub9d0\uc500\ud574": 1048,
    "\u2581\uc2e0\ub8b0": 1049,
    "\u2581B": 1050,
    "\u2581\uadf8\ub54c": 1051,
    "\uac00\uc9c0": 1052,
    "\u2581\uc548\ub0b4": 1053,
    "\u2581introduce": 1054,
    "\u2581\uc5b4\ub290": 1055,
    "\u2581\ube60\ub974\uac8c": 1056,
    "\u2581\uc601\uc0c1": 1057,
    "\u2581\uc790\ub3d9\ucc28": 1058,
    "\u2581questions": 1059,
    "\u2581\uadf8\ub300\ub85c": 1060,
    "\u2581\uc774\ub3d9": 1061,
    "\u2581\uc694\ub9ac": 1062,
    "\u2581\ud3b8\uc548": 1063,
    "\uc774\uba70": 1064,
    "\ub9b0": 1065,
    "\u2581\uc791\ub3d9": 1066,
    "\uad6c\ub098": 1067,
    "\u2581\ucc45": 1068,
    "\u2581\ub0b4\uc5d0": 1069,
    "\u2581\ub9cc\ub4e0": 1070,
    "\ud568": 1071,
    "\u2581\ud589\uc0ac": 1072,
    "\u2581\uc2f6\uc740": 1073,
    "\u2581\uad6d\uc81c": 1074,
    "\u2581\uc790\uc2e0": 1075,
    "\u2581great": 1076,
    "\u2581\ub300\ubd80\ubd84": 1077,
    "\u2581\ubcf4\ud1b5": 1078,
    "\u2581\uc131\ub2a5": 1079,
    "\u2581\ud06c\uac8c": 1080,
    "\u2581\uc6d0\ub2e8": 1081,
    "\u2581\ubc29\uc9c0": 1082,
    "\u2581\uc5ed\uc2dc": 1083,
    "\u2581\uc544\ub798": 1084,
    "\u2581\uc704\ud5d8": 1085,
    "\u2581\uc0ac\uc7a5\ub2d8": 1086,
    "\uc774\ub77c": 1087,
    "\u2581\uc6b0\uc218": 1088,
    "\u2581\ub9de\ub294": 1089,
    "\u2581\uc0c1": 1090,
    "\uc154\uc57c": 1091,
    "\u2581\ubcf8\uc0ac": 1092,
    "\u2581\ubd80\ub4dc\ub7ec": 1093,
    "\u2581\uad49\uc7a5": 1094,
    "\u2581\ub0c4\uc0c8": 1095,
    "\u2581\uc544\ub2d9\ub2c8\ub2e4": 1096,
    "\u2581had": 1097,
    "\u2581their": 1098,
    "\u2581back": 1099,
    "\u2581\ubd80\ud488": 1100,
    "\u2581\ubb34\uc120": 1101,
    "\u2581\uac80\ud1a0": 1102,
    "\u2581\ub208": 1103,
    "\u2581\ud300": 1104,
    "\u2581\ucd9c\uc7a5": 1105,
    "\u2581\ubcf4\uc7a5": 1106,
    "\u2581these": 1107,
    "\u2581\uac04": 1108,
    "\u2581\uac08": 1109,
    "\u2581\ub9e4": 1110,
    "\ud558\uc2dc\ub294": 1111,
    "\u2581C": 1112,
    "\u2581\ub098\ub3c4": 1113,
    "\u2581\uc8fc\uc5d0": 1114,
    "\u2581\uc5b4\ub514": 1115,
    "\u2581\uadc0\uc0ac\uc5d0\uc11c": 1116,
    "\u2581\uc804\uccb4": 1117,
    "\u2581which": 1118,
    "\u2581\uc65c\ub0d0\ud558\uba74": 1119,
    "\u2581sorry": 1120,
    "\u2581\uc18d\ub3c4": 1121,
    "\u2581Let": 1122,
    "\u2581\uc5f0\ub77d\ucc98": 1123,
    "\u2581Can": 1124,
    "\u2581\uc720\uba85": 1125,
    "\u2581\uc791\uc740": 1126,
    "\u2581\ud658\uacbd": 1127,
    "\u2581\uc544\ub2c8\uc694": 1128,
    "\uc600\uc2b5\ub2c8\ub2e4": 1129,
    "\u2581\uccad\uc18c": 1130,
    "\uc81c": 1131,
    "\u2581\uc804\uae30": 1132,
    "\uc0b0": 1133,
    "\u2581\uc790\uc0ac": 1134,
    "\u2581\uadf8\ub798\ub3c4": 1135,
    "\u2581problem": 1136,
    "\u2581\ubc30": 1137,
    "\u2581team": 1138,
    "\u2581\uc0ac\ub78c\uc774": 1139,
    "\u2581\uac04\ub2e8": 1140,
    "\u2581\uc0ac\ubb34\uc2e4": 1141,
    "\u2581\ucd5c\uc120": 1142,
    "\u2581such": 1143,
    "\u2581\uc804\ud600": 1144,
    "\u2581may": 1145,
    "\u2581\uc815": 1146,
    "\u2581\ub9cc\ub4e4": 1147,
    "\u2581some": 1148,
    "\u2581\ubaa8": 1149,
    "\u2581\ubcf4\ub0b4\uc8fc": 1150,
    "\u2581\uad00\uacc4": 1151,
    "\u2581\uc800\uae30": 1152,
    "\u2581\ud504\ub85c\uadf8\ub7a8": 1153,
    "\uc774\uace0": 1154,
    "\ub4f1": 1155,
    "\u2581\uc5c6\uc5b4": 1156,
    "\u258111": 1157,
    "\u2581feel": 1158,
    "\u2581\ubcf4\ud5d8": 1159,
    "\u2581\uba85": 1160,
    "\u2581\uc804\ub2ec": 1161,
    "\u2581market": 1162,
    "\u2581Korean": 1163,
    "\u2581\uc544\ub9c8": 1164,
    "\u2581\uc88b\ub2e4": 1165,
    "\u2581\ub123": 1166,
    "\u2581\ud2b9\ubcc4": 1167,
    "\u2581\ub2e8": 1168,
    "\u2581\uac11\uc790\uae30": 1169,
    "\u2581email": 1170,
    "\u2581100%": 1171,
    "\u2581\ud5a5": 1172,
    "\uc885": 1173,
    "\u2581\uc131\uc7a5": 1174,
    "\u2581\uc0ac\uc6a9\ud574": 1175,
    "\u2581\uc218\uc785": 1176,
    "\u2581\ub2f9\uc2e0\uc5d0\uac8c": 1177,
    "\u2581\uc7ac\ub8cc": 1178,
    "\uc2ed\uc2dc\uc624": 1179,
    "\u2581\uac70\uc8e0": 1180,
    "\ud558\uba70": 1181,
    "\u2581\uc801": 1182,
    "\u2581\uc758\ubbf8": 1183,
    "\u2581\uc0ac\uc6a9\ud558\ub294": 1184,
    "\u2581\uc0ac\ub78c\ub4e4\uc774": 1185,
    "\u2581\ub9de\ucdb0": 1186,
    "\u2581\uae30\ubcf8": 1187,
    "\u2581\ub2f4\ub2f9\uc790": 1188,
    "\uad70\uc694": 1189,
    "\u2581\uc120\uc801": 1190,
    "\u2581\uadf8\ub7ec": 1191,
    "\u2581water": 1192,
    "\u2581\ucd5c\uc2e0": 1193,
    "\u2581\ub0ae": 1194,
    "\u2581TV": 1195,
    "\u2581into": 1196,
    "\u2581\uae30\ub2e4\ub9ac\uaca0\uc2b5\ub2c8\ub2e4": 1197,
    "\u2581\uc804\ud1b5": 1198,
    "\u2581\ud558\uae30": 1199,
    "\u2581\uc601\ud5a5": 1200,
    "\u2581\ubc88\ud638": 1201,
    "\u2581today": 1202,
    "\u2581\uac16\uace0": 1203,
    "\u2581\ubcc4\ub3c4": 1204,
    "\u2581\uc77c\ubc18": 1205,
    "\u2581\uad50\ud658": 1206,
    "\u2581\uc62c": 1207,
    "\u2581\uae30\ub2a5\uc774": 1208,
    "\u2581\uae68\ub057": 1209,
    "\u2581\ubc1b\uace0": 1210,
    "\u2581\ucc38\uc5ec": 1211,
    "\u2581\ub9cc\ud07c": 1212,
    "\u2581\uad81\uae08": 1213,
    "\u2581\uc54a\uc544": 1214,
    "in": 1215,
    "\u2581\ubc1c\uc1a1": 1216,
    "\ub7f0": 1217,
    "\u2581P": 1218,
    "\u2581\ub4e4\uc5b4\uac00": 1219,
    "\u2581\ud3ec\ud568\ub418\uc5b4": 1220,
    "\u2581\uc720": 1221,
    "\u2581\ud2b9\uc815": 1222,
    "\u2581\ud6e8\uc52c": 1223,
    "\u2581\uc57d\uc18d": 1224,
    "\u2581delivery": 1225,
    "\u2581thank": 1226,
    "\u2581Hey": 1227,
    "\u2581\uac00\uac8c": 1228,
    "\u2581\ud65c\ub3d9": 1229,
    "\u2581set": 1230,
    "\u2581\uba38\ub9ac": 1231,
    "\u2581\uacf5": 1232,
    "\u2581\uc790\ub9ac": 1233,
    "\u2581years": 1234,
    "\u2581\uc2a4\ud0c0\uc77c": 1235,
    "\u2581\uc628\ub3c4": 1236,
    "\u2581\ub300\ud45c": 1237,
    "\ub3d9": 1238,
    "\u2581\uc778\uc0c1": 1239,
    "\u2581\uc870\uac74": 1240,
    "\u2581\uc870": 1241,
    "\ub418\uace0": 1242,
    "\u2581\ubcf4\ub2e4": 1243,
    "\u2581\uc8fc\ubb38\ud55c": 1244,
    "\u2581\uc790\uccb4": 1245,
    "\ubc30": 1246,
    "\u2581home": 1247,
    "\u2581\uc788\uc9c0": 1248,
    "\uc138": 1249,
    "\u2581\ub290\ub08c": 1250,
    "\ubcc4": 1251,
    "\u2581\ubd88": 1252,
    "\u2581\uae30\uc5b5": 1253,
    "\u2581eat": 1254,
    "\u2581visit": 1255,
    "\u2581\uc624\ub79c": 1256,
    "\u2581\uadc0\ud558\uaed8": 1257,
    "\u2581\uad50\uccb4": 1258,
    "\u2581\uc2dc\uc124": 1259,
    "\u2581said": 1260,
    "\u2581\ud655\uc2e4\ud788": 1261,
    "\u2581\uc8fc\uc2e4": 1262,
    "\u2581\uac74\ubb3c": 1263,
    "cm": 1264,
    "\u2581\uad6c\uc870": 1265,
    "\u2581\uc5b4\ub824": 1266,
    "\u2581\uc2dd\ud488": 1267,
    "\u2581\ubabb\ud588\uc2b5\ub2c8\ub2e4": 1268,
    "\u2581looking": 1269,
    "\u2581\uc81c\uacf5\ud574": 1270,
    "\u2581quality": 1271,
    "\u2581\uad81\uae08\ud55c": 1272,
    "\uc74c": 1273,
    "\u2581\uc81c\uc5b4": 1274,
    "\u2581\ub9c8\uc9c0\ub9c9": 1275,
    "\u2581\uba39": 1276,
    "\u2581\ud648\ud398\uc774\uc9c0": 1277,
    "\u2581\uc5c5\uccb4": 1278,
    "\u2581\ud1b5": 1279,
    "\u2581\uc81c\uacf5\ud558\ub294": 1280,
    "\u2581\ub193": 1281,
    "\u2581\uac1c\uc120": 1282,
    "\u2581\uc774\uac70\ub294": 1283,
    "\ubcfc": 1284,
    "\u2581food": 1285,
    "\u2581\uc74c\ub8cc": 1286,
    "\u2581\ucc28\uc774": 1287,
    "\u2581little": 1288,
    "\u2581why": 1289,
    "\u2581\ub0b4\uad6c\uc131": 1290,
    "\u2581\ub9c8\ubb34\ub9ac": 1291,
    "\u2581\ubaa9\ud45c": 1292,
    "\u2581\uace0\uac1d\ub2d8\uaed8\uc11c": 1293,
    "\u2581put": 1294,
    "\u2581\uc9c0\ub09c\ubc88": 1295,
    "\u2581\uc571": 1296,
    "\u2581\uc9c0\uc5f0": 1297,
    "\u2581\uc601\uc5c5": 1298,
    "\u2581\uc138\ud2b8": 1299,
    "\u2581\uc774\ubbf8\uc9c0": 1300,
    "\u2581\uc774\uc775": 1301,
    "\u2581\uc9c1\uc6d0\ub4e4": 1302,
    "\u2581\uc785": 1303,
    "\u2581\uc7a5\uc18c": 1304,
    "\u2581\uc5c6\ub2e4": 1305,
    "\u2581\ubab8": 1306,
    "\u2581\uce74\ub4dc": 1307,
    "\u2581500": 1308,
    "\u2581\uad50\uc721": 1309,
    "\ud569\ub2c8\uae4c": 1310,
    "\u2581\uc2dd\ub2f9": 1311,
    "\ud574\uc694": 1312,
    "\u2581\ub300\ube44": 1313,
    "\u2581O": 1314,
    "\u2581\ucda9\uc804": 1315,
    "\u2581\uc601\ud654": 1316,
    "\u2581each": 1317,
    "\u2581must": 1318,
    "\u2581schedule": 1319,
    "\u2581pay": 1320,
    "\u2581special": 1321,
    "\u2581\uceec\ub7ec": 1322,
    "\u2581\ud544\ud130": 1323,
    "\ubd80": 1324,
    "\u2581\ub09c": 1325,
    "\u2581\ubd84\uc11d": 1326,
    "\u2581\ubcf4\uba74": 1327,
    "\u2581\uad81\uae08\ud558\uc2e0": 1328,
    "\u2581\ubcf4\uc5ec": 1329,
    "\uac70": 1330,
    "\u2581\uc2dc\uac04\uc5d0": 1331,
    "\u2581\uac74\uac00\uc694": 1332,
    "\u2581\ud574\uacb0": 1333,
    "\u2581\uc5ec\uae30\uc11c": 1334,
    "\ub825": 1335,
    "\u2581\uc870\uc0ac": 1336,
    "\u2581\ubb3c\uac74": 1337,
    "\u2581\uac00\ub2a5\ud560": 1338,
    "\u2581\ud14c\uc2a4\ud2b8": 1339,
    "\u2581\uae30\uac04": 1340,
    "\u2581\uba54\ub274": 1341,
    "\u2581\ub9cc\ub4dc\ub294": 1342,
    "\u2581\uc654\uc2b5\ub2c8\ub2e4": 1343,
    "\u2581\ub418\uba74": 1344,
    "\u2581\uc544\ub2c8\uba74": 1345,
    "\u2581\uc8fc\ubb38\ud558\uc2e0": 1346,
    "\u2581\ucd5c\uadfc\uc5d0": 1347,
    "\u2581\uac10\uc0ac\ud558\uaca0": 1348,
    "\u2581\uad6d\ub0b4": 1349,
    "\u2581\uacfc\uc815": 1350,
    "\u2581\uc11c\ub85c": 1351,
    "\u2581\uc544\uc774\ub4e4": 1352,
    "\ucc9c": 1353,
    "\u2581\uad1c\ucc2e\uc544": 1354,
    "\u2581\ubc1c\uc0dd": 1355,
    "\u2581better": 1356,
    "\u2581current": 1357,
    "\u2581My": 1358,
    "se": 1359,
    "\u2581\ubb34\uc5c7": 1360,
    "\u2581\uc62c\ud574": 1361,
    "\u2581\uc81c\ub300\ub85c": 1362,
    "\u2581\uc804\uc790": 1363,
    "\ub2e8": 1364,
    "\u2581\uac04\ud3b8": 1365,
    "\u2581\ud2b9\uc9d5": 1366,
    "\u2581\ud588\ub294\ub370": 1367,
    "g": 1368,
    "\u2581\uc81c\ud488\ub4e4": 1369,
    "\u2581\uc624\ub298\uc740": 1370,
    "a": 1371,
    "\u2581\uc6f9\uc0ac\uc774\ud2b8": 1372,
    "\u2581\uc544\ub2cc": 1373,
    "\u2581\ub0a8": 1374,
    "\u2581\ub4a4": 1375,
    "\u2581\uc13c\ud130": 1376,
    "\u2581\uc740\ud589": 1377,
    "\u2581\uc18c": 1378,
    "\u2581\uc5c6\uc744": 1379,
    "\u2581month": 1380,
    "\u2581\uba39\ub294": 1381,
    "\u2581\ubd80\ub4dc\ub7fd": 1382,
    "\u2581\uc2dc\uc77c": 1383,
    "\u2581\uc5c4\uccad": 1384,
    "\u2581date": 1385,
    "\u2581\uc7a0\uae50\ub9cc": 1386,
    "\u2581\uc5ec\uc804": 1387,
    "\u2581\ub514\uc9c0\ud138": 1388,
    "\u2581away": 1389,
    "\u2581\ub300\uc2e0": 1390,
    "\u2581\uc54a\uc558\uc2b5\ub2c8\ub2e4": 1391,
    "\u2581\uc0c1\ub2f4": 1392,
    "\uc120": 1393,
    "\u2581before": 1394,
    "\u2581Are": 1395,
    "\u2581\uc544\uae4c": 1396,
    "\u2581\ub418\ub098\uc694": 1397,
    "\u2581L": 1398,
    "\u2581ordered": 1399,
    "\u2581\uc54c\uac8c": 1400,
    "\u2581\ud604\uc9c0": 1401,
    "\u2581then": 1402,
    "\ub4e4\uc758": 1403,
    "\u2581\uc9c0\ub0b4": 1404,
    "\ud68c": 1405,
    "\u2581\ub4e4": 1406,
    "\u2581person": 1407,
    "\u2581T": 1408,
    "\uace0\uc694": 1409,
    "\u2581\ucc38": 1410,
    "\u2581\uc788\uc5b4\uc57c": 1411,
    "\u2581\ub4dc\ub838\uc2b5\ub2c8\ub2e4": 1412,
    "\u2581\ub4dc\ub9ac": 1413,
    "\uc704": 1414,
    "\u2581\uc801\uc774": 1415,
    "\u2581\ube44\ud574": 1416,
    "\u2581\uc804\ud654\ub97c": 1417,
    "\u2581receive": 1418,
    "\u2581First": 1419,
    "\u2581tell": 1420,
    "\u2581still": 1421,
    "\u2581\uc544\uc774\ub514\uc5b4": 1422,
    "\u2581forward": 1423,
    "\u2581hard": 1424,
    "\u2581\ub098\uc911\uc5d0": 1425,
    "\u2581while": 1426,
    "\u2581technology": 1427,
    "\u2581\uc810\uc774": 1428,
    "\u2581payment": 1429,
    "\u2581down": 1430,
    "\u2581received": 1431,
    "\u2581\uc5bb": 1432,
    "\u258125": 1433,
    "\u2581\uc2e4\uc81c\ub85c": 1434,
    "\u2581\ud53c": 1435,
    "\u258124": 1436,
    "mail": 1437,
    "\ucd08": 1438,
    "\uc529": 1439,
    "\ub354": 1440,
    "\u2581\ub123\uc5b4": 1441,
    "\ud558\uc2ed\uc2dc\uc624": 1442,
    "\u2581\uae30\uae30": 1443,
    "\u2581\ub9c8\uc74c\uc5d0": 1444,
    "\u2581\ub3c4\ub9e4": 1445,
    "\u2581\ubc29\uc2dd": 1446,
    "\u2581p": 1447,
    "\u2581\ub3d9": 1448,
    "\u2581\uac83\uc5d0": 1449,
    "\u2581\uc11c\ube44\uc2a4\uc5d0": 1450,
    "\u2581R": 1451,
    "\u2581AI": 1452,
    "\u2581\ub4dc\ub824": 1453,
    "\u2581\uacc4\uc57d\uc11c": 1454,
    "\u2581\ubc1b\uc73c": 1455,
    "\u2581\ud55c\uad6d\uc5d0": 1456,
    "\u2581\uc9d1\uc5d0": 1457,
    "\u2581\uc758\uacac": 1458,
    "\u2581addition": 1459,
    "\u2581\ud64d\ubcf4": 1460,
    "\u258140": 1461,
    "\u2581Why": 1462,
    "\u2581\uaf64": 1463,
    "\u2581taste": 1464,
    "\u2581\uae30\ubc18": 1465,
    "\u2581answer": 1466,
    "\u2581\uadf8\ub140": 1467,
    "\u2581\uc5d0\ub108\uc9c0": 1468,
    "\u2581\uc0c1\ub2f9": 1469,
    "\u2581quickly": 1470,
    "\u2581most": 1471,
    "\u2581\ub85c\ubd07": 1472,
    "\u2581\ucf54\ub85c\ub098": 1473,
    "\u2581\uac15\ub825": 1474,
    "\u2581\uadf8\uac74": 1475,
    "\u2581\uc6b4\uc1a1": 1476,
    "\u2581\uc8fc\ub294": 1477,
    "\u2581\ud3c9\uac00": 1478,
    "\u2581\uc0dd\ud65c": 1479,
    "\u2581\uac74\uc870": 1480,
    "\u2581\uc81c\uacf5\ud558\uace0": 1481,
    "\u2581\ubc1c": 1482,
    "\ubc15": 1483,
    "\ub418\uc9c0": 1484,
    "kg": 1485,
    "\ubc16\uc5d0": 1486,
    "\u2581vari": 1487,
    "\u2581\uace0\uac1d\ub4e4": 1488,
    "\u2581\ub300\ub85c": 1489,
    "\u2581\uc14b": 1490,
    "\u2581\uc778\uc0ac": 1491,
    "ion": 1492,
    "\uc5c8\ub358": 1493,
    "\u2581\uac00\uc871": 1494,
    "\uc84c\uc2b5\ub2c8\ub2e4": 1495,
    "\u2581\ucc3d\uace0": 1496,
    "\u2581\ubb34\uc5c7\uc744": 1497,
    "\u2581purchase": 1498,
    "\u2581store": 1499,
    "\ub958": 1500,
    "\u2581\uc644\ub8cc": 1501,
    "\u2581\ucd5c\uc885": 1502,
    "\u2581\uacac\uc801": 1503,
    "\u2581meet": 1504,
    "\u2581she": 1505,
    "\u2581\uacb0\ud63c": 1506,
    "\u2581\uc788\uc73c\ub2c8": 1507,
    "\u2581keep": 1508,
    "\u2581When": 1509,
    "\u2581course": 1510,
    "\uce35": 1511,
    "\u2581sales": 1512,
    "\u2581try": 1513,
    "\u2581\uc54c\ub824\uc8fc\uc138\uc694": 1514,
    "\u2581\ub124\uac00": 1515,
    "ce": 1516,
    "\u2581\ub0b4\ubd80": 1517,
    "\u2581\uc788\uc9c0\ub9cc": 1518,
    "\uc2dc\uc5d0": 1519,
    "\u2581\ucc3e\uc544": 1520,
    "\u2581\uc784\ub300": 1521,
    "\ub0bc": 1522,
    "\u2581\ub9db\uc788": 1523,
    "\u2581\ub204": 1524,
    "fore": 1525,
    "\u2581\ub300\ub2e8": 1526,
    "\u2581\uc81c\ud488\uc73c\ub85c": 1527,
    "4": 1528,
    "\u2581200": 1529,
    "\u2581\uc18d": 1530,
    "\u2581\uc7ac": 1531,
    "le": 1532,
    "\u2581\uad6d\uac00": 1533,
    "\u2581\ubc1c\ud45c": 1534,
    "\u2581\uc800\ud76c\uc640": 1535,
    "\u2581\uc8fc\ubb38\ud558\uace0": 1536,
    "\u2581\uac00\uc785": 1537,
    "\ubbc0\ub85c": 1538,
    "\u2581\ub178": 1539,
    "\u2581F": 1540,
    "\u2581offer": 1541,
    "\u2581\uae4a": 1542,
    "ew": 1543,
    "\u2581\uc5ec": 1544,
    "\ub4dc\ub838\uc2b5\ub2c8\ub2e4": 1545,
    "\u2581\ubcf4\uc99d": 1546,
    "\u2581\ucee4\ud53c": 1547,
    "\u2581\uac00\ub2a5": 1548,
    "\ub514": 1549,
    "\ub77c\uba74": 1550,
    "\u2581bit": 1551,
    "\u2581\ubd84\uc704\uae30": 1552,
    "\u2581world": 1553,
    "\u2581\uc138\ubd80": 1554,
    "\u2581For": 1555,
    "\u2581\ub355\ubd84": 1556,
    "\u2581\uc790\uae30": 1557,
    "\u2581large": 1558,
    "\u2581\ubcf4\ub2c8\uae4c": 1559,
    "\u2581\uc5d4\uc9c4": 1560,
    "\u2581where": 1561,
    "\u2581\ub9de\uc2b5\ub2c8\ub2e4": 1562,
    "\u2581\uc11c\ub958": 1563,
    "\u2581\ubb34\uac8c": 1564,
    "\u2581\ub9e4\uc77c": 1565,
    "\u2581\uae0d\uc815\uc801": 1566,
    "\u2581\ubd84\uc774": 1567,
    "\ubb3c": 1568,
    "\u2581\uad00\ub828\ud558\uc5ec": 1569,
    "\u2581\uba39\uace0": 1570,
    "\u2581free": 1571,
    "\u2581\uc54c\uc544": 1572,
    "\uc8fc\uc2dc\uae30": 1573,
    "\u2581\ud55c\ub2e4": 1574,
    "\uad6c": 1575,
    "\u2581\ub9e4\uc7a5": 1576,
    "\u2581\uc18c\uc2dd\uc744": 1577,
    "\ub2e4\uba74": 1578,
    "\u2581\ubfd0\ub9cc": 1579,
    "\u2581\uce5c\uad6c": 1580,
    "\u2581\uc2f6\uc5b4": 1581,
    "\uc168\ub098\uc694": 1582,
    "\u2581\uc5b4\uba38": 1583,
    "\u2581\uc2e4": 1584,
    "\u2581process": 1585,
    "\ub77c\ub3c4": 1586,
    "\u2581\ubbf8\ub798": 1587,
    "\uc5b4\uc694": 1588,
    "\uacc4": 1589,
    "\ud130": 1590,
    "\u2581customer": 1591,
    "\uac00\uc9c0\uace0": 1592,
    "\ub4dc\ub9b4\uac8c\uc694": 1593,
    "\u2581\ud30c": 1594,
    "\u2581\uc54c\ub824\uc8fc": 1595,
    "\u2581\uac00\ub294": 1596,
    "\u2581\uc9c8\ubb38": 1597,
    "\u2581always": 1598,
    "\u2581research": 1599,
    "\u2581important": 1600,
    "\u2581\ub530\ub974\uba74": 1601,
    "\u2581amount": 1602,
    "\u2581\uadf8\ub807\ub2e4\uba74": 1603,
    "\ud574\uc8fc\uc138\uc694": 1604,
    "\u2581\uac78\ub9b4": 1605,
    "\u2581\uc5b4\ub835\uc2b5\ub2c8\ub2e4": 1606,
    "\u2581\ubd84\uba85": 1607,
    "\u2581same": 1608,
    "\u2581\uc5ed\ud560": 1609,
    "\u2581\ub300\uae08": 1610,
    "\ub4dc\ub9b0": 1611,
    "\u2581\uc815\ud655\ud788": 1612,
    "\u2581\ub9d0\uc774": 1613,
    "\uc796\uc544": 1614,
    "\u2581\uc804\uc6d0": 1615,
    "\u2581\uadf8\ub798\uc694": 1616,
    "\ud310": 1617,
    "\u2581\ub3c8": 1618,
    "\u2581\ub418\uace0": 1619,
    "\u2581\uc18c\uac1c\ud569\ub2c8\ub2e4": 1620,
    "ong": 1621,
    "\u2581\ud655\uc778\ud558\uace0": 1622,
    "\ub9c8": 1623,
    "\u2581\uace0\uc815": 1624,
    "\u2581\uadc0\uc0ac\uc5d0": 1625,
    "\u2581\uac00\uad6c": 1626,
    "\u2581\ubc30\uc1a1\uc774": 1627,
    "\u2581\uacf5\uc7a5": 1628,
    "\u2581\uc0c1\ud669\uc774": 1629,
    "\u2581\uc774\uc6a9\ud574": 1630,
    "\u2581\uc0b0\uc5c5": 1631,
    "\u2581\uc637": 1632,
    "\u2581\uc0ac\uc6a9\uc774": 1633,
    "\uc904": 1634,
    "\u2581say": 1635,
    "\u2581\ud655\uc7a5": 1636,
    "\u2581\uc751": 1637,
    "\u2581\uc8fc\ubc29": 1638,
    "\u2581Se": 1639,
    "\u2581\uad6c\uc785": 1640,
    "\u2581car": 1641,
    "\u2581size": 1642,
    "\u2581\uc9c4": 1643,
    "\u2581\uc2ec": 1644,
    "\u2581\uc138\ucc99": 1645,
    "\u2581\uc778\uc99d": 1646,
    "\u2581okay": 1647,
    "\u2581situation": 1648,
    "\u2581kind": 1649,
    "\u2581office": 1650,
    "\ud6c4": 1651,
    "\u2581\ub3d9\uc2dc\uc5d0": 1652,
    "\u2581\ubaa8\ubc1c": 1653,
    "\u2581name": 1654,
    "\u2581experience": 1655,
    "\u2581\uc6b4\ub3d9": 1656,
    "\u2581\ud63c\uc790": 1657,
    "\u2581\ub9c8\uc138\uc694": 1658,
    "\u2581\uc18c\uc2a4": 1659,
    "\u2581best": 1660,
    "\u2581\uace0\uae30": 1661,
    "\uae30\uac00": 1662,
    "ive": 1663,
    "\u2581\uc544\uc774\uace0": 1664,
    "\ud588\uc5b4\uc694": 1665,
    "\uc804": 1666,
    "\u2581\ub3c4\ub9e4\uac00": 1667,
    "\ub3d9\uc548": 1668,
    "ur": 1669,
    "\ub2f5": 1670,
    "\u2581\uc9c0\uc18d": 1671,
    "\uc5ec": 1672,
    "\u2581\ub2e8\uacc4": 1673,
    "\u2581\uc7a5": 1674,
    "\u2581\ub05d": 1675,
    "\u2581\ud65c\uc6a9": 1676,
    "\u2581\ud558\uc2e4": 1677,
    "\u2581\ubd84\uc57c": 1678,
    "\u2581\ud0a4": 1679,
    "tional": 1680,
    "\u2581\uc0b0": 1681,
    "\u2581\ud734\ub300": 1682,
    "\u2581\uc774\uc804": 1683,
    "\uc654\uc2b5\ub2c8\ub2e4": 1684,
    "\ubbf8": 1685,
    "\u2581\uc720\ub9ac": 1686,
    "\u2581\uc120": 1687,
    "\u2581\uc544\ud30c\ud2b8": 1688,
    "\u2581\uc808\ub300": 1689,
    "\uc6b0": 1690,
    "\uc774\uba74": 1691,
    "o": 1692,
    "\u2581mean": 1693,
    "\u2581\uc801\ud569": 1694,
    "\u2581\uc0dd\uac01\ud574": 1695,
    "\u2581\ud655\uc2e0": 1696,
    "\u2581\uc219\ubc15": 1697,
    "\u2581difficult": 1698,
    "\u2581Okay": 1699,
    "\u2581discount": 1700,
    "\u2581\ube44\ub514\uc624": 1701,
    "\u2581\uc774\ubca4\ud2b8": 1702,
    "\u2581\ucf58\ud150\uce20": 1703,
    "\u2581\uc0b4\uc9dd": 1704,
    "\u2581sent": 1705,
    "\u2581\uadfc\ub370": 1706,
    "\u2581\uc0c1\uc138": 1707,
    "\u2581\uc5c6\uc74c": 1708,
    "\u258110%": 1709,
    "\u2581production": 1710,
    "\u2581\uc694\uccad\ud558\uc2e0": 1711,
    "\u2581heard": 1712,
    "\u2581\ucf00\uc774\ube14": 1713,
    "\ub824\uace0": 1714,
    "\u2581\ub192\uc774": 1715,
    "\u2581\uc2f6\uc5b4\uc694": 1716,
    "\u2581\ub300\ubc15": 1717,
    "\u2581\ud639": 1718,
    "\u2581\ud615\ub2d8": 1719,
    "\u2581\uc790\ub791": 1720,
    "\u2581\ud55c\uad6d\uc5b4": 1721,
    "\u2581\uc5ec\ubd80": 1722,
    "\ub824": 1723,
    "\u2581\uce5c\ud658\uacbd": 1724,
    "\u2581\ub9c8\uc9c0\ub9c9\uc73c\ub85c": 1725,
    "\uc778\ub370\uc694": 1726,
    "ting": 1727,
    "\u2581\ubc1b\uc9c0": 1728,
    "mm": 1729,
    "\u2581\uac00\uaca9\uc5d0": 1730,
    "\ub824\uba74": 1731,
    "\u2581\uc9c0\uae08\uae4c\uc9c0": 1732,
    "\u2581\uac00\uc11c": 1733,
    "\u2581\uc7a5\ucc29": 1734,
    "\u2581\uacf5\uc720": 1735,
    "\u2581\uc8fc\ubcc0": 1736,
    "\u2581\ud798": 1737,
    "\ud558": 1738,
    "\u2581\uc911\uad6d": 1739,
    "\ud558\uc168\uc2b5\ub2c8\ub2e4": 1740,
    "\u2581\ub3c8\uc744": 1741,
    "\ud06c": 1742,
    "\u2581\uc800\ub141": 1743,
    "G": 1744,
    "\u2581\ubd80\uc871": 1745,
    "ear": 1746,
    "\u2581\uc138\ud0c1": 1747,
    "\ub0d0": 1748,
    "\u2581\ubbff": 1749,
    "\u2581\uc81c\uacf5\ud560": 1750,
    "\u2581\ub4f1\ub85d": 1751,
    "\u2581\uc218\uc900": 1752,
    "\u2581\uc5b4\ub5a0": 1753,
    "\u2581\ubd80\ubd84\uc774": 1754,
    "\u258118": 1755,
    "\u2581hear": 1756,
    "\u2581\ubc30\uc6b0": 1757,
    "\u2581\uc11c\uc6b8": 1758,
    "\u2581\uc798\ubabb": 1759,
    "\u2581\ub4dc": 1760,
    "\u2581\ubb54\uac00": 1761,
    "\u2581\ucd2c\uc601": 1762,
    "\u2581\ud3b8\uc548\ud568": 1763,
    "\u2581\uc0dd\uac01\uc774": 1764,
    "\u2581delivered": 1765,
    "\u2581\uadf8\ub3d9\uc548": 1766,
    "\u2581\ud68c\uc0ac\uc640": 1767,
    "\u2581inform": 1768,
    "\u2581All": 1769,
    "\u2581materials": 1770,
    "\ub294\ub370\uc694": 1771,
    "\u2581\uadf8\uac78": 1772,
    "\u2581\ubd84\ub4e4\uc774": 1773,
    "\u2581\uc0ac\uacfc": 1774,
    "\u2581re": 1775,
    "\u2581\uc99d\uac00": 1776,
    "\ub9cc\ud07c": 1777,
    "\u2581\uac83\uc774\ub77c": 1778,
    "\u2581\ub9ac": 1779,
    "\u2581\uc5c4\ub9c8": 1780,
    "\u2581\ubcf4\uc785\ub2c8\ub2e4": 1781,
    "\u2581\uc7a1": 1782,
    "\u2581\uc5c5\ub370\uc774\ud2b8": 1783,
    "\u2581show": 1784,
    "\u2581M": 1785,
    "\u2581\ub54c\ub294": 1786,
    "\u2581\uce21\uc815": 1787,
    "\u2581\ucd5c\uc18c": 1788,
    "\u2581\uad6c\ucd95": 1789,
    "\u2581color": 1790,
    "\u2581To": 1791,
    "1,": 1792,
    "\u2581\ub2f9\uc2e0\uacfc": 1793,
    "\u2581\ucd08": 1794,
    "\u2581\ubb34\ub8cc": 1795,
    "\u2581\uc9c8\ubb38\uc774": 1796,
    "\u2581\ud568\uc720": 1797,
    "\u2581\ub2f9\uc5f0": 1798,
    "\u2581start": 1799,
    "\u2581\ubb58": 1800,
    "\u2581companies": 1801,
    "\u2581Good": 1802,
    "\u2581hotel": 1803,
    "\u2581\uc6d4\uc694\uc77c": 1804,
    "\u2581easy": 1805,
    "\u2581skin": 1806,
    "\u2581\uadf8\ub7f4": 1807,
    "\u2581\uc788\uc73c\uc2dc\ub2e4\uba74": 1808,
    "\u2581\uae30\ud0c0": 1809,
    "\u2581both": 1810,
    "\u2581\ud53c\ubd80\uc5d0": 1811,
    "\u2581\uad1c\ucc2e\uc2b5\ub2c8\ub2e4": 1812,
    "\u2581\ud32c": 1813,
    "\u2581data": 1814,
    "\u2581\uc788\uc8e0": 1815,
    "\u2581\uc5b4\ub514\uc11c": 1816,
    "\u2581\uace0\uac1d\ub2d8\ub4e4": 1817,
    "\u2581\uac00\uc8fd": 1818,
    "\uac83": 1819,
    "\u2581details": 1820,
    "\u2581\ubcf4\uc2dc\uace0": 1821,
    "\uac10": 1822,
    "\u2581\uacbd\uc6b0\uc5d0": 1823,
    "\u2581\uc81c\uc548\uc11c": 1824,
    "\u2581\uc5c6\uc5c8": 1825,
    "\u2581\uc544\ub2c8\uace0": 1826,
    "\uc788\ub294": 1827,
    "\u2581\ub4a4\uc5d0": 1828,
    "\u2581\ud655\ubcf4": 1829,
    "\u2581\ubb38": 1830,
    "\ubcf8": 1831,
    "\ud588\ub2e4": 1832,
    "\u2581\uacf5\uae30": 1833,
    "\u2581\uc5ec\uae30\uc5d0": 1834,
    "\u2581\ub9cc\uc871": 1835,
    "\u2581\uc2e4\uc218": 1836,
    "\uc0b4": 1837,
    "\u2581\ubb3c\ud488": 1838,
    "\uae30\ub294": 1839,
    "\u2581(": 1840,
    "\u2581\ud0d1\uc7ac": 1841,
    "\u2581\uc870\uc815": 1842,
    "\u2581\uc2e4\ud328": 1843,
    "\u2581\ub4dc\ub9b0": 1844,
    "\u2581\ub4ef": 1845,
    "\u2581\uc0ac\uc6a9\ud558": 1846,
    "\uc154\uc11c": 1847,
    "\u2581\uc131\ubd84": 1848,
    "\u2581reservation": 1849,
    "\u2581300": 1850,
    "\u2581\ud559\uc2b5": 1851,
    "\u2581restaurant": 1852,
    "\u2581\uac74\uc124": 1853,
    "\u2581\uc694\uae08": 1854,
    "\u2581\ud074\ub77c\uc6b0\ub4dc": 1855,
    "\uc168\uc73c\uba74": 1856,
    "\u2581\uace0\uae09": 1857,
    "\u2581\uccad\uad6c": 1858,
    "\u2581\uadc0": 1859,
    "\u2581charge": 1860,
    "\u2581total": 1861,
    "\u2581\uad11\uc218": 1862,
    "\u2581\ub098\uc628": 1863,
    "\u2581small": 1864,
    "\uac74": 1865,
    "\u2581\ud2b9\ud5c8": 1866,
    "\u2581Because": 1867,
    "\u2581easily": 1868,
    "\u2581Ah": 1869,
    "\u2581\ud734\uac00": 1870,
    "\u2581\ud611\uc0c1": 1871,
    "\u2581\uc544\ub2c8\uc5d0\uc694": 1872,
    "\u2581part": 1873,
    "\u2581manager": 1874,
    "\u2581\uae30\ub85d": 1875,
    "\u2581available": 1876,
    "\u2581\uc788\uc73c\uc2e0\uac00\uc694": 1877,
    "\uac8c\uc694": 1878,
    "\u2581\uc81c\uacf5\ub429\ub2c8\ub2e4": 1879,
    "\u2581\uc790\uc8fc": 1880,
    "\u2581\uc6a9\ub7c9": 1881,
    "\u2581\uc2e4\ub9dd": 1882,
    "\u2581\uc74c\uc545": 1883,
    "\u2581\ubcf4\ub0b4\ub4dc\ub9bd\ub2c8\ub2e4": 1884,
    "\u2581\uc54a\uc73c\uba74": 1885,
    "5": 1886,
    "\u2581\ub2f4\ub2f9": 1887,
    "\u2581working": 1888,
    "\u2581\uac00\uce58": 1889,
    "\u2581\uac70\uc9c0": 1890,
    "\ud638": 1891,
    "\u2581\ub2ec\uc5d0": 1892,
    "\u2581\uc190\uc0c1": 1893,
    "\u2581\ub2f4": 1894,
    "\u2581\ucc38\uc11d": 1895,
    "\u2581K": 1896,
    "\u2581\uc774\uc804\uc5d0": 1897,
    "\ud55c\ub2e4": 1898,
    "\ub2e4\uac00": 1899,
    "\uc0c9": 1900,
    "\u2581\uc811": 1901,
    "\u2581\uc785\uae08": 1902,
    "\u2581\uc77c\ubcf8": 1903,
    "\u2581\ud314": 1904,
    "\u2581\uc815\ub9ac": 1905,
    "\uc790\uac00": 1906,
    "\ud558\ub2e4": 1907,
    "\uc5d0\uc11c\ub3c4": 1908,
    "\u2581\uc624\uc804": 1909,
    "\u2581\ube44\uc2b7": 1910,
    "\ud574\uc8fc\uc2e0": 1911,
    "\u2581\uc18c\ub9ac": 1912,
    "\u2581change": 1913,
    "\ub4dc\uc2dc": 1914,
    "\u2581room": 1915,
    "\u2581\uc8fc\uc168": 1916,
    "ther": 1917,
    "\u2581\ud558\uc2dc\ub294": 1918,
    "\ub9bd\ub2c8\ub2e4": 1919,
    "\ub978": 1920,
    "\u2581\uc911\uc785\ub2c8\ub2e4": 1921,
    "\u2581\ubc94\uc704": 1922,
    "\u2581understand": 1923,
    "\uc2ec": 1924,
    "\u2581\ud45c\uc900": 1925,
    "\u2581\ub113\uc740": 1926,
    "\u2581\uc5f4\uc2ec\ud788": 1927,
    "\u2581\ucf00\uc774\uc2a4": 1928,
    "\u2581reply": 1929,
    "\u2581\uc1a1\uc7a5": 1930,
    "\u2581\uc8c4\uc1a1\ud558\uc9c0\ub9cc": 1931,
    "twee": 1932,
    "\u2581\ucee4\ubc84": 1933,
    "\u2581\ub418\uae30": 1934,
    "\u2581performance": 1935,
    "\u2581around": 1936,
    "\u2581\uc11d\uc9c4\uc774": 1937,
    "\u2581\uc800\uac70": 1938,
    "\u2581\ubc14\ub2e5": 1939,
    "\u2581\uc120\ubb3c": 1940,
    "\u2581\ud30c\ud2f0": 1941,
    "\uc81c\ud488": 1942,
    "\u2581\uc12c\uc720": 1943,
    "\u2581\uac00\ubc29": 1944,
    "\u2581dur": 1945,
    "\u2581end": 1946,
    "\u2581\ub9de\uac8c": 1947,
    "\ud558\uc2dc\uace0": 1948,
    "\u2581\ud50c\ub77c\uc2a4\ud2f1": 1949,
    "\u2581\uc5f0": 1950,
    "\u2581\uc9c4\ud589\ud560": 1951,
    "\u2581\ub300\uc0c1": 1952,
    "\u2581\uc218\ud589": 1953,
    "\u2581close": 1954,
    "\u2581\uc758\uc0ac": 1955,
    "\u2581\uc0ac\uc804": 1956,
    "\u2581\ubc31": 1957,
    "\u2581\uc2f6\uc740\ub370": 1958,
    "\uc26c\uc6b4": 1959,
    "\u2581\ubc25": 1960,
    "\uad6c\uc694": 1961,
    "\u2581\uace0\ub824": 1962,
    "\u2581\ub2e4\ub9ac": 1963,
    "\u2581\uadfc\ucc98\uc5d0": 1964,
    "\u2581\ub9d0\uace0": 1965,
    "\u2581\ubcf4\ub0b4\ub4dc\ub9ac": 1966,
    "ers": 1967,
    "\ub354\ub77c\uace0\uc694": 1968,
    "\u2581\uc0c1\ud488\uc774": 1969,
    "\u2581\uc560": 1970,
    "\u2581\uc6b0": 1971,
    "\u2581\ubcf4\uc0c1": 1972,
    "\u2581\uc2f6\ub2e4": 1973,
    "\u2581\uce58\ub8cc": 1974,
    "\uc9d1": 1975,
    "\u2581interna": 1976,
    "\ub798": 1977,
    "\u2581real": 1978,
    "l": 1979,
    "\u2581\uc9c0\uc18d\uc801": 1980,
    "\ud558\ub294\ub370": 1981,
    "\u2581ma": 1982,
    "\u2581deliver": 1983,
    "\u2581\uace0\uac1d\ub2d8\uaed8": 1984,
    "\ub4ed": 1985,
    "\u2581\ub290\ub07c": 1986,
    "\u2581\uc990\uac70": 1987,
    "\u2581\ube14\ub799": 1988,
    "\u2581\uac00\ubcbc\uc6b4": 1989,
    "\u2581\uc194\ub8e8\uc158": 1990,
    "\u2581something": 1991,
    "\u2581management": 1992,
    "\u2581find": 1993,
    "\u2581\ucc9c\uc5f0": 1994,
    "\u2581yet": 1995,
    "\u2581life": 1996,
    "\u2581\ucc28\ub2e8": 1997,
    "\u2581\uac19\ub124\uc694": 1998,
    "\u2581Mr": 1999,
    "\u2581case": 2000,
    "\u2581\uc801\uc808": 2001,
    "\u2581\ub9e4\ucd9c": 2002,
    "\u2581\ubc29\uc218": 2003,
    "\u2581\uc0b6": 2004,
    "\u2581\ubcc0\ud654": 2005,
    "\u2581\uceec": 2006,
    "\u2581\ub9db\uc774": 2007,
    "\u2581care": 2008,
    "\u2581H": 2009,
    "\u2581done": 2010,
    "\u2581\uc9d1\uc5d0\uc11c": 2011,
    "\u2581\ud30c\ud2b8\ub108": 2012,
    "\u2581\ubc24": 2013,
    "\u2581\uc801\ud569\ud55c": 2014,
    "\u2581\ud615\uc774": 2015,
    "\u2581\uae38": 2016,
    "\u2581\uc5ec\uc131": 2017,
    "\u2581sell": 2018,
    "\ub85c\uc11c": 2019,
    "\u2581\ud1b5\ud654": 2020,
    "\u2581\uc2dc\uc7a5\uc5d0\uc11c": 2021,
    "\u2581\ucd94\ucc9c\ud574": 2022,
    "\u2581\uc911\uc778": 2023,
    "\u2581\ubc18\uc751": 2024,
    "u": 2025,
    "am": 2026,
    "\u2581\ub2e4\ub974": 2027,
    "\u2581\ubcf4\ub2c8": 2028,
    "\u2581\uc2a4": 2029,
    "\u2581b": 2030,
    "\u2581\uc774\ub0b4": 2031,
    "\ub974": 2032,
    "\uc2e0\uac00\uc694": 2033,
    "\u2581\uadf8\uac83\ub4e4": 2034,
    "\u2581\uac1d\uc2e4": 2035,
    "\u2581\ubc1b\ub294": 2036,
    "\uc218\ub85d": 2037,
    "\u2581\ucc45\uc784": 2038,
    "\u2581\uc0dd\uacbc": 2039,
    "\u2581\ubc30\ub2ec": 2040,
    "\u2581\uc218\ubd84": 2041,
    "\u2581\uc8fc\ud0dd": 2042,
    "\u2581\uc5b4\ub9b0\uc774": 2043,
    "\ub7fc": 2044,
    "\u2581\uc5bb\uc744": 2045,
    "\u2581\uc77c\ubc18\uc801": 2046,
    "\u2581\uc598\uae30\ub97c": 2047,
    "\u2581system": 2048,
    "\u2581cost": 2049,
    "fter": 2050,
    "ation": 2051,
    "\u2581\ub611\uac19": 2052,
    "ic": 2053,
    "\u2581increase": 2054,
    "\u2581\uc678\ubd80": 2055,
    "\ud300": 2056,
    "\ub9c8\ub2e4": 2057,
    "\u2581future": 2058,
    "\u2581hair": 2059,
    "\u2581\ud504\ub9ac\ubbf8\uc5c4": 2060,
    "\u2581advance": 2061,
    "\u2581left": 2062,
    "\u2581Did": 2063,
    "\u2581\uc549\uc544": 2064,
    "\u2581him": 2065,
    "\u2581\uc219\uc18c": 2066,
    "\u2581\uac01\uac01": 2067,
    "\u2581\uce5c\uc808": 2068,
    "\u2581\uadc0\uc0ac\uaed8\uc11c": 2069,
    "\u2581together": 2070,
    "\u2581\uc815\ubd80": 2071,
    "\u2581\uc54c\ub824\ub4dc\ub9bd\ub2c8\ub2e4": 2072,
    "\u2581\uc808\ucc28": 2073,
    "\u2581per": 2074,
    "\u2581\ud3b8\uc548\ud558\uac8c": 2075,
    "\u2581\uc5bc\uad74": 2076,
    "\uc9c1": 2077,
    "\u2581house": 2078,
    "\u2581\uba39\uc744": 2079,
    "\u2581\uc800\ub97c": 2080,
    "\u2581\uc804\ub7b5": 2081,
    "\uae08": 2082,
    "\u2581its": 2083,
    "\u2581\uc758\uc790": 2084,
    "\uc2dc\ud0ac": 2085,
    "ment": 2086,
    "\u2581\uc54c\ub9ac": 2087,
    "\u2581\ub410\uc2b5\ub2c8\ub2e4": 2088,
    "\u2581\ucd94\uc801": 2089,
    "\u2581\ubd80\ub2f4": 2090,
    "\u2581\ub118": 2091,
    "ld": 2092,
    "\u2581\ud1b5\ud569": 2093,
    "\u2581\uc218\uc815": 2094,
    "\u2581\uc9c4\ud589\ud558\uace0": 2095,
    "\ubb34": 2096,
    "\u2581\uc0dd": 2097,
    "\ub798\ub3c4": 2098,
    "um": 2099,
    "\u2581\ucd94": 2100,
    "\ub85d": 2101,
    "\uae09": 2102,
    "\u2581\ube44\uc6a9\uc740": 2103,
    "\u2581\ub2e4\ub9cc": 2104,
    "\u2581\uac00\uaca9\uc73c\ub85c": 2105,
    "\u2581\uc800\ubc88": 2106,
    "\u2581\uc704\uc5d0": 2107,
    "\u2581\ud55c\ub2e4\uace0": 2108,
    "\u2581\ucc29\uc6a9": 2109,
    "\u2581\uae08\uc694\uc77c": 2110,
    "\u2581test": 2111,
    "\u2581\ucee4": 2112,
    "\u2581\uc544\uce68": 2113,
    "\u2581talk": 2114,
    "\u2581phone": 2115,
    "\u2581\uae38\uc774": 2116,
    "\uc870": 2117,
    "\u258116": 2118,
    "\u2581\uac16": 2119,
    "\u2581\uc81c\ud55c": 2120,
    "\u2581f": 2121,
    "\u2581event": 2122,
    "\u2581\ub3c4\uad6c": 2123,
    "\u2581\uc990": 2124,
    "\u2581\ub410\uc5b4": 2125,
    "\u2581\uae30\ub2e4\ub824": 2126,
    "\u2581\uc54c\uc558\uc5b4": 2127,
    "\u2581trip": 2128,
    "\u2581LED": 2129,
    "\u2581appreciat": 2130,
    "\u2581enough": 2131,
    "\u2581department": 2132,
    "\u2581nice": 2133,
    "\u2581\ud0c1\uc6d4": 2134,
    "\u2581\uc2e0\uc18d": 2135,
    "\u2581online": 2136,
    "\u2581One": 2137,
    "\u2581\uc77c\uc5b4\ub098": 2138,
    "\u2581\ub300\ud615": 2139,
    "\u2581interested": 2140,
    "\u2581\uc81c\ud488\uacfc": 2141,
    "\u2581\uacb0\ud569": 2142,
    "\u2581Of": 2143,
    "\u2581\uc591\ud574": 2144,
    "\u2581\ub0a8\uc131": 2145,
    "\u2581\ub098\ub77c": 2146,
    "\u2581\uc774\ubc88\uc8fc": 2147,
    "\u2581\uacac\uc801\uc11c": 2148,
    "\u2581\uac10\uc9c0": 2149,
    "\uc810\uc744": 2150,
    "\u2581\ubb38\ud654": 2151,
    "\u2581\uae30\uc220\ub825": 2152,
    "\u2581\uc8fc\uc2dd": 2153,
    "\u2581plan": 2154,
    "\u2581\uac00\ub2a5\uc131": 2155,
    "\u2581\uac1c\uc758": 2156,
    "\u2581\uc0dd\uac01\ud558\uace0": 2157,
    "\u2581\ud558\uc2e0": 2158,
    "\u2581G": 2159,
    "\ubd10": 2160,
    "\u2581\ucda9\ubd84\ud55c": 2161,
    "\uc73c\ub85c\ubd80\ud130": 2162,
    "\u2581\uad6c\ub9e4\ud558\uace0": 2163,
    "\u2581\ub808\uc2a4\ud1a0\ub791": 2164,
    "\u2581\uacf5\uc815": 2165,
    "\u2581\ud588\uc5b4": 2166,
    "\u2581\uae30\ud55c": 2167,
    "BBB": 2168,
    "\uad8c": 2169,
    "\ubcf4\uc138\uc694": 2170,
    "A": 2171,
    "\u2581\uc815\ub3c4\ub85c": 2172,
    "\u2581\uacbd": 2173,
    "\u2581\uc7ac\ubbf8\uc788": 2174,
    "\uc870\uac74": 2175,
    "\u2581\uac71\uc815\uc774": 2176,
    "\u2581\uac10": 2177,
    "\uc9c0\uc694": 2178,
    "\u2581\ube44\uc6a9\uc774": 2179,
    "\u2581\ud45c\uc2dc": 2180,
    "\u2581\uc544\uc9c1\ub3c4": 2181,
    "\u2581\ub2ec\ub7ec": 2182,
    "\ud560\uac8c\uc694": 2183,
    "\u2581\ub298": 2184,
    "\u2581\uc5ec\uc720": 2185,
    "\uc628": 2186,
    "\u2581\uac70\ub294": 2187,
    "\uc168\uc5b4\uc694": 2188,
    "\uc131\uc774": 2189,
    "\u2581\uc624\uc77c": 2190,
    "\u2581\uba39\uc5b4": 2191,
    "\u2581\ub35c": 2192,
    "ry": 2193,
    "\u2581\uac1c\ubc1c\ud55c": 2194,
    "\u2581sample": 2195,
    "\u2581project": 2196,
    "\u2581\uc8fc\ubb38\uc5d0": 2197,
    "\u2581thought": 2198,
    "\uc9c0\ub294": 2199,
    "\u2581detail": 2200,
    "\uc2dc\uae30": 2201,
    "\ud558\ub824\uba74": 2202,
    "\u2581\ud3ec\uc778\ud2b8": 2203,
    "\u2581wait": 2204,
    "\u2581support": 2205,
    "\u2581\uc774\uac78": 2206,
    "\u2581\uc9e7": 2207,
    "\uc558\uc2b5\ub2c8\ub2e4": 2208,
    "\u2581enjoy": 2209,
    "\u2581\uae30\ud68d": 2210,
    "\uce60": 2211,
    "\u2581already": 2212,
    "\u2581excellen": 2213,
    "\u2581\ubaa8\ubc14\uc77c": 2214,
    "\u2581\ubd59\uaca0\uc2b5\ub2c8\ub2e4": 2215,
    "\u2581\ud61c\ud0dd": 2216,
    "\u2581\ud6cc\ub96d": 2217,
    "\u2581\ud559\uad50": 2218,
    "\u2581hold": 2219,
    "\u2581\uace0\ud488\uc9c8": 2220,
    "\u2581\ubd80\ucc29": 2221,
    "\uc5f0": 2222,
    "\u2581\ub3d9\ubb3c": 2223,
    "\u2581Now": 2224,
    "\u2581\uc774\uc5b4": 2225,
    "\u2581\ub9cc\ub4e4\uc5c8\uc2b5\ub2c8\ub2e4": 2226,
    "\u2581Eve": 2227,
    "\u2581every": 2228,
    "\u2581\uba85\uc2dc": 2229,
    "\u2581body": 2230,
    "\u2581\uc778\uc2dd": 2231,
    "\u2581\ud2b9\ubcc4\ud788": 2232,
    "\u2581\uc5f0\ub77d\uc8fc\uc138\uc694": 2233,
    "\u2581\uce58\uc988": 2234,
    "\u2581\ucf54": 2235,
    "\u2581\uc2e0\uacbd": 2236,
    "\u2581\ubb34\ub8cc\ub85c": 2237,
    "\u2581got": 2238,
    "\u2581\ud480": 2239,
    "\u2581\uc9c8": 2240,
    "\uacf5": 2241,
    "\u2581\uc788\ub294\ub370\uc694": 2242,
    "\u2581\uae40": 2243,
    "\u2581\uc785\uace0": 2244,
    "\u2581\uc88b\uc544\ud558\ub294": 2245,
    "\u2581\ub2e4\uc74c\uc5d0": 2246,
    "\u2581\uc218\uc5c5": 2247,
    "\u2581love": 2248,
    "\u2581\uac83\ucc98\ub7fc": 2249,
    "\ud558\uae30\ub85c": 2250,
    "\ub9cc\uc6d0": 2251,
    "\u2581\uc720\ud1b5": 2252,
    "\u2581\ud655\uc778\ud588\uc2b5\ub2c8\ub2e4": 2253,
    "\u2581\uc804\ubb38\uac00": 2254,
    "\u2581\uc608\uc815": 2255,
    "\uc774\uc9c0\ub9cc": 2256,
    "\u2581services": 2257,
    "\u2581\ud5a5\uc0c1": 2258,
    "\u2581\uc801\uc740": 2259,
    "\ud0dc": 2260,
    "\uc624": 2261,
    "\uae30\uc5d0": 2262,
    "\uc2dc\ucf1c": 2263,
    "ity": 2264,
    "\u2581\uc804\ubd80": 2265,
    "\uc5c6\uc774": 2266,
    "\uce5c": 2267,
    "\ub418\uba74": 2268,
    "\u2581\uc774\ud6c4": 2269,
    "\u2581\uc0ac\uc6a9\ub418": 2270,
    "\ub77c\uc11c": 2271,
    "less": 2272,
    "\uaed8": 2273,
    "\uc911": 2274,
    "\u2581\ud328\ud0a4\uc9c0": 2275,
    "\ub7c9": 2276,
    "\u2581\ubc1c\uacac": 2277,
    "\ub4e4\uacfc": 2278,
    "\u2581\uac19": 2279,
    "til": 2280,
    "\u2581\uc544\uae30": 2281,
    "\u2581\ud611\uc5c5": 2282,
    "\u2581\ud3ec": 2283,
    "\u2581\uc54a\ub294\ub2e4": 2284,
    "\ubc1c": 2285,
    "\uaed8\uc11c": 2286,
    "\u2581\ub098\uac00": 2287,
    "est": 2288,
    "\u2581\ub41c\ub2e4": 2289,
    "\uccb4": 2290,
    "\u2581\uc5f0\ub77d\ud574": 2291,
    "\u2581\uc644\uc131": 2292,
    "\uc800": 2293,
    "\u2581\uc5f0\uc7a5": 2294,
    "\u2581\uc0ac\uc591": 2295,
    "\u2581\ub05d\ub098": 2296,
    "\u2581contain": 2297,
    "\u2581\uac74\ub370": 2298,
    "\u2581\ubaa8\ub4dc": 2299,
    "\u2581\ud504\ub808\uc820\ud14c\uc774\uc158": 2300,
    "\u2581\uc624\ud508": 2301,
    "\uae30\ub3c4": 2302,
    "\u2581\uace0\ubb34": 2303,
    "\u2581\uc801\uc5b4": 2304,
    "\ub7ab": 2305,
    "\ud78c": 2306,
    "\u2581reason": 2307,
    "\u2581tomorrow": 2308,
    "\u2581\uae00\uc384": 2309,
    "\u2581\ub4e3\uace0": 2310,
    "\u2581\ud30c\uc774\ud305": 2311,
    "\u2581\ubc8c\uc368": 2312,
    "\u2581those": 2313,
    "\u2581\ub178\ud2b8\ubd81": 2314,
    "\u2581\ud589\ub3d9": 2315,
    "\u2581\ub9de\ucda4": 2316,
    "\u2581address": 2317,
    "\u2581\uc544\uc2dc\ub2e4\uc2dc\ud53c": 2318,
    "\u2581\uc720\uac10": 2319,
    "\u2581become": 2320,
    "\u2581\uc2f6": 2321,
    "\u2581money": 2322,
    "\u2581\uc5b8\uc5b4": 2323,
    "\u2581stay": 2324,
    "\u2581\ucf54\ud305": 2325,
    "\u2581\uce68\ub300": 2326,
    "\u2581\ud3b8\ub9ac\ud569\ub2c8\ub2e4": 2327,
    "\u2581refund": 2328,
    "\u2581once": 2329,
    "\u2581\uc624\ub958": 2330,
    "\u2581box": 2331,
    "\u2581hours": 2332,
    "\u2581\ube5b": 2333,
    "\uc6a9\ud488": 2334,
    "\u2581\ud1b5\uc2e0": 2335,
    "\u2581\ub3c4\uc2dc": 2336,
    "ies": 2337,
    "\u2581things": 2338,
    "\u2581\uc9c0\ub09c\uc8fc\uc5d0": 2339,
    "\ubd84\uc774": 2340,
    "\u2581\ud54f": 2341,
    "\u2581\ubcf4\uc2dc\uba74": 2342,
    "\u2581\ubd84\uc57c\uc5d0\uc11c": 2343,
    "\u2581U": 2344,
    "\u2581\uc778\uc6d0": 2345,
    "\u2581\uacc4\uc2e0": 2346,
    "\u2581consider": 2347,
    "\ubcf4": 2348,
    "\u2581\uc1a1\uae08": 2349,
    "\u2581\ub098\uc624\ub294": 2350,
    "\ud53c": 2351,
    "\u2581\uc774\ud574\ud574": 2352,
    "\u2581\ubaa9": 2353,
    "\uc2ed\ub2c8\ub2e4": 2354,
    "\u2581\ubcf4\uaca0\uc2b5\ub2c8\ub2e4": 2355,
    "\u2581\uac00\uba74": 2356,
    "\u2581\ud658\uc790": 2357,
    "\u2581\ub54c\uae4c\uc9c0": 2358,
    "\u2581Don": 2359,
    "\u2581\uc6a9\ud488": 2360,
    "\u2581\uacc4\ud68d\uc785\ub2c8\ub2e4": 2361,
    "\u2581\ud588": 2362,
    "\u2581\uc804\uc6a9": 2363,
    "\u2581\ub4dc\ub9ac\ub824\uace0": 2364,
    "\u2581\uac00\uc838": 2365,
    "\uc5f4": 2366,
    "\u2581\ub300\ud654": 2367,
    "\ud45c": 2368,
    "\u2581\uc9c0\uc5ed\uc5d0": 2369,
    "\u2581card": 2370,
    "\u2581\uc790\uc5f0": 2371,
    "\u2581\ud648": 2372,
    "\u2581\uce58": 2373,
    "\uc8fc\uc154\uc57c": 2374,
    "\ucbe4": 2375,
    "\uc5d4": 2376,
    "\u2581\uad6c\uccb4\uc801": 2377,
    "\u2581\uc55e": 2378,
    "\u2581\uae30\uc5c5\ub4e4": 2379,
    "\u2581\ubcf4\ub294": 2380,
    "\ubfd0\ub9cc": 2381,
    "\u2581\uc190\ub2d8": 2382,
    "\uc2dc\uc8e0": 2383,
    "\uc168\uc2b5\ub2c8\ub2e4": 2384,
    "\uc988": 2385,
    "\u2581full": 2386,
    "\u2581Ju": 2387,
    "h": 2388,
    "\u2581\uc720\uc6a9": 2389,
    "\u2581\ubd80\uc11c": 2390,
    "\uc154": 2391,
    "\u2581\uc900\ube44\uac00": 2392,
    "\u2581off": 2393,
    "\u2581\uc54a\uc558": 2394,
    "\u2581\uae00": 2395,
    "\ub144\uc5d0": 2396,
    "\u2581\ud558\uc2dc\uba74": 2397,
    "\u2581\uacf5\ud56d": 2398,
    "\u2581\uac15\ud654": 2399,
    "\u2581website": 2400,
    "\u2581\uadf8\ub807\uae30": 2401,
    "\u2581\ud504\ub85c\uadf8\ub7a8\uc744": 2402,
    "\u2581\ub3cc": 2403,
    "\u2581\uc5f0\uae30": 2404,
    "\u2581\ub2a6\uc5b4": 2405,
    "\u2581\ubcd1": 2406,
    "\u2581\uc624\ub294": 2407,
    "\u2581area": 2408,
    "\u2581open": 2409,
    "\u2581\uc0ac\ub791": 2410,
    "\uaca0\uc5b4\uc694": 2411,
    "using": 2412,
    "seas": 2413,
    "\u2581\ucabd": 2414,
    "\u2581\uc6d0\ub8cc": 2415,
    "\uc774\ub791": 2416,
    "\u2581request": 2417,
    "\u2581\uae00\ub85c\ubc8c": 2418,
    "\u2581\ub69c\uaed1": 2419,
    "\ud0b5": 2420,
    "\u2581software": 2421,
    "\u2581\uc2a4\ud14c\uc778\ub9ac\uc2a4": 2422,
    "\u2581anything": 2423,
    "\u2581\uc548\ub155\ud558\uc2ed\ub2c8\uae4c": 2424,
    "\u2581\ub9c1\ud06c": 2425,
    "\u2581rice": 2426,
    "\u2581\ucca0\uc800": 2427,
    "\u2581everything": 2428,
    "\u2581safety": 2429,
    "\u2581run": 2430,
    "\u2581\uc11c\ubc84": 2431,
    "\u2581\uc0b4\uade0": 2432,
    "\u2581comfortable": 2433,
    "\u2581With": 2434,
    "\ub4e4\uc5d0\uac8c": 2435,
    "\u2581insurance": 2436,
    "\u2581\ucd5c\uc18c\ud654": 2437,
    "\u2581\ube60\ub974\uace0": 2438,
    "\u2581decided": 2439,
    "\u2581\uc720\ud615": 2440,
    "\u2581\ub514\uc2a4\ud50c\ub808\uc774": 2441,
    "\u2581\uc2dc\uacc4": 2442,
    "\u2581\uacf5\uc2dd": 2443,
    "\u2581ingredients": 2444,
    "\u2581add": 2445,
    "\u2581\ucc3e\ub294": 2446,
    "\u2581cold": 2447,
    "\u2581electric": 2448,
    "\u2581\ud654\uc7a5\ud488": 2449,
    "\u2581\ube44\uad50": 2450,
    "\ubb38": 2451,
    "\u2581\uc0dd\uc131": 2452,
    "\u2581within": 2453,
    "\u2581items": 2454,
    "\u2581\ucc38\uace0": 2455,
    "\u2581\uba3c\uc9c0": 2456,
    "\u2581\ub4f1\uae09": 2457,
    "\u2581\ucc98\uc74c\uc5d0": 2458,
    "\u2581\uc800\ub834\ud55c": 2459,
    "\u2581\uc778\uc815": 2460,
    "\u2581\uacf3\uc774": 2461,
    "\u2581\uc5c6\uc5b4\uc11c": 2462,
    "\u2581\uc720\ub7fd": 2463,
    "\u2581\ub9cc\ub4e4\uace0": 2464,
    "\u2581\ubb3c\uc9c8": 2465,
    "\u2581\uc21c": 2466,
    "\ubaa8": 2467,
    "\uc774\ub77c\uba74": 2468,
    "\u2581\uc640\uc778": 2469,
    "\u2581\ud310\ub2e8": 2470,
    "\u2581\ubc88\uc5d0": 2471,
    "\u2581\uc218\uc9d1": 2472,
    "\u2581\uc0c1\uc5c5": 2473,
    "\u2581\ub9c8\uc74c\uc774": 2474,
    "\u2581\ud544\uc694\ud560": 2475,
    "\u2581\ud3ec\ud568\ub41c": 2476,
    "\u2581\uacc4\uc57d\uc11c\uc5d0": 2477,
    "\u2581\uae09": 2478,
    "7": 2479,
    "\uaebc": 2480,
    "\u2581\uc774\ubc88\uc5d0\ub294": 2481,
    "\u2581\uc0ac\uc6a9\ud558\uace0": 2482,
    "\u2581\uac70\uae30": 2483,
    "\u2581\ubc29\ubb38\ud574": 2484,
    "\u2581\uc77d": 2485,
    "\u2581\uc0c1\ud669\uc5d0": 2486,
    "\u2581\ub4dc\ub9b4\uac8c\uc694": 2487,
    "ince": 2488,
    "\u2581\ub9fa": 2489,
    "\u2581\ub9ce\uc544": 2490,
    "k": 2491,
    "\ud558\uc154\uc11c": 2492,
    "\u2581\ubd24": 2493,
    "\u2581\ub0a9\ubd80": 2494,
    "\u2581video": 2495,
    "\u2581material": 2496,
    "\u2581\ub3c4\ucc29\ud558": 2497,
    "\ub780": 2498,
    "\ud55c\ub2e4\ub294": 2499,
    "\u2581\uc601\uc5b4": 2500,
    "\u2581\uacf5\uae09\uc5c5\uccb4": 2501,
    "\u2581\ubc18\uc601": 2502,
    "\u2581\uc9c0\uc9c0": 2503,
    "\u2581\uc990\uae30": 2504,
    "\u2581sign": 2505,
    "\u2581\uc88b\uc9c0": 2506,
    "\u2581\ub2ec\ub77c": 2507,
    "\u2581\ubc29\ubc95\uc774": 2508,
    "\u2581\ube44\uc2f8": 2509,
    "\u2581watch": 2510,
    "\u2581under": 2511,
    "\u2581Also": 2512,
    "\u2581black": 2513,
    "\u2581\uba4b\uc9c4": 2514,
    "\u2581\ud06c\ub9ac\uc2a4\ub9c8\uc2a4": 2515,
    "\u2581\ud53c\ub4dc\ubc31": 2516,
    "\u2581delicious": 2517,
    "\u2581\ubc15\ub78c\ud68c": 2518,
    "\u2581\uc544\uc774\ud15c": 2519,
    "\u2581energy": 2520,
    "\u2581\uc2a4\ucf00\uc904": 2521,
    "\u2581big": 2522,
    "\u2581\uc2e4\ud589": 2523,
    "\u2581She": 2524,
    "\u2581never": 2525,
    "\u2581\uac80\uc0c9": 2526,
    "\u2581\ud328\ub4dc": 2527,
    "\u2581\uc870\uc5b8": 2528,
    "\u2581\ubc29\uae08": 2529,
    "\u2581\ub2f9\uc7a5": 2530,
    "\u2581\ud798\ub4e0": 2531,
    "\u2581\uc18c\ud615": 2532,
    "\u2581\uc74c\uc131": 2533,
    "\u2581\uaddc\ubaa8": 2534,
    "\u2581\ubc14\ud0d5": 2535,
    "\u2581\uc54c\ub9bc": 2536,
    "\u2581\uc18c\ubbfc\uc774": 2537,
    "\u2581ago": 2538,
    "\u2581\ub9d0\uc500\ud558\uc2e0": 2539,
    "\u2581\ud5e4\ub4dc": 2540,
    "\u2581power": 2541,
    "\u2581\uc2e4\ud5d8": 2542,
    "\u2581\ubc14\ub514": 2543,
    "\u2581\ubb3c\ub958": 2544,
    "\u2581\ub3d9\uc77c\ud55c": 2545,
    "\u2581waiting": 2546,
    "\u2581\uc601\uc5ed": 2547,
    "\u2581seem": 2548,
    "\u2581\uc54c\ub824\uc8fc\uc2dc\uae30": 2549,
    "\u2581\uc18c\uc74c": 2550,
    "\u2581minutes": 2551,
    "\u2581\ud06c\ub9bc": 2552,
    "\u2581\uae40\uce58": 2553,
    "\uc774\uc5c8\uc2b5\ub2c8\ub2e4": 2554,
    "\u2581\uac00\uc790": 2555,
    "\u2581\ub098\uc654": 2556,
    "\u2581\uad6c\ub9e4\ud560": 2557,
    "ped": 2558,
    "\u2581\uae30\ub300\ud569\ub2c8\ub2e4": 2559,
    "\u2581\ubc29\uc1a1": 2560,
    "\u2581\ubcd1\uc6d0": 2561,
    "\u2581\uc9c0\uc815": 2562,
    "\u2581\uc54a\uc73c": 2563,
    "ary": 2564,
    "\u2581\uc785\ub825": 2565,
    "\uc77c\uae4c\uc9c0": 2566,
    "\u2581\uc18c\uc694": 2567,
    "\u2581\uc55e\uc5d0": 2568,
    "\u2581\uadf8\uac83\uc5d0": 2569,
    "\u2581\ub300\ucd9c": 2570,
    "\u2581\uc54a\uc544\ub3c4": 2571,
    "\ud588\ub294\ub370": 2572,
    "\u2581\uacf5\uc0ac": 2573,
    "\u2581\ubabb\ud55c": 2574,
    "\ub0a9": 2575,
    "\u2581\ud558\uba74\uc11c": 2576,
    "\u2581\ud310\ub9e4\ud558\uace0": 2577,
    "\u2581\uc5f0\uad6c\ud300": 2578,
    "\ud558\uc2dc\ub098\uc694": 2579,
    "\ud574\ub4dc\ub9ac\uaca0\uc2b5\ub2c8\ub2e4": 2580,
    "I": 2581,
    "\u2581\ub9db\uc788\ub294": 2582,
    "\u2581\ud558\ub098\uc694": 2583,
    "\u2581en": 2584,
    "C": 2585,
    "\u2581\uac70\ub9ac": 2586,
    "\uc720": 2587,
    "\u2581\uc124\uba85\ud574": 2588,
    "\u2581\uae30\ubd84": 2589,
    "\u2581\ud558\uc790": 2590,
    "\u2581additional": 2591,
    "\u2581\uacbd\uc81c": 2592,
    "\u2581\uc870\ub9ac": 2593,
    "\u2581\ub0b4\ub824": 2594,
    "\u2581\uc2dc\uae30": 2595,
    "\u2581\uc598": 2596,
    "\u2581\ub410\ub2e4": 2597,
    "\ud588": 2598,
    "\u2581\ud76c\ub9dd": 2599,
    "\u2581w": 2600,
    "i": 2601,
    "\uc5c5": 2602,
    "it": 2603,
    "\u2581\uc21c\uac04": 2604,
    "\u2581\ub124\ud2b8\uc6cc\ud06c": 2605,
    "\u2581\uc9c0\ubd88\ud558": 2606,
    "tion": 2607,
    "\u2581\ubcc0": 2608,
    "\u2581\ud588\uc5b4\uc694": 2609,
    "\ud558\uc2dc\uaca0": 2610,
    "\uc77c\uc774": 2611,
    "\ub0b4": 2612,
    "\u2581\uc0c8\ub86d": 2613,
    "\u2581\uac16\ucd94": 2614,
    "\u2581\ub3d5": 2615,
    "\ud55c\ub2e4\uace0": 2616,
    "\u2581\ud50c\ub7ab\ud3fc": 2617,
    "\u2581\ucde8": 2618,
    "\u2581\ud6a8\uc728\uc801": 2619,
    "\u2581\uc900\ube44\ud574": 2620,
    "\u2581\uc11c": 2621,
    "\u2581\ud798\ub4e4": 2622,
    "\u2581clean": 2623,
    "\u2581\ub178\ub798": 2624,
    "\u2581\uce74": 2625,
    "\u2581\uc804\ud658": 2626,
    "\u2581\uc2dc\uc98c": 2627,
    "\u2581\uadf8\ub9ac": 2628,
    "\u2581\ud488\ubaa9": 2629,
    "\u2581\ub530\ub73b": 2630,
    "\u2581second": 2631,
    "\u2581\uc2dd": 2632,
    "\u2581\ub77c\uc778": 2633,
    "\u2581\uad1c\ucc2e": 2634,
    "ok": 2635,
    "\u2581\uc6cc": 2636,
    "\u2581\ud3b8\ud558": 2637,
    "\u2581\ub2ff": 2638,
    "\u2581ship": 2639,
    "\u2581\uc9c0\ud6a8": 2640,
    "\u2581\ub9e4\ub2c8\uc800": 2641,
    "\u2581\uc870\uba85": 2642,
    "\u2581natural": 2643,
    "\u2581install": 2644,
    "\u2581perfect": 2645,
    "\u2581\uae30\uc058": 2646,
    "\u2581\uc5c5\uadf8\ub808\uc774\ub4dc": 2647,
    "\u2581found": 2648,
    "\u2581\ub098\uba38\uc9c0": 2649,
    "\u2581proceed": 2650,
    "\u2581\ub2e8\ubc31\uc9c8": 2651,
    "\u2581finish": 2652,
    "\u2581\ubaa8\ub2c8\ud130\ub9c1": 2653,
    "\u2581\ub9c8\uc2a4\ud06c": 2654,
    "\u2581\uc5b8\ub2c8": 2655,
    "\u2581\ub4dc\ub860": 2656,
    "\u2581\uc0c9\uae54": 2657,
    "\u2581steel": 2658,
    "\u2581choos": 2659,
    "\u2581attached": 2660,
    "\u2581\ud504\ub85c": 2661,
    "\u2581his": 2662,
    "\u2581\uc4f8": 2663,
    "\u2581allow": 2664,
    "\u2581\uc790\uadf9": 2665,
    "\u2581\ub9e4\uc6b4": 2666,
    "\u2581\uc0ac\uc6a9\ud558\uae30": 2667,
    "\u2581exist": 2668,
    "\u2581\uc800\ud55c\ud14c": 2669,
    "\u2581\ub9c8\uac10": 2670,
    "\u2581\ud2f0": 2671,
    "\u2581\uc18c\uc2dd": 2672,
    "\u2581\ubd80\uc778": 2673,
    "\ud504": 2674,
    "\u258160": 2675,
    "\u2581\uc218\uc694": 2676,
    "\u2581\uc9c4\uc9dc\ub85c": 2677,
    "\u2581\uc11c\uba85": 2678,
    "\u2581\uacfc\uc815\uc5d0\uc11c": 2679,
    "\u2581colors": 2680,
    "\u2581\ud558\ub824\uace0": 2681,
    "\uc2dc\ub294": 2682,
    "\u2581sure": 2683,
    "O": 2684,
    "\u2581\ub4dc\ub9ac\ub294": 2685,
    "\u2581\ub098\uc774": 2686,
    "\u2581\ubd10\ubd10": 2687,
    "\u2581\ubc14\ub77c": 2688,
    "\u2581\ubb3c\ub7c9": 2689,
    "\u2581N": 2690,
    "\u2581\uc138\ub828": 2691,
    "\u2581\uc885": 2692,
    "\u2581\ucc9c": 2693,
    "\u2581\uc6d4": 2694,
    "\u2581\ud558\ud558": 2695,
    "\u2581\uc6a9\uc774": 2696,
    "\ub9c1": 2697,
    "\u2581\ub2e8\uac00": 2698,
    "\uc2dc\uace0": 2699,
    "\uc11d": 2700,
    "\u2581\uac8c\uc784\uc744": 2701,
    "\u2581\uac83\ub4e4": 2702,
    "\u2581doing": 2703,
    "\uba85\uc774": 2704,
    "\u2581\ub4dc\uc2e4": 2705,
    "\u2581\uc2dc\uc791\ud560": 2706,
    "\ud559": 2707,
    "\uac1c\uac00": 2708,
    "\ud558\uc168\ub358": 2709,
    "\u2581\ud559\uc0dd\ub4e4": 2710,
    "\u2581\ud611\uc758": 2711,
    "\u2581\ud589\ubcf5": 2712,
    "\u2581\ubcf4\uc5ec\uc8fc": 2713,
    "\u2581\ubd88\uac00\ub2a5": 2714,
    "\u2581\ud300\uc774": 2715,
    "\uc678": 2716,
    "\u2581\ubc30\uc1a1\ud574": 2717,
    "\u2581\uc9c4\ucd9c": 2718,
    "\u2581\ub418\ub294\ub370": 2719,
    "\ud37c": 2720,
    "\ub9bc": 2721,
    "\u2581\ub458\uc774": 2722,
    "\u2581\uc18c\ube44\uc790": 2723,
    "\u2581\ucc44": 2724,
    "\u2581\uc81c\uc2dc": 2725,
    "\u2581de": 2726,
    "\uc138\ud2b8": 2727,
    "\u2581\ubc30\uce58": 2728,
    "\u2581\ub2f9": 2729,
    "\u2581\ud300\uc7a5\ub2d8": 2730,
    "\uc8fc\ub85c": 2731,
    "\u2581\ub9ce\ub2e4": 2732,
    "\u2581\ub77c\ubca8": 2733,
    "\u2581\ud5c8\ub9ac": 2734,
    "\u2581review": 2735,
    "\u2581On": 2736,
    "\u2581\uaca8\uc6b8": 2737,
    "\u2581\uc120\uba85": 2738,
    "\u2581\uc8fc\ubb38\uc774": 2739,
    "ally": 2740,
    "\u2581\ubc00": 2741,
    "\u2581\ud5e4\uc5b4": 2742,
    "\u2581building": 2743,
    "\u2581\ubd81\ubbf8": 2744,
    "\u2581\ubc18\ub824\ub3d9\ubb3c": 2745,
    "\u2581\uc2e4\uc81c": 2746,
    "\u258113": 2747,
    "\ub370\uc694": 2748,
    "\u2581recommend": 2749,
    "\u2581\uc5b4\uc6b8": 2750,
    "\u2581\ubd80\uc7a5\ub2d8": 2751,
    "\uc2dc\ub098\uc694": 2752,
    "\uc784": 2753,
    "\u2581\ud611\uc870": 2754,
    "\u2581according": 2755,
    "\u2581\ucca8\ubd80\ud574": 2756,
    "\u2581health": 2757,
    "\u2581\uc5f0\ucd9c": 2758,
    "\ub4e4\uc5d0": 2759,
    "\u2581\uc601\uc591": 2760,
    "\u2581country": 2761,
    "\u2581convenient": 2762,
    "\u2581\ub3c5\ud2b9": 2763,
    "\u2581\uc5b4\uca54": 2764,
    "\u2581\uc606\uc5d0": 2765,
    "\u2581\uc7e4": 2766,
    "\u2581\uccb4\uacb0": 2767,
    "\u2581cool": 2768,
    "\u2581four": 2769,
    "\u2581happy": 2770,
    "\u2581\uc77c\ucc0d": 2771,
    "\u2581\uadf8\ub807\uad70\uc694": 2772,
    "\u2581usually": 2773,
    "\u2581\uc885\uc885": 2774,
    "\u2581attend": 2775,
    "\u2581\ud3b8\uc9d1": 2776,
    "\u2581\uc758\ud5a5": 2777,
    "\u2581\ub3c4\uc640\ub4dc\ub9b4\uae4c\uc694": 2778,
    "\u2581sound": 2779,
    "\u2581\ubc18\uac11\uc2b5\ub2c8\ub2e4": 2780,
    "\u2581factory": 2781,
    "\u2581safe": 2782,
    "\u2581\ub2e4\ub985\ub2c8\ub2e4": 2783,
    "\u2581\ub2e4\uc74c\uc8fc": 2784,
    "\u2581\uac00\ub2a5\ud558\ub2e4\uba74": 2785,
    "\u2581\ud654\ud559": 2786,
    "\u2581own": 2787,
    "\u2581\ucf54\ub4dc": 2788,
    "\u2581\uac8c\ub2e4\uac00": 2789,
    "\u2581called": 2790,
    "\u2581\uc911\uc694\ud569\ub2c8\ub2e4": 2791,
    "\u2581\uc815\uc2e0": 2792,
    "\u2581\uc81c\uc870\uc5c5\uccb4": 2793,
    "\u2581\ucd9c\ub825": 2794,
    "\u2581\uc18c\uae08": 2795,
    "\u2581\uc2f6\uc9c0": 2796,
    "\u2581\ubcbd": 2797,
    "\u2581\uc2a4\ud3ec\uce20": 2798,
    "\u2581continue": 2799,
    "\u2581\ubd88\ub9cc": 2800,
    "\u2581\uc0ac\uc774\uc5d0\uc11c": 2801,
    "\u2581\ub204\ub098": 2802,
    "\u2581\uc870\uce58": 2803,
    "\u2581\ubcf4\uc2e4": 2804,
    "\u2581top": 2805,
    "\u2581\uc5c6\uace0": 2806,
    "\u2581\uc810\uc2ec": 2807,
    "\ud30c": 2808,
    "\u2581\uc8fc\uc81c": 2809,
    "\u2581\ubd80\ubd84\uc5d0": 2810,
    "\u2581\uc0ac\uc6d0": 2811,
    "\uadf8": 2812,
    "\u2581\uc911\uc5d0\uc11c": 2813,
    "\u2581\uac00\uc2a4": 2814,
    "\u2581\ubc14\ub974": 2815,
    "\uc774\uc8e0": 2816,
    "\u2581\uc54a\uac8c": 2817,
    "\u2581include": 2818,
    "\u2581coming": 2819,
    "\u2581\uc218\uc694\uac00": 2820,
    "\u2581wanted": 2821,
    "\u2581\uc788\uc73c\uc2e4": 2822,
    "\u2581face": 2823,
    "\uc0ac\ub294": 2824,
    "\u2581\uba54\uc77c\uc5d0": 2825,
    "\uc2ed\ub2c8\uae4c": 2826,
    "\u2581\ucc0d\uc5b4": 2827,
    "\u2581\uace0\ubbfc": 2828,
    "\u2581\uc218\uc694\uc77c": 2829,
    "\u2581\uc640\uc11c": 2830,
    "\u2581\uace0\uac1d\ub2d8\ub4e4\uaed8": 2831,
    "\uc601": 2832,
    "\ubcf4\uace0": 2833,
    "\u2581\uc2dc\ucf1c": 2834,
    "\u2581\uacc4\ud68d\uc774": 2835,
    "\u2581\uc65c\uc694": 2836,
    "\ud3ec": 2837,
    "\u2581\ub290\ub08c\uc774": 2838,
    "\u2581live": 2839,
    "\uc0ac\uc5d0\uc11c": 2840,
    "\u2581variet": 2841,
    "\u2581\ub144": 2842,
    "\u2581far": 2843,
    "\u2581\uc77c\uc0c1": 2844,
    "an": 2845,
    "\u2581\ubabb\ud558\uace0": 2846,
    "\u2581\uacf5\uac1c": 2847,
    "w": 2848,
    "\u2581\uc8fc\uc2dc\uace0": 2849,
    "\u2581\ub73b": 2850,
    "\ubc14": 2851,
    "\u2581\ub3c4\uc804": 2852,
    "\u2581\uacf5\uaca9": 2853,
    "\u2581\uc9c1": 2854,
    "\u2581\ud601\uc2e0": 2855,
    "\u2581\uc5b4\uc6b0": 2856,
    "\u2581\uc0c1\ud488\uc5d0": 2857,
    "\u2581\ube44\ud0c0\ubbfc": 2858,
    "\u2581\uc0ac\uc774\ud2b8": 2859,
    "\u2581\uc8fc\ubb38\uc11c": 2860,
    "\u2581\uc804\ud574": 2861,
    "\u2581enter": 2862,
    "\ub7ec\uc6b4": 2863,
    "\uad00\ub9ac": 2864,
    "\u2581\ud648\ud398\uc774\uc9c0\uc5d0": 2865,
    "or": 2866,
    "\u2581\ud55c\ub2e4\ub294": 2867,
    "\u2581\uc5f0\uad6c\uc18c": 2868,
    "\u2581\uc9c4\ud589\ud558\ub294": 2869,
    "K": 2870,
    "\u2581\ubcc4": 2871,
    "\u2581\ud310": 2872,
    "\u2581\ubabb\ud574": 2873,
    "\u2581\uc368": 2874,
    "\u2581\uc8fc\uc778": 2875,
    "\u2581\uae34": 2876,
    "\u2581\uc0ac\ud56d\uc5d0": 2877,
    "\u2581\ud45c": 2878,
    "en": 2879,
    "\u2581\uc218\uc775": 2880,
    "\u2581\ud574\uacb0\ud560": 2881,
    "\uc774\uae30": 2882,
    "\u2581\uc7a1\uc544": 2883,
    "\u2581\ud544\uc218": 2884,
    "\ud68c\uc0ac": 2885,
    "\u2581\ubab0\ub77c": 2886,
    "\u2581\uc758\ub8cc": 2887,
    "\u2581\uae30\uc220\uc774": 2888,
    "\u2581\ucc45\uc0c1": 2889,
    "\u2581\uc788\uc5c8": 2890,
    "\u2581\ubb38\uc81c\uc5d0": 2891,
    "\u2581\ud604\uc7a5": 2892,
    "\uac08": 2893,
    "\uc788\uc2b5\ub2c8\ub2e4": 2894,
    "\u2581\ud544\uc694\ud558\ub2e4": 2895,
    "\u2581\ud655\uc778\ud574\ubcf4": 2896,
    "\u2581space": 2897,
    "\u2581\uc2e0\uc120": 2898,
    "\u2581content": 2899,
    "\u2581\uc9c0\ub098": 2900,
    "0%": 2901,
    "min": 2902,
    "\u2581\ubc16\uc5d0": 2903,
    "\u2581\uce74\ud398": 2904,
    "\u2581fit": 2905,
    "\u2581\ub300\ud559": 2906,
    "\u2581\ubc29\ubb38\ud558": 2907,
    "\u2581account": 2908,
    "\u2581\uc7a0\uae50": 2909,
    "\u2581\ub514\uc790\uc778\uc774": 2910,
    "\uc168\ub358": 2911,
    "\u2581\ud558\ub2c8": 2912,
    "\u2581since": 2913,
    "\ucd98": 2914,
    "\u2581discuss": 2915,
    "\ud488": 2916,
    "&": 2917,
    "\u2581apologize": 2918,
    "\u2581dollars": 2919,
    "\u2581mistake": 2920,
    "\u2581quantity": 2921,
    "\u2581\ube0c\ub7ec\uc2dc": 2922,
    "\u2581\uc5b4\uca0c\ub4e0": 2923,
    "\u2581\uc654\ub2e4": 2924,
    "\u2581\uc88b\uace0": 2925,
    "\u2581wonder": 2926,
    "\u2581\ucca8\ubd80\ud30c\uc77c": 2927,
    "\u2581oil": 2928,
    "\u2581cooperation": 2929,
    "\u2581\ub3c4\uc785": 2930,
    "living": 2931,
    "\u2581\ub9c8\ub298": 2932,
    "\u2581another": 2933,
    "\u2581\uccab\uc9f8": 2934,
    "\u2581\uc18c\uc911": 2935,
    "\u2581\ubb34\uc5ed": 2936,
    "\u2581menu": 2937,
    "\u2581five": 2938,
    "\u2581\uc555\ub2c8\ub2e4": 2939,
    "\u2581\uc2e0\ud638": 2940,
    "\u2581\uc2e4\ub0b4": 2941,
    "\u2581\uc13c\uc11c": 2942,
    "\ub450": 2943,
    "\u2581\uad00\ud574": 2944,
    "\u2581play": 2945,
    "\u2581completed": 2946,
    "\u2581\uac1c\ubcc4": 2947,
    "\u2581\uc2e4\uc2dc\uac04": 2948,
    "\u2581\uc790\uc804\uac70": 2949,
    "\u2581\uc2dc\ud5d8": 2950,
    "\u2581\ub0c9\uc7a5\uace0": 2951,
    "\u2581\ud30c\uc545": 2952,
    "\u2581\ubbf8\uc138": 2953,
    "\u2581produce": 2954,
    "\u2581yes": 2955,
    "\u2581\ubcf4\ub0b8": 2956,
    "\u2581\uc788\uc74c": 2957,
    "\u2581\uc2e0\uc6a9": 2958,
    "\u2581\uc870\uac74\uc5d0": 2959,
    "\u2581\uc624\ucf00\uc774": 2960,
    "\u2581\uc27d\uc2b5\ub2c8\ub2e4": 2961,
    "\u2581\uc0dd\uc77c": 2962,
    "\u2581\ubaa9\ub85d": 2963,
    "\u2581\ubb38\uc790": 2964,
    "\u2581\ub80c\uc988": 2965,
    "\u2581\uc0dd\uae30": 2966,
    "\u2581\ubcf4\ud5d8\ub8cc": 2967,
    "\u2581\uc0dd\uae34": 2968,
    "\u2581\uc548\uacbd": 2969,
    "\u2581\ucd5c\uc801\ud654": 2970,
    "\u2581understanding": 2971,
    "\u2581\uacfc\ud559": 2972,
    "\u2581\ud504\ub85c\uc81d\ud2b8\uc5d0": 2973,
    "\u2581\uc8fc\ucc28": 2974,
    "\u2581\ucd08\uae30": 2975,
    "\u2581\uac19\uc740\ub370\uc694": 2976,
    "\u2581\ud150\ub370": 2977,
    "\uc778\uce58": 2978,
    "\u2581c": 2979,
    "\u2581\uc2dc\ud2b8": 2980,
    "\u2581\uacb0": 2981,
    "\u2581came": 2982,
    "\u2581\ub4e4\uc5b4\uc11c": 2983,
    "\u2581\uac70\uae30\uc5d0": 2984,
    "\uc774\ub77c\ub3c4": 2985,
    "\u2581\ub4a4\ub85c": 2986,
    "\u2581\uadf8\ub807\uc9c0\ub9cc": 2987,
    "\u2581\uc54c\uc544\uc57c": 2988,
    "\u2581line": 2989,
    "\u2581\uad6c\ub3c5": 2990,
    "\u2581\uae54\ub054\ud558": 2991,
    "\u2581\ubcf4\uace0\uc11c": 2992,
    "\u2581\ubbf8\uad6d\uc5d0\uc11c": 2993,
    "\u2581months": 2994,
    "\u2581\uc774\ucabd": 2995,
    "\u2581\ub4dc\ub9b4\uae4c\uc694": 2996,
    "\u2581book": 2997,
    "\u2581\ud53d\uc5c5": 2998,
    "\u2581\uc628\ub77c\uc778\uc73c\ub85c": 2999,
    "\u2581\uc870\uc6a9": 3000,
    "P": 3001,
    "\u2581\uad6c\ub9e4\ud574": 3002,
    "\uac10\uc774": 3003,
    "\u2581\uacf3\uc5d0": 3004,
    "\u2581\ubc84\ud2bc\uc744": 3005,
    "\uac78": 3006,
    "\ud1b5": 3007,
    "\u2581\ud654\uba74": 3008,
    "\u2581\uc77c\ud558\uace0": 3009,
    "\uc815": 3010,
    "\u2581\uadf8\ub7ac": 3011,
    "\u2581\uad00\ub9ac\uc790": 3012,
    "\u2581\ub208\uc5d0": 3013,
    "\u2581\ud638\ud658": 3014,
    "\uc73c\uc2e0\uac00\uc694": 3015,
    "\u2581\ud1b5\ud574\uc11c": 3016,
    "\u2581\uc81c\uac8c": 3017,
    "\u2581\uc815\ubcf4\ub294": 3018,
    "\u2581\uc9d1\uc911": 3019,
    "\ubcc4\ub85c": 3020,
    "\u2581\uc774\ud6c4\uc5d0": 3021,
    "\uc7ac": 3022,
    "\ubc31": 3023,
    "\u2581\ub9cc\ub4e4\uc5b4\uc84c": 3024,
    "\uc9c0\ub3c4": 3025,
    "\u2581\uc800\uc7a5": 3026,
    "\u2581\uc6d0\ud65c": 3027,
    "\u2581\uac71\uc815\ud558": 3028,
    "\u2581\uae68": 3029,
    "\u2581\ud558\uc600\uc2b5\ub2c8\ub2e4": 3030,
    "\u2581\ubaa8\ub974\uaca0": 3031,
    "\uac11": 3032,
    "\uc561": 3033,
    "\ub144\uac04": 3034,
    "\u2581\uc0ac\ub78c\uc740": 3035,
    "\u2581\ubc14\uc058": 3036,
    "\u2581\ubcf4\ub0b4\ub4dc\ub9b4": 3037,
    "\u2581fabric": 3038,
    "\u2581\ubcf4\ub0c8": 3039,
    "\u2581\ubcf4\uc720\ud558": 3040,
    "\u2581\ubb38\uc758\ud574": 3041,
    "\u2581\uc4f0": 3042,
    "\u2581\ud310\ub9e4\ud558": 3043,
    "\u2581IT": 3044,
    "\u2581\ud45c\uba74": 3045,
    "\ub860": 3046,
    "\u2581\ucf54\uc2a4": 3047,
    "\ud574\uc8fc\uc2dc\uae30": 3048,
    "\uc77c\ub85c": 3049,
    "\ub294\uc9c0": 3050,
    "T": 3051,
    "\u2581V": 3052,
    "\ud55c\ub2e4\uba74": 3053,
    "\u2581call": 3054,
    "\u2581\uc678": 3055,
    "\u2581\ud45c\ud604": 3056,
    "\u2581\ud32c\uce20": 3057,
    "\u2581turn": 3058,
    "\u2581\ub0a8\uc790": 3059,
    "\u2581\uc694\uc18c": 3060,
    "\u2581brand": 3061,
    "\u2581\uc0ac\uc5c5\uc774": 3062,
    "\u2581device": 3063,
    "\u2581\ub192\uc544": 3064,
    "\u2581thing": 3065,
    "\uc5b4\uc57c": 3066,
    "\u2581effect": 3067,
    "\ubcf5": 3068,
    "\u2581\ub3cc\ub824": 3069,
    "\u2581\uce7c": 3070,
    "\ud558\uc154": 3071,
    "\uc774\ub2c8": 3072,
    "\u2581\uc9c4\uc815": 3073,
    "\u2581\ud654\uc0c1": 3074,
    "\u2581\uc2f8": 3075,
    "\u2581\uc778\uc1c4": 3076,
    "\u2581\uc624\ub79c\ub9cc": 3077,
    "\u2581\uc18c\ub9e4": 3078,
    "mber": 3079,
    "\uc6d0\ud569\ub2c8\ub2e4": 3080,
    "\u2581Go": 3081,
    "\u2581\uc548\ub155": 3082,
    "\u2581grow": 3083,
    "\u2581Current": 3084,
    "\u2581children": 3085,
    "\u2581explain": 3086,
    "\u2581front": 3087,
    "\u2581industry": 3088,
    "\u2581similar": 3089,
    "\u2581supply": 3090,
    "\u2581yesterday": 3091,
    "\u2581\ub2a6\uac8c": 3092,
    "\u2581\ucd5c\ucd08": 3093,
    "\u2581\ud2b9\uc218": 3094,
    "\u2581\uaf3c\uaf3c": 3095,
    "\u2581\ub290\ub084": 3096,
    "\u2581\uc804\uc18c\ubbfc": 3097,
    "\u2581\ubd88\uad6c\ud558\uace0": 3098,
    "\u2581\ub4dc\ub77c\uc774\ube0c": 3099,
    "\u2581\ud48d\ubd80": 3100,
    "\u2581\ubcfc\ub968": 3101,
    "\u2581computer": 3102,
    "\u2581\uc194\uc9c1\ud788": 3103,
    "\u2581\uc2dc\ub9ac\uc988": 3104,
    "\u2581\uc8fc\ud589": 3105,
    "\u2581applied": 3106,
    "\u2581later": 3107,
    "\u2581planning": 3108,
    "\u2581\uac00\ub054": 3109,
    "\u2581released": 3110,
    "\u2581\ub2e8\ub2e8": 3111,
    "\u2581maintain": 3112,
    "\u2581\uacc4\uc2e0\uac00\uc694": 3113,
    "\u2581\ud30c\uc190": 3114,
    "\u2581\ubcf4\uc870": 3115,
    "\u2581\uc811\uc218": 3116,
    "\u2581\uc6d0\ud558\uc2e0\ub2e4\uba74": 3117,
    "\u2581low": 3118,
    "\u2581\uc778\uac04": 3119,
    "\u2581\uc0ac\uacfc\ub4dc\ub9bd\ub2c8\ub2e4": 3120,
    "\u2581\ub9db\uc788\uc5b4\uc694": 3121,
    "\u2581\ub2ec\ub9ac": 3122,
    "\u2581her": 3123,
    "\u2581\uc751\uc6a9": 3124,
    "\u2581\ud658\uc601\ud569\ub2c8\ub2e4": 3125,
    "\u2581\uc2a4\ub9c8\ud2b8\ud3f0": 3126,
    "\u2581\uc774\ud2c0": 3127,
    "\u2581\ud3fc": 3128,
    "\u2581\uc5b4\ub835": 3129,
    "\u2581head": 3130,
    "\u2581\uc5d0\uc774": 3131,
    "\u2581\ubaa8\ud130": 3132,
    "\u2581soft": 3133,
    "\u2581\uc798\ubabb\ub41c": 3134,
    "\u2581started": 3135,
    "\u2581\ud574\uc8fc": 3136,
    "\u2581\ubbff\uc2b5\ub2c8\ub2e4": 3137,
    "\u2581\uac00\uc9c8": 3138,
    "\u2581drinks": 3139,
    "\u2581\uc608\uc058\ub2e4": 3140,
    "\u2581\ubd84\ub9ac": 3141,
    "\u2581\ucd9c\ubc1c": 3142,
    "\u2581\uc190\ud574": 3143,
    "\u2581\ube44\ud589\uae30": 3144,
    "\u2581necessary": 3145,
    "\u2581asked": 3146,
    "\u2581\ub2a5\ub825": 3147,
    "\u2581\uc138\ubbf8\ub098": 3148,
    "\uc918": 3149,
    "\ud574\uc8fc\uc2dc\uba74": 3150,
    "\u2581\ud14c\uc774\ube14": 3151,
    "\u2581\ub85c\uace0": 3152,
    "\u2581\uc62c\ub9ac": 3153,
    "\ucd9c": 3154,
    "\u2581\uac00\uc57c": 3155,
    "\u2581\uc778\ub825": 3156,
    "\u2581\uc624\uc2e0": 3157,
    "\u2581\ub54c\ub9c8\ub2e4": 3158,
    "\u2581\uacf5\ubd80": 3159,
    "\u2581\uad11": 3160,
    "\u2581\uad1c\ucc2e\uc740": 3161,
    "\u2581\uc544\uce68\uc5d0": 3162,
    "\u2581\uc8fc\uace0": 3163,
    "\u2581\ubc88\ud638\ub85c": 3164,
    "\u2581\uc815\uc0c1": 3165,
    "\u2581\uc131\uacfc": 3166,
    "\u2581\uc804\ubb38\uc73c\ub85c": 3167,
    "\u2581\ubd10\uc694": 3168,
    "\u2581\uac70\ub77c\uace0": 3169,
    "\ub4dc\ub9ac\ub824\uace0": 3170,
    "\u2581\ubabb\ud558": 3171,
    "\u2581\uc6b0\ub9ac\uc5d0\uac8c": 3172,
    "\ub9d0": 3173,
    "\u2581\uc54a\ub2e4": 3174,
    "\u2581\uac19\ub2e4": 3175,
    "\u2581\uc788\uc5c8\ub2e4": 3176,
    "\u2581\uc548\ub0b4\ud574": 3177,
    "\ubc29": 3178,
    "\uce74": 3179,
    "\u2581\uc800\ub141\uc5d0": 3180,
    "S": 3181,
    "\ud3c9": 3182,
    "\u2581\uc77c\uc815\uc5d0": 3183,
    "\u2581\uad00\ub9ac\ud560": 3184,
    "\u2581\ubc84": 3185,
    "\u2581\ud574\uacb0\ud574": 3186,
    "\u2581\ucea0\ud551": 3187,
    "\u2581\uae30\ub984": 3188,
    "\uc5ed": 3189,
    "\u2581\uc218\ub9ac": 3190,
    "\u2581\uc54c\ub824\uc8fc\uc2dc": 3191,
    "\u2581\uc2f6\uc73c": 3192,
    "\u2581\ucd95\ud558": 3193,
    "\u2581\uc0b4\uc544": 3194,
    "\u2581\ub098\uc624": 3195,
    "\u2581\uac00\ub2a5\ud558": 3196,
    "\u2581\uc2dc\uc6d0": 3197,
    "\u2581\uc88b\uc558": 3198,
    "\u2581\uac14": 3199,
    "\u2581\uac70\ub77c": 3200,
    "\u2581\uc720\uc9c0\ud560": 3201,
    "\u2581\uc695\uc2e4": 3202,
    "\u2581\ub0b4\uc6a9\uc774": 3203,
    "\u2581\uc704\ub85c": 3204,
    "\uccd0": 3205,
    "\ud1a0": 3206,
    "\u2581\uacc4\uc2dc": 3207,
    "\u2581\uadfc\ucc98": 3208,
    "\u2581\uc12d\ucde8": 3209,
    "\u2581orders": 3210,
    "\uc27d\uace0": 3211,
    "\ub099": 3212,
    "\uc5b5": 3213,
    "\ub418": 3214,
    "\u2581\ub2f5": 3215,
    "\u2581\uacc4\uc57d\uc5d0": 3216,
    "2,": 3217,
    "ical": 3218,
    "\u2581\uc77c\uc815\uc774": 3219,
    "\ubcf4\ub2c8": 3220,
    "\u2581\ubc84\ud2bc": 3221,
    "\u2581\ub4e4\uc5b4\uac08": 3222,
    "\u2581\uc0ac\ud68c": 3223,
    "\u2581\ubcf4\uc774\uc9c0": 3224,
    "\u2581\uc88b\uc544\ud574": 3225,
    "\uac70\ub9ac": 3226,
    "\u2581\uc124\ub9bd": 3227,
    "\u2581\ub4dc\ub838": 3228,
    "\u2581\ubc16": 3229,
    "\u2581\uc545": 3230,
    "\u2581\ucda9\uaca9": 3231,
    "\u2581\ud604\ub300": 3232,
    "\u2581\ub54c\ubb38\uc774": 3233,
    "\u2581\uc220": 3234,
    "\u2581\uc7a0": 3235,
    "\u2581\ub0a8\uc544": 3236,
    "\ub77d": 3237,
    "\u2581\ub180": 3238,
    "ight": 3239,
    "\u2581\ubbfc\uac10": 3240,
    "\u2581\ubbf8\uc158": 3241,
    "\uc73c\uba70": 3242,
    "\u2581leave": 3243,
    "\u2581matter": 3244,
    "\u2581\ub808": 3245,
    "\u2581model": 3246,
    "\u2581\ud604": 3247,
    "\uc784\uc744": 3248,
    "\u2581\ud734\ub300\ud3f0": 3249,
    "\uc5c8\uc73c\uba74": 3250,
    "\u2581develop": 3251,
    "x": 3252,
    "\u2581\uac00\ubccd": 3253,
    "\u2581\uace8\ud504": 3254,
    "\u2581list": 3255,
    "\u2581hav": 3256,
    "\u2581mak": 3257,
    "\u2581\uc2dd\ubb3c": 3258,
    "\u2581\ucfe0\uc158": 3259,
    "\u2581\uc6b4\uc804": 3260,
    "\ub8cc": 3261,
    "\u2581\uc0bc": 3262,
    "ful": 3263,
    "\u2581\uc7a0\uc2dc": 3264,
    "\u2581\uccb4\ud5d8": 3265,
    "\u2581control": 3266,
    "\u2581air": 3267,
    "\u2581create": 3268,
    "\u2581\uc5ec\ub984": 3269,
    "\u2581\ub538\uae30": 3270,
    "\u2581\uc2e4\ub9ac\ucf58": 3271,
    "\u2581\uc561\uc138\uc11c\ub9ac": 3272,
    "\u2581\uc5b4\ucc28\ud53c": 3273,
    "\u2581\uc778\ud14c\ub9ac\uc5b4": 3274,
    "\u2581\uc7ac\ud65c\uc6a9": 3275,
    "\u2581\ucc9c\ucc9c\ud788": 3276,
    "\u2581\uc2a4\ud2b8\ub808\uc2a4": 3277,
    "\u2581\uc561\uc138\uc2a4": 3278,
    "\u2581\ud63c\ud569": 3279,
    "\u2581sir": 3280,
    "\u2581\ub9c8\uc6b0\uc2a4": 3281,
    "\u2581worry": 3282,
    "\u2581\ud0a4\ubcf4\ub4dc": 3283,
    "\u2581battery": 3284,
    "\u2581\uac00\uae4c\uc6b4": 3285,
    "\u2581\ucee8\ud2b8\ub864\ub7ec": 3286,
    "\u2581\ucc29\uc624": 3287,
    "\u2581\uc9c1\uc5c5": 3288,
    "\uad00": 3289,
    "\u2581\ud68c\uc804": 3290,
    "\u2581\uce58\uc544": 3291,
    "\u2581\uac00\uc774\ub4dc": 3292,
    "\u2581\ub2e8\uc704": 3293,
    "\u2581\ub530\ub978": 3294,
    "\u2581\uc811\uadfc": 3295,
    "\u2581\ub300\ub2f5": 3296,
    "\u2581sincere": 3297,
    "\u2581stain": 3298,
    "\u2581hot": 3299,
    "\u2581confirmed": 3300,
    "\u2581\uc720\uc0ac": 3301,
    "\u2581\ub178\ud558\uc6b0": 3302,
    "\u2581\ucc44\ub110": 3303,
    "\u2581\uc0c1\uc2b9": 3304,
    "\u2581\uc5f0\ub8cc": 3305,
    "\u2581\ud569\ub9ac\uc801": 3306,
    "\u2581\ud655\uc778\ud558\uc2dc\uace0": 3307,
    "\u2581sold": 3308,
    "\u2581\uba54\uc2dc\uc9c0": 3309,
    "\u2581\ubcf4\ub0b4\ub4dc\ub838\uc2b5\ub2c8\ub2e4": 3310,
    "\u258150%": 3311,
    "\u2581recommended": 3312,
    "\u2581\ud22c": 3313,
    "\u2581\ud1a0": 3314,
    "\u2581\uadf8\ub9bc": 3315,
    "\u2581\ubb50\uc608\uc694": 3316,
    "\u2581\uc300": 3317,
    "\u2581\uc218\uc218\ub8cc": 3318,
    "\u2581\uc544\uc6c3": 3319,
    "\u2581\uc7ac\uc11d\uc774": 3320,
    "\u2581\uc190\uc2e4": 3321,
    "stic": 3322,
    "\u2581\ubaa8\uc591": 3323,
    "\u2581\ud654\ubb3c": 3324,
    "\u2581\ud574\ubcf4": 3325,
    "\u2581\ubb38\uc11c": 3326,
    "\u2581\uac00\uc815\uc5d0\uc11c": 3327,
    "\u2581\ubb38\uc758\uc0ac\ud56d": 3328,
    "\u2581\uc81c\uacf5\ub418": 3329,
    "\u2581\ub2f4\uc544": 3330,
    "\u2581results": 3331,
    "\u2581\uc131\uacf5\uc801": 3332,
    "\u2581\uc27d\uc9c0": 3333,
    "\ub529": 3334,
    "\u2581\uc794": 3335,
    "\u2581\uc7a1\uace0": 3336,
    "\u2581light": 3337,
    "\u2581\ub098\ubb34": 3338,
    "\u2581\uc8fc\uc2dc\uaca0": 3339,
    "\u2581\ubc29\uc2dd\uc73c\ub85c": 3340,
    "\u2581\uc720\uc9c0\ud558": 3341,
    "\u2581\ud328\ud134": 3342,
    "\u2581X": 3343,
    "\u2581rooms": 3344,
    "\u2581\uac70\ub798\ucc98": 3345,
    "\u2581\ub418\uc5c8": 3346,
    "\u2581\uae09\ud55c": 3347,
    "\u2581wear": 3348,
    "\uc77c\ubd80\ud130": 3349,
    "\ubc95": 3350,
    "\u2581\uc5bc": 3351,
    "\u2581\ud0c0\uc0ac": 3352,
    "\u2581\uc54a\uae30": 3353,
    "\u2581\ubfd0": 3354,
    "\u2581\uc788\uc744\uc9c0": 3355,
    "\u2581\uc554": 3356,
    "\u2581\ub41c\ub2e4\uace0": 3357,
    "\u2581tea": 3358,
    "\u258114": 3359,
    "\u2581\uc5b4\ub514\uc5d0": 3360,
    "\u2581t": 3361,
    "\uc73c\uc2e4": 3362,
    "\uc9c0\uc9c0": 3363,
    "\u2581non": 3364,
    "\u2581\uac11": 3365,
    "\u2581\ubb3c\ub860\uc785\ub2c8\ub2e4": 3366,
    "\u2581\uc0c1\ud669\uc5d0\uc11c": 3367,
    "\u2581\ub108\ubb34\ub098": 3368,
    "\ub8e8": 3369,
    "\u2581\uc218\uc220": 3370,
    "\u2581\ud655\ub300": 3371,
    "\u2581\uac01\ub3c4": 3372,
    "\u2581\uc800\uac8c": 3373,
    "\ubd88": 3374,
    "\u2581\uc0b4\ud3b4\ubcf4": 3375,
    "\u2581\uba85\ud655": 3376,
    "\u2581handle": 3377,
    "\uc6cc": 3378,
    "\u2581Thanks": 3379,
    "\u2581\uace0\ub300": 3380,
    "\u2581\ud560\uac8c\uc694": 3381,
    "\uc4f0\uace0": 3382,
    "\ub9dd": 3383,
    "\u2581\ub418\ub294\uc9c0": 3384,
    "\u2581\ubc1c\uc0dd\ud558": 3385,
    "\u2581\uc2dc\uc7a5\uc5d0": 3386,
    "\ub2ec": 3387,
    "\u2581\uc0ac\uc774": 3388,
    "\u2581\ud3b8\uc758": 3389,
    "\u2581\uc791": 3390,
    "\uc591": 3391,
    "\ud0c0": 3392,
    "\u2581\ud574\uc678\uc5d0\uc11c": 3393,
    "\uc18d": 3394,
    "\u2581\uac1c\ucd5c": 3395,
    "\ub514\uc5b4": 3396,
    "\uac01": 3397,
    "\uc774\ubbc0\ub85c": 3398,
    "\uc911\uc5d0": 3399,
    "\u2581\uc2dc\uc2a4\ud15c\uc740": 3400,
    "\u2581\ub4e4\uc5b4\uc624": 3401,
    "\u2581\uac00\uace0": 3402,
    "\ubcf4\ud5d8": 3403,
    "\uc138\ub300": 3404,
    "\ub54c\ubb38\uc5d0": 3405,
    "\ubc88\uc9f8": 3406,
    "\u2581\uc0ac\uc2e4\uc740": 3407,
    "\ud558\uc2dc\uae30": 3408,
    "not": 3409,
    "\ud558\uc168\ub098\uc694": 3410,
    "\u2581\uba70\uce60": 3411,
    "\u2581\uc190\uc7a1\uc774": 3412,
    "\u2581\ubca0\ud2b8\ub0a8": 3413,
    "\u2581\uc5c5\uacc4": 3414,
    "\u2581basic": 3415,
    "\u2581\ub77c\uba74": 3416,
    "\u2581\ub3cc\uc544": 3417,
    "\u2581interest": 3418,
    "\ud305": 3419,
    "\uc99d": 3420,
    "\u2581\uc9dc": 3421,
    "\uc2dc\ud0a4": 3422,
    "\ub825\uc774": 3423,
    "\u2581\uac70\uace0": 3424,
    "\u2581\uc5b4\ub824\uc6c0": 3425,
    "\u2581\uacc4\uc0b0": 3426,
    "\u2581suit": 3427,
    "\u2581\ub0c9\ub3d9": 3428,
    "\ub41c\ub2e4\uba74": 3429,
    "\u2581short": 3430,
    "\u2581rent": 3431,
    "\u2581\uc870\ub9bd": 3432,
    "\uc9c0\uc5b4": 3433,
    "\u2581\uc8fc\uc2dc": 3434,
    "\u2581\ucc3d": 3435,
    "\u2581delay": 3436,
    "\u2581\uc870\uc9c1": 3437,
    "raw": 3438,
    "\u2581\uc62c\ub824": 3439,
    "\ud2bc": 3440,
    "\u2581\uadfc\uc721": 3441,
    "\u2581\ube68\uac04": 3442,
    "\u2581Yeah": 3443,
    "\u2581countries": 3444,
    "\u2581\uae08\uc735": 3445,
    "\u2581\uc758\ub8b0": 3446,
    "\u2581\ud6c8\ub828": 3447,
    "\u2581simple": 3448,
    "\u2581inventory": 3449,
    "\u2581\uc2a4\ud2f8": 3450,
    "\u2581\ud504\ub85c\ubaa8\uc158": 3451,
    "\u2581\uc544\ubc84\uc9c0": 3452,
    "\u2581center": 3453,
    "\u2581Look": 3454,
    "\u2581\uc601\uad11": 3455,
    "\u2581opportunity": 3456,
    "\u2581\uc2a4\ud06c\ub9b0": 3457,
    "\u2581wireless": 3458,
    "\u2581proposal": 3459,
    "\u2581floor": 3460,
    "\u2581export": 3461,
    "\u2581Today": 3462,
    "\u2581Really": 3463,
    "\u2581\ube44\ubc00": 3464,
    "\u2581directly": 3465,
    "\u2581fine": 3466,
    "\u2581\uc7a5\uac11": 3467,
    "\u2581\ud0dd\ubc30": 3468,
    "\u2581\ub300\ud55c\ubbfc\uad6d": 3469,
    "\u2581\uac00\ub2a5\ud558\uc2ed\ub2c8\ub2e4": 3470,
    "\u2581\uac15\ucca0": 3471,
    "\u2581\ubcf4\uc99d\uae08": 3472,
    "\u2581\ucc38\uc870": 3473,
    "\u2581\ud504\ub9ac": 3474,
    "\u2581bring": 3475,
    "\u2581\uc5f0\uac04": 3476,
    "\u2581\uc88b\uaca0\uc5b4\uc694": 3477,
    "\u2581\uba4b\uc788\ub2e4": 3478,
    "\u2581\uc2a4\uc704\uce58": 3479,
    "\u2581\uacf5\ub3d9": 3480,
    "\u2581\uc528\uac00": 3481,
    "\u25811000": 3482,
    "\u2581\uc804\uc561": 3483,
    "\u2581supplies": 3484,
    "\u2581white": 3485,
    "\u2581\uc2a4\ud53c\ucee4": 3486,
    "\u2581\uc2a4\ud2b8\ub7a9": 3487,
    "\u2581report": 3488,
    "\u2581inside": 3489,
    "\u2581\ud654\uc7a5\uc2e4": 3490,
    "\u2581\ubc18\ud488": 3491,
    "\u2581strong": 3492,
    "V": 3493,
    "\u2581\uc870\ud68c": 3494,
    "\u2581developed": 3495,
    "\u2581\uc790\uae08": 3496,
    "\u2581\uacfc\uc77c": 3497,
    "\u2581features": 3498,
    "\u2581\uac00\uc0c1": 3499,
    "\u2581stock": 3500,
    "\u2581\uc6d0\ud558\uc2dc\uba74": 3501,
    "\u2581\ubc1c\uc8fc": 3502,
    "\u2581wide": 3503,
    "\u2581bas": 3504,
    "\u2581side": 3505,
    "\u2581\ub418\ub098": 3506,
    "\u2581\uc720\uc77c": 3507,
    "\u2581\uc704\ud558\uc5ec": 3508,
    "\u2581\ub9e4\ud2b8": 3509,
    "\u2581\uc591\uc2dd": 3510,
    "\u2581\ud504\ub808\uc784": 3511,
    "\u2581\ub9cc\ub450": 3512,
    "\u2581\ub0b4\uc5ed": 3513,
    "\u2581\uc190\uc27d": 3514,
    "\u2581\uc900\ube44\ub418\uc5b4": 3515,
    "\u2581\ubc29\ud5a5": 3516,
    "\u2581\ud658\ubd88\ud574": 3517,
    "\u258119": 3518,
    "\u2581\uc0ac\uc6a9\ud558\uc138\uc694": 3519,
    "\u2581\uc9d1\uc774": 3520,
    "\u2581types": 3521,
    "\u2581\uc138\uc81c": 3522,
    "\u2581\ucabd\uc5d0\uc11c": 3523,
    "\u2581\ucd9c\uc2dc\ub41c": 3524,
    "\u2581\uc120\ubb3c\ub85c": 3525,
    "\u2581\uc81c\uacf5\ud558\uae30": 3526,
    "\u2581\uadf8\ub2e4\uc74c\uc5d0": 3527,
    "\ub4dc\ub9b4": 3528,
    "\u2581\uc704\uc131": 3529,
    "\ud558\ub2e4\uace0": 3530,
    "\u2581definite": 3531,
    "\u2581\ubd24\uc5b4\uc694": 3532,
    "\u2581\ud558\uc168\ub294\ub370": 3533,
    "\u2581\uc218\ub0a9": 3534,
    "\u2581\uc6a9\uae30": 3535,
    "\u2581g": 3536,
    "\u2581\uc54a\uc544\uc11c": 3537,
    "\u2581\uace0\ub974": 3538,
    "\u2581\uce21": 3539,
    "\u2581\uc5ec\uae30\uae4c\uc9c0": 3540,
    "\uc2dc\uae4c\uc9c0": 3541,
    "\u2581\uc545\uae30": 3542,
    "\u25815%": 3543,
    "\u2581\uc120\uc218": 3544,
    "\u2581\uac14\ub2e4": 3545,
    "\u2581\uc2e0\uace0": 3546,
    "\u2581\ud68c\uc2e0\ud574": 3547,
    "\u2581\uc774\uac70\ub97c": 3548,
    "\u2581\uc120\ubc30\ub2d8": 3549,
    "\u2581\uae08": 3550,
    "\uc9c0\ub97c": 3551,
    "\u2581\uad8c": 3552,
    "\u2581\uc6d0\uc778": 3553,
    "\u2581\ub4e4\uc5b4\uac00\ub294": 3554,
    "\u2581\ud558\uc8e0": 3555,
    "\uc2dc\ud0a4\ub294": 3556,
    "\u2581\ubd84\uc57c\uc5d0": 3557,
    "\u2581\uc0c1\ud0dc\ub85c": 3558,
    "\uaca0\ub124\uc694": 3559,
    "\u2581\uc591\uc0ac": 3560,
    "\u2581\uc138\uc0c1": 3561,
    "\u2581\ubc95": 3562,
    "\u2581\uc9c0\uc810": 3563,
    "\u2581\uc758\ud574": 3564,
    "\u2581\uacf5\uac04\uc774": 3565,
    "\u2581\ubcf4\uc644": 3566,
    "\u2581\uadf8\ub7fc\uc694": 3567,
    "\u2581\uac00\uc815": 3568,
    "ach": 3569,
    "\u2581\ubb38\uc758\ud558\uace0": 3570,
    "\ub0b4\uc5d0": 3571,
    "B": 3572,
    "\u2581\uba85\uc774": 3573,
    "\uc744\uae4c\uc694": 3574,
    "\u2581\ucd9c\uc2dc\ud55c": 3575,
    "\uc6a9\uc73c\ub85c": 3576,
    "\uc57c\uc9c0": 3577,
    "\u2581\ud488\uc9c8\uc774": 3578,
    "\u2581\uc678\uad6d\uc778": 3579,
    "\u2581\ubcc4\ub85c": 3580,
    "L": 3581,
    "\u2581\uc548\uc804\ud55c": 3582,
    "\u2581\uad6c\ud604": 3583,
    "\u2581\uadfc\ubb34": 3584,
    "\u2581\uc778\ub3c4": 3585,
    "\u2581\uace0\uac1d\uc774": 3586,
    "\u2581\uc9c4\uc9dc\uc694": 3587,
    "\u2581\ub098\uc11c": 3588,
    "\u2581\uc774\ub8e8\uc5b4": 3589,
    "\u2581needs": 3590,
    "\u2581\uac78\uc5b4": 3591,
    "\uc548": 3592,
    "\u2581hand": 3593,
    "\u2581\ubcf4\ub0b4\uc8fc\uc2dc": 3594,
    "\u2581\ucd9c\uace0": 3595,
    "\u2581\ub2ed": 3596,
    "\u2581\uc0ac\uc774\ud2b8\uc5d0": 3597,
    "\u2581\uc54c\ub824\ub4dc\ub9ac": 3598,
    "\u2581\uc194": 3599,
    "\u2581\uc778\ud558": 3600,
    "\u2581\uce5c": 3601,
    "\u2581\uacac\uace0": 3602,
    "\uc2dc\ub2e4": 3603,
    "\uc790\ub294": 3604,
    "\ucc98\ub9ac": 3605,
    "\uc5c8\ub294\ub370": 3606,
    "ted": 3607,
    "\ub3fc": 3608,
    "\ud22c": 3609,
    "\u2581\uc0ac\uc774\uc5d0": 3610,
    "at": 3611,
    "\u2581\uae54\ub054": 3612,
    "\uaca0\uc8e0": 3613,
    "\uc2dc\ucf30": 3614,
    "on": 3615,
    "\ud3ed": 3616,
    "\ub110": 3617,
    "\u2581\uc774\uc0ac": 3618,
    "\u2581\ud68c\uc758\uc5d0": 3619,
    "\u2581\uadf8\uc5d0": 3620,
    "\u2581\ud558\uc138\uc694": 3621,
    "\u2581Y": 3622,
    "\u2581\uaddc\uc815": 3623,
    "\u2581\uc81c\ucd9c": 3624,
    "us": 3625,
    "\u2581\uc810\uc740": 3626,
    "\u2581\ud544\uc694\ud558\uc2e0": 3627,
    "10": 3628,
    "\u2581\uc8fc\ubb38\ud560": 3629,
    "\u2581\ucd08\ub300": 3630,
    "\u2581\ub3d9\uc758": 3631,
    "\uc73c\ub2c8\uae4c": 3632,
    "\u2581\uc26c": 3633,
    "\u2581\uc9c4\ud589\ud574": 3634,
    "\u2581\uc18c\uac1c\ud574\ub4dc\ub9ac": 3635,
    "\u2581\uc778\uacf5\uc9c0\ub2a5": 3636,
    "\uc5c8\uc5b4": 3637,
    "\u2581goods": 3638,
    "\u2581\uc2dc\ub300": 3639,
    "\u2581exchange": 3640,
    "\u2581\ubcf4\uc558": 3641,
    "\u2581\uad6d\ubb3c": 3642,
    "\u2581\uacbd\uc7c1": 3643,
    "\u2581app": 3644,
    "\u2581\uac00\uacf5": 3645,
    "\u2581game": 3646,
    "\u2581result": 3647,
    "\u2581\ud655": 3648,
    "\u2581point": 3649,
    "\ub807\uac8c": 3650,
    "\u2581\uc5b4\ub9b0": 3651,
    "\u2581\uc74c\uc2dd\uc774": 3652,
    "\u2581\ucd5c\uc801": 3653,
    "\u2581\ubc15\uc2a4": 3654,
    "\u2581\uafb8\uc900": 3655,
    "\u2581\uadf8\ub7ec\ub2c8": 3656,
    "\u2581\ubc8c": 3657,
    "\u2581150": 3658,
    "\u2581Th": 3659,
    "\u2581\uace0\uac1d\ubd84\ub4e4": 3660,
    "\u2581\ud3c9\uade0": 3661,
    "\u2581learn": 3662,
    "\ub2d0": 3663,
    "\u2581connect": 3664,
    "\u2581return": 3665,
    ":00": 3666,
    "\u2581\ubc14\ub78c": 3667,
    "\u2581equip": 3668,
    "\u2581\ud558\uac8c": 3669,
    "\u2581idea": 3670,
    "\uc790\ub9c8\uc790": 3671,
    "\u2581\uc5d4\uc9c0\ub2c8\uc5b4": 3672,
    "\u2581\uc544\ub984\ub2e4": 3673,
    "\ub20c": 3674,
    "\u2581common": 3675,
    "\u2581\ube14\ub8e8": 3676,
    "\u2581\uc624\ube10": 3677,
    "\u2581CCTV": 3678,
    "\u2581global": 3679,
    "\u2581inconvenience": 3680,
    "\u2581\ub179\uc74c": 3681,
    "\u2581\ub2e4\uc12f": 3682,
    "\u2581\ub2e4\uc6b4\ub85c\ub4dc": 3683,
    "\u2581\ubc14\uc05c": 3684,
    "\u2581\ubf51\uc544": 3685,
    "\u2581\uc0f4\ud478": 3686,
    "\u2581\ucd08\ucf5c\ub9bf": 3687,
    "\u2581\ud575\uc2ec": 3688,
    "\u2581group": 3689,
    "\u2581consist": 3690,
    "\u2581particular": 3691,
    "\u2581USB": 3692,
    "\u2581job": 3693,
    "\u2581sleep": 3694,
    "\u2581\uac15\uc544\uc9c0": 3695,
    "\u2581environment": 3696,
    "\u2581earlier": 3697,
    "\u2581\ud074\ub798\uc2dd": 3698,
    "\u2581depend": 3699,
    "\u2581\ud654\uc694\uc77c": 3700,
    "\u2581\ud1b5\uae30\uc131": 3701,
    "\u2581chance": 3702,
    "\u2581\uc0ac\ubd80\ub2d8": 3703,
    "\u2581\uc9c0\uc11d\uc9c4": 3704,
    "\u2581\ud0c4\ud0c4": 3705,
    "\u2581\uc591\ub150": 3706,
    "\u2581pretty": 3707,
    "\u2581\uc0ac\uc6b4\ub4dc": 3708,
    "\u2581\uc18c\ubbfc\uc544": 3709,
    "\u2581\ud0c4\uc18c": 3710,
    "\u2581\ucc44\ud305": 3711,
    "\u2581\ucd08\uc548": 3712,
    "\u2581leader": 3713,
    "\u2581\ud569\uc131": 3714,
    "\u2581\uadf8\ub798\ud53d": 3715,
    "\u2581equipment": 3716,
    "\u2581\uc218\uc601\uc7a5": 3717,
    "\u2581\uc815\ub2f5": 3718,
    "\u2581\ub2e4\ub984": 3719,
    "\u2581\ubb34\uc5c7\uc778\uc9c0": 3720,
    "\u2581\ucd95\ud558\ub4dc\ub9bd\ub2c8\ub2e4": 3721,
    "\u2581\ubcc0\ub3d9": 3722,
    "\u2581\uc120\ud0dd\ud560": 3723,
    "\u2581\ub2f5\uc7a5": 3724,
    "\u2581meat": 3725,
    "\u2581\ub4dc\ub77c\ub9c8": 3726,
    "\u2581\uc601\uad6d": 3727,
    "\u2581lower": 3728,
    "\u2581\uad50\uc7ac": 3729,
    "\u2581\uba38\ubb3c": 3730,
    "\u2581\uba54\uc778": 3731,
    "\u25812000": 3732,
    "\u2581\uc62c\ub77c\uac00": 3733,
    "\u258120%": 3734,
    "\u2581\uae30\uc6d0\ud569\ub2c8\ub2e4": 3735,
    "\u2581healthy": 3736,
    "\u2581\ub9db\uc788\ub2e4": 3737,
    "\u2581\uc2dc\uc2a4\ud15c\uc774": 3738,
    "\u2581reduce": 3739,
    "\u2581\uc544\uc720": 3740,
    "\u2581\uc548\uc815\uc131": 3741,
    "\ub9ac\ub294": 3742,
    "\u2581\ub07c": 3743,
    "\u2581\uc88b\uc740\ub370": 3744,
    "\u2581\uc218\ub839": 3745,
    "\u2581\uc9c4\ub2e8": 3746,
    "\u2581pro": 3747,
    "\u2581\uc720\ud574": 3748,
    "\u2581\uacbd\uc7c1\ub825": 3749,
    "\u2581pre": 3750,
    "\u2581\ud0dc": 3751,
    "\u2581employees": 3752,
    "\u2581\ubbf8\ub2c8": 3753,
    "\u2581\uccad\uad6c\uc11c": 3754,
    "\u2581\ubd24\ub294\ub370": 3755,
    "\u2581\ubc14\uc774\ub7ec\uc2a4": 3756,
    "\u2581speed": 3757,
    "\u2581\ub0b4\uc7a5": 3758,
    "\u2581\uc4f0\uc9c0": 3759,
    "\u2581level": 3760,
    "\u2581\uc790\uc720\ub86d": 3761,
    "\u2581clear": 3762,
    "\u2581\uc544\uc9c1\uae4c\uc9c0": 3763,
    "\u2581\ubcf4\uba74\uc11c": 3764,
    "\u2581\uacc4\uc88c": 3765,
    "\u2581\uc9c0\uad6c": 3766,
    "\u2581\ub9c8\ub828": 3767,
    "\ubc1b\uc558\uc2b5\ub2c8\ub2e4": 3768,
    "\u2581\uc774\uc911": 3769,
    "\u2581Fro": 3770,
    "\u2581\uc9c0\ub0ac": 3771,
    "\u2581\uac83\uc778\uc9c0": 3772,
    "\u2581\ubbf8\uce58": 3773,
    "\u2581main": 3774,
    "\u2581\uc608\uc804\uc5d0": 3775,
    "\u2581\ub3c4\ub85c": 3776,
    "\u2581times": 3777,
    "\ub808": 3778,
    "\u2581\uc5ec\uc790": 3779,
    "\u2581\uc804\ub825": 3780,
    "\u2581\uc911\uc2ec": 3781,
    "\u2581\uc804\uc1a1": 3782,
    "\u2581\ud6a8\uacfc\uc801": 3783,
    "\uc838\uc11c": 3784,
    "\u2581\uc7a1\uc744": 3785,
    "\uc5c8\uc5b4\uc694": 3786,
    "\u2581\ub9c8\uce58": 3787,
    "\u2581\uc18c\uc720": 3788,
    "\u2581\ubc88\ub9cc": 3789,
    "\u2581\uc2e0\ubc1c": 3790,
    "\ucc98": 3791,
    "\u2581Well": 3792,
    "\uc9c0\uac00": 3793,
    "\u2581\ubaa8\uc2b5": 3794,
    "\u2581\uacc4": 3795,
    "\u2581\ubc14\uc9c0": 3796,
    "\u2581\uae4a\uc774": 3797,
    "\u2581\ud06c": 3798,
    "\u2581\uc6d0\ud55c\ub2e4": 3799,
    "\u2581\ube44\uad50\ud574": 3800,
    "\u2581De": 3801,
    "\u2581\uc190\uc73c\ub85c": 3802,
    "\ud574\uc9c4": 3803,
    "\u2581\uc5b8\uae09": 3804,
    "\ud588\ub2e4\uace0": 3805,
    "\u2581\uc18c\uac1c\ud558\uace0": 3806,
    "\u2581\ubd84\ub4e4\uaed8": 3807,
    "\u2581\uc6a9\ub3c4": 3808,
    "\u2581\uc7ac\uc0dd": 3809,
    "\u2581\ud3ed": 3810,
    "\ud5a5": 3811,
    "\u2581\ucda9\uc804\uae30": 3812,
    "\u2581\ud3b8\ub9ac": 3813,
    "\u2581\ubc30\ucd9c": 3814,
    "\u2581\uc6c0\uc9c1\uc774": 3815,
    "\u2581\ub0a9": 3816,
    "\u2581\uc2eb\uc5b4": 3817,
    "\u2581weeks": 3818,
    "\uac15": 3819,
    "\u2581\uc8fc\uc758": 3820,
    "\u2581\ub3c4\ub9e4\uc0c1": 3821,
    "\u2581\uc804\uad6d": 3822,
    "\u2581\uc0c9": 3823,
    "to": 3824,
    "\u2581looks": 3825,
    "\ub4ef\uc774": 3826,
    "\u2581\uc5c6\ub294\ub370": 3827,
    "\u2581\ub514\uc790\uc778\uacfc": 3828,
    "\u2581\ud53c\uc790": 3829,
    "\u2581\uc9d0": 3830,
    "\u2581\ubabb\ud560": 3831,
    "\ub9c9": 3832,
    "\u2581\uc900": 3833,
    "\u2581\ubcf4\uc774": 3834,
    "\uc808": 3835,
    "\ub178": 3836,
    "\u2581\ub300\ub7b5": 3837,
    "\u2581\ub098\ub97c": 3838,
    "\u2581\ud601\uc2e0\uc801": 3839,
    "0": 3840,
    "\u2581\ud68c\uacc4": 3841,
    "\u2581\uc0ac\uc6a9\ud55c": 3842,
    "\ucf54": 3843,
    "\u2581\uc9d1\uc740": 3844,
    "\u2581\ubc1b\uc558": 3845,
    "\u2581Ji": 3846,
    "\u2581\uc774\uc6a9\ud558": 3847,
    "\u2581\ubc29\ubc95\uc740": 3848,
    "\u2581\uc804\ub2ec\ud574": 3849,
    "\uc600": 3850,
    "\u2581\ub300\ud45c\ub2d8": 3851,
    "\u2581\uc6b8": 3852,
    "\u2581\ud56d\ubaa9": 3853,
    "\ubfd0": 3854,
    "\uc778\uac00": 3855,
    "\ucda9": 3856,
    "\u2581\uae30\uc874\uc5d0": 3857,
    "\ucca0": 3858,
    "\u2581\ub0a0\uc528": 3859,
    "\uc62c": 3860,
    "\uc554": 3861,
    "\ucc45": 3862,
    "FFF": 3863,
    "\u2581\ub514": 3864,
    "\u2581ga": 3865,
    "\u2581\ub4dc\ub9ac\uc9c0": 3866,
    "\u2581\ub0ac": 3867,
    "\ud0c4": 3868,
    "\uc73c\ub098": 3869,
    "\u2581\ub098\ub204": 3870,
    "\u2581\uad70": 3871,
    "\ud558\uc8e0": 3872,
    "\u2581\ud65c\uc131\ud654": 3873,
    "\u258117": 3874,
    "\u2581fun": 3875,
    "\u2581\ud6a8\uc728": 3876,
    "\u2581\uae30\uc0ac": 3877,
    "\u2581W": 3878,
    "\u2581\uc4f0\ub294": 3879,
    "\u2581old": 3880,
    "\u2581smart": 3881,
    "\u2581\ubc1b\uc544\ubcf4": 3882,
    "\u2581tri": 3883,
    "ty": 3884,
    "\u2581\ubaa9\uc801": 3885,
    "\u2581\uc678\uad6d": 3886,
    "\u2581\ub410": 3887,
    "\u2581\uadf8\ub2e4\uc74c": 3888,
    "\u2581\ud53c\ud574": 3889,
    "light": 3890,
    "\u2581platform": 3891,
    "\u2581camera": 3892,
    "\u2581\ub0b4\ub144": 3893,
    "\u2581image": 3894,
    "\u2581\ub0b4\ubd80\uc5d0": 3895,
    "\u2581\ud615\uc131": 3896,
    "\u2581\uc911\uac04": 3897,
    "\u2581\ub9c8\uc774\ud06c": 3898,
    "\uc0ac\uac00": 3899,
    "\u2581\ud329": 3900,
    "\u2581minute": 3901,
    "\u2581study": 3902,
    "\u2581\uc54c\uc544\ubcf4": 3903,
    "\u2581\ube44\ub204": 3904,
    "\u2581\ub3c4\uc640\uc8fc": 3905,
    "\u2581\uc654\uc5b4": 3906,
    "\u2581whe": 3907,
    "\u2581quick": 3908,
    "term": 3909,
    "\u2581\uc80a\uc740": 3910,
    "\u2581wholesale": 3911,
    "\u2581\uc720\uc5f0": 3912,
    "\u2581\ube44\uc2fc": 3913,
    "\u2581\ubc34\ub4dc": 3914,
    "\u2581\ucd5c\uc0c1": 3915,
    "\u2581\ud0dc\uc591": 3916,
    ":": 3917,
    "\u2581SNS": 3918,
    "\u2581South": 3919,
    "\u2581coffee": 3920,
    "\u2581family": 3921,
    "\u2581professional": 3922,
    "\u2581quit": 3923,
    "\u2581remember": 3924,
    "\u2581surface": 3925,
    "\u2581toothpaste": 3926,
    "\u2581wrong": 3927,
    "\u2581\ub098\ub220": 3928,
    "\u2581\ub0c4\ube44": 3929,
    "\u2581\ub179\ucc28": 3930,
    "\u2581\uba54\uc774\ud06c\uc5c5": 3931,
    "\u2581\ubc1d\uc740": 3932,
    "\u2581\uc54c\ub8e8\ubbf8\ub284": 3933,
    "\u2581\uc601\uc218\uc99d": 3934,
    "\u2581\uc624\ub514\uc624": 3935,
    "\u2581\ucd5c\uc6b0\uc120": 3936,
    "\u2581\ud2b9\uc131": 3937,
    "\u2581\ud558\ub4dc\uc6e8\uc5b4": 3938,
    "\uaecf": 3939,
    "\u2581relationship": 3940,
    "\u2581value": 3941,
    "\u2581morning": 3942,
    "\u2581\uc544\uc774\uc2a4\ud06c\ub9bc": 3943,
    "\u2581\uc2dd\ud0c1": 3944,
    "\u2581million": 3945,
    "\u2581CEO": 3946,
    "\u2581security": 3947,
    "\u2581CCC": 3948,
    "\u2581popular": 3949,
    "\u2581\ubc18\ub824\uacac": 3950,
    "\u2581\uc561\uccb4": 3951,
    "\u2581automatic": 3952,
    "\u2581limit": 3953,
    "\u2581\uc870\ud569": 3954,
    "\u2581pork": 3955,
    "\u2581\ubcf4\uc2b5": 3956,
    "\u2581\ubca8\ud2b8": 3957,
    "\u2581everyone": 3958,
    "\u2581\uc2a4\ud0e0\ub4dc": 3959,
    "\u2581\uc790\uc5f0\uc2a4\ub7fd\uac8c": 3960,
    "\u2581Kim": 3961,
    "\u2581\ubc84\uc804": 3962,
    "\u2581below": 3963,
    "\u2581\ub2ec\ub824": 3964,
    "\u2581\uc18c\ud1b5": 3965,
    "\u2581\ub9e4\ub2ec": 3966,
    "\u2581\ubb34\uc11c\uc6cc": 3967,
    "\u2581\uc7a5\ub09c\uac10": 3968,
    "\u2581\uc7a0\uae08": 3969,
    "\u2581\uc9c8\ubcd1": 3970,
    "\u2581\uc790\uc678\uc120": 3971,
    "\u2581\ud329\uc2a4": 3972,
    "\u2581\uac10\uc0ac\ub4dc\ub9ac\uba70": 3973,
    "\u2581\uba54\ubaa8\ub9ac": 3974,
    "\u2581\uc7a0\uc2dc\ub9cc": 3975,
    "\u2581\uc5ec\ucb64\ubd10": 3976,
    "\u2581\uadf8\ub8f9": 3977,
    "\u2581carefully": 3978,
    "\u2581table": 3979,
    "\u2581deal": 3980,
    "\u2581\uc2e0\uc6a9\uce74\ub4dc": 3981,
    "\u2581\uc758\ub958": 3982,
    "\u2581\ub20c\ub7ec": 3983,
    "\u2581\ubc31\uc2e0": 3984,
    "\u2581\uc544\uc608": 3985,
    "\u2581\uc790\uafb8": 3986,
    "\u2581\ub9c8\uc0ac\uc9c0": 3987,
    "\u2581\uad6c\ube44": 3988,
    "\u2581\uc4f0\ub808\uae30": 3989,
    "\u2581\ud504\ub85c\uc138\uc2a4": 3990,
    "\u2581risk": 3991,
    "\u2581\ucfe0\ud3f0": 3992,
    "\u2581saw": 3993,
    "\u2581\uadf8\ub807\uc2b5\ub2c8\ub2e4": 3994,
    "\u2581expected": 3995,
    "\u2581\uc5b4\ub5a8\uae4c\uc694": 3996,
    "\u2581\uae08\uc18d": 3997,
    "\u2581original": 3998,
    "\u2581\uc0c1\uc0c1": 3999,
    "\u2581\ucc44\uc18c": 4000,
    "\u2581read": 4001,
    "\u2581\ubcf4\uc774\ub294": 4002,
    "\u2581\ud558\uc2dc": 4003,
    "\u2581\ub0a9\uae30": 4004,
    "\u2581\ub098\uc654\uc5b4\uc694": 4005,
    "\u2581\uc788\ub124": 4006,
    "\u2581\ud604\uc2e4": 4007,
    "\u2581type": 4008,
    "\u2581\uc624\uc154\uc11c": 4009,
    "\u2581\uc885\uad6d\uc774": 4010,
    "\u2581\uac70\uae30\uc11c": 4011,
    "\u2581\uc774\ub54c": 4012,
    "\u2581\ud301": 4013,
    "\u2581\ud0c4\ub825": 4014,
    "\ud558\uc168\ub2e4": 4015,
    "\u2581\ud588\ub358": 4016,
    "\u2581\uc720\uae30": 4017,
    "\u2581\ub4e4\uc5b4\uc640": 4018,
    "\uacbd": 4019,
    "\u2581\ubd05\ub2c8\ub2e4": 4020,
    "\ub144\uc774": 4021,
    "\u2581\ubb3c\uc5b4\ubcf4": 4022,
    "\u2581\uc77c\uc5b4": 4023,
    "\u2581\uc54a\uc544\uc694": 4024,
    "\u2581\uc9c4\ud589\ud558\uae30": 4025,
    "\u2581\ud0a4\ud2b8": 4026,
    "\u2581\uac19\uc544\uc11c": 4027,
    "ique": 4028,
    "\u2581\ub5a8\uc5b4\uc9c0": 4029,
    "\u2581\ub193\uce58": 4030,
    "\u2581\ub108\ub294": 4031,
    "\u2581\uc9c4\uc2e4": 4032,
    "\u2581\ub9cc\ub098\ubcf4": 4033,
    "\u2581\ub300\uba74": 4034,
    "one": 4035,
    "p": 4036,
    "\u2581\uc9c0\ubc29": 4037,
    "\u2581operate": 4038,
    "\u2581\ube75": 4039,
    "\u2581remove": 4040,
    "\u2581sea": 4041,
    "\u2581\uaf43": 4042,
    "\u2581\uace8": 4043,
    "\u2581\uc774\ud574\ud569\ub2c8\ub2e4": 4044,
    "\u2581\ub2e4\ub2c8": 4045,
    "\u2581\ubc30\uc1a1\ube44": 4046,
    "\u2581\ud655\uc778\ud558\uae30": 4047,
    "\u2581\ucf00\uc5b4": 4048,
    "\u2581\ud1b5\uacfc": 4049,
    "\u2581\ub9de\uc9c0": 4050,
    "\u2581\uc678\uc5d0": 4051,
    "\u2581\uae08\uc561\uc774": 4052,
    "\u2581\ub9cc\ub4e4\uae30": 4053,
    "\u25810": 4054,
    "\u2581\uc0c1\ud0dc\uc5d0\uc11c": 4055,
    "\u2581\uccad": 4056,
    "\u2581\uac1c\ubc1c\ud558\uace0": 4057,
    "\u2581\ucc98\uc74c\uc73c\ub85c": 4058,
    "el": 4059,
    "\u2581\uc904\uc774": 4060,
    "\u2581\ubc14\ub2e4": 4061,
    "\u2581Hi": 4062,
    "\u2581\ub0b4\ub144\uc5d0": 4063,
    "\u2581\uc801\uc751": 4064,
    "\u2581problems": 4065,
    "\u2581\ubd88\ud3b8\ud568": 4066,
    "\u2581move": 4067,
    "\u2581\ud558\ub098\ub9cc": 4068,
    "\u2581\ub41c\ub2e4\uba74": 4069,
    "\u2581\ub4e4\uc5c8\uc5b4": 4070,
    "\u2581\ub4e4\uc744": 4071,
    "\ub300\ub97c": 4072,
    "\u2581\ubbf8\ub798\uc5d0": 4073,
    "\uc5bc": 4074,
    "\u2581\ucabd\uc73c\ub85c": 4075,
    "\ud2f0": 4076,
    "\u2581\uac10\ub3d9": 4077,
    "\u2581\uc8fc\uae30": 4078,
    "\u2581\uc8c4\uc1a1\ud558": 4079,
    "\u2581\ud604\uc0c1": 4080,
    "\u2581m": 4081,
    "\u2581hands": 4082,
    "\u2581\uc5c5\ub85c\ub4dc": 4083,
    "\ud588\uc5b4": 4084,
    "\u2581\uc7a5\uae30\uc801": 4085,
    "\u2581less": 4086,
    "\ub4dc\ub824\uc694": 4087,
    "\u2581PC": 4088,
    "\u2581\uc2b9\uc778": 4089,
    "\u2581\uc190\ub2d8\ub4e4": 4090,
    "\u2581\ubaa8\ub2c8\ud130": 4091,
    "\u2581\uc7a5\uae30": 4092,
    "\u2581\ucc44\uc6cc": 4093,
    "b": 4094,
    "\u2581\uc544\ub294": 4095,
    "\u2581\ubaa8\ub974": 4096,
    "\u2581\uac00\uc694": 4097,
    "\u2581share": 4098,
    "\u2581\ubd10\uc57c": 4099,
    "\u2581\uc9c0\uae09": 4100,
    "\uc0dd": 4101,
    "\u2581\uadf8\uac70\ub294": 4102,
    "ine": 4103,
    "\uc73c\uc138\uc694": 4104,
    "\u2581\ud63c": 4105,
    "\ubc84": 4106,
    "\u2581\ud328\uc158": 4107,
    "\u2581\uc0c1\uc790": 4108,
    "\u2581\ud559\uc0dd": 4109,
    "\u2581cause": 4110,
    "19": 4111,
    "\u2581\uc544\ub2c8\ub2e4": 4112,
    "\u2581\uafc8": 4113,
    "\u2581\ubc15": 4114,
    "\ud0a4": 4115,
    "\u2581inter": 4116,
    "\uc5c8\ub2e4": 4117,
    "\u2581\uc790\uc0b0": 4118,
    "\u2581\uc9c4\ud589\ub418": 4119,
    "\u2581\uc800\ub834": 4120,
    "\u2581\uc790\uc7ac": 4121,
    "\ud1a4": 4122,
    "\u2581\ud638\ud154\uc774": 4123,
    "\u2581\uc0c1\ud488\uc73c\ub85c": 4124,
    "\uc5c5\uccb4": 4125,
    "\u2581\uc99d\uac00\ud558": 4126,
    "\uacb0": 4127,
    "\ubc25": 4128,
    "\ud0b9": 4129,
    "\u2581\ub0b4\uc5b4": 4130,
    "\uc57d": 4131,
    "\ubd09": 4132,
    "\ud0d5": 4133,
    "\ub18d": 4134,
    "\u2581\uba54": 4135,
    "\u2581\uacbd\ud5d8\ud574": 4136,
    "\u2581\uae30\ub300\ud558": 4137,
    "\uc13c\ud130": 4138,
    "\u2581\uad6c\ub9e4\ud55c": 4139,
    "\u2581\ub3cc\uc544\uac00": 4140,
    "time": 4141,
    "quality": 4142,
    "\u2581\ucc28\uac00": 4143,
    "\u2581\ub2f4\ub2f9\uc790\ub2d8": 4144,
    "\ubcfc\uac8c\uc694": 4145,
    "\u2581\uc120\ud0dd\uc774": 4146,
    "\u2581\uc801\uadf9": 4147,
    "\u2581includ": 4148,
    "\ud0ac": 4149,
    "\u2581\ub2f9\uc0ac\uc5d0": 4150,
    "\u2581\uc598\uae30\ud574": 4151,
    "\u2581Co": 4152,
    "\u2581\ubbf8\ub514\uc5b4": 4153,
    "the": 4154,
    "\u2581\ub2e8\uc9c0": 4155,
    "\uc73c\ub85c\ub3c4": 4156,
    "\u2581\ub109\ub109": 4157,
    "is": 4158,
    "\u2581\uc544\ube60": 4159,
    "\ube48": 4160,
    "\u258170": 4161,
    "\u2581\uc8fc\ub9d0": 4162,
    "\u2581\ub098\ud55c\ud14c": 4163,
    "\u2581\uc7ac\ubbf8": 4164,
    "\u2581\ub2e4\ud574": 4165,
    "\u2581\uc900\ube44\ud55c": 4166,
    "\u2581temperature": 4167,
    "\u2581\ub274\uc2a4": 4168,
    "\u2581\uc5ec\ub7ec\ubd84\ub4e4": 4169,
    "\u2581site": 4170,
    "\u2581function": 4171,
    "\u2581application": 4172,
    "\u2581vehicle": 4173,
    "\u2581\uc54c\uc558": 4174,
    "\u2581machine": 4175,
    "\u2581question": 4176,
    "\u2581\ubca0": 4177,
    "\u2581\ud558\uc5ec": 4178,
    "\u2581\ub180\ub77c": 4179,
    "\u2581\ud615\ud0dc": 4180,
    "\u2581\uadf8\ub9bd": 4181,
    "\uc8fc\uc2e0\ub2e4\uba74": 4182,
    "\u2581adjust": 4183,
    "\u2581\uace0\ub9c8\uc6cc": 4184,
    "\ub2cc": 4185,
    "\u2581\uc544\ub2cc\ub370": 4186,
    "\u2581seat": 4187,
    "\u2581dig": 4188,
    "\u2581require": 4189,
    "\u2581\ub098\uc654\uc5b4": 4190,
    "\u2581decide": 4191,
    "\u2581\uba74": 4192,
    "\u2581\ub05d\ub09c": 4193,
    "\u2581pick": 4194,
    "\u2581Wi": 4195,
    "\u2581manage": 4196,
    "\ud568\uc73c\ub85c\uc368": 4197,
    "\ud2f4": 4198,
    "\u2581\ud5c8\ube0c": 4199,
    "\u2581import": 4200,
    "\ud07d": 4201,
    "\u2581\uce6d\ucc2c": 4202,
    "\u2581According": 4203,
    "\u2581Internet": 4204,
    "\u2581cover": 4205,
    "\u2581entire": 4206,
    "\u2581fresh": 4207,
    "\u2581gift": 4208,
    "\u2581response": 4209,
    "\u2581staff": 4210,
    "\u2581\uaddc\uce59": 4211,
    "\u2581\ub098\uc05c": 4212,
    "\u2581\ubaa9\uc18c\ub9ac": 4213,
    "\u2581\ubc11\uc5d0": 4214,
    "\u2581\ubc14\uafd4": 4215,
    "\u2581\uce90\ub098\ub2e4": 4216,
    "\u2581display": 4217,
    "\u2581Japan": 4218,
    "\u2581method": 4219,
    "\u2581\uc2a4\uc2a4\ub85c": 4220,
    "\u2581\uad1c\ucc2e\uc73c\uc2dc\ub2e4\uba74": 4221,
    "\u2581remain": 4222,
    "\u2581\ub354\ubd88\uc5b4": 4223,
    "\u2581\uc2a4\ud2b8\ub9ac\ubc0d": 4224,
    "\u2581\ud734\uc2dd": 4225,
    "\u2581\ubc88\uac70\ub86d": 4226,
    "\u2581regular": 4227,
    "\u2581mind": 4228,
    "\u2581\ubb3b": 4229,
    "\u2581\uc5f0\uc2b5": 4230,
    "\u2581\ubdf0\ud2f0": 4231,
    "\u2581\uc18c\uc15c": 4232,
    "\u2581trust": 4233,
    "\u2581\uc774\uc5b4\ud3f0": 4234,
    "\u2581\uacb0\uad6d": 4235,
    "\u2581Come": 4236,
    "\u2581presentation": 4237,
    "\u2581\uad00\ucc30": 4238,
    "\u2581\uae40\uc885\uad6d": 4239,
    "\u2581\ub3c4\uc2dc\ub77d": 4240,
    "\u2581solve": 4241,
    "\u2581\uac10\uac01": 4242,
    "\u2581attention": 4243,
    "\u2581\uc2e0\uaddc": 4244,
    "\u2581\uc758\uc57d\ud488": 4245,
    "\u2581listen": 4246,
    "\u2581\uc6d0\ud558\uc2ed\ub2c8\uae4c": 4247,
    "\u2581\uc5b4\uae68": 4248,
    "\u2581\ub9c8\uce68": 4249,
    "\u2581Sure": 4250,
    "\u2581\ub3c4\ubcf4": 4251,
    "\u2581\uc9c0\ud0a4": 4252,
    "\u2581\uc2e0\uc6a9\uc7a5": 4253,
    "\u2581\uace0\uc18d": 4254,
    "\u2581touch": 4255,
    "\u2581separately": 4256,
    "\u2581\uce68\uc2e4": 4257,
    "\u2581\ubd88\ub7ec": 4258,
    "\u2581completely": 4259,
    "\u258110,000": 4260,
    "\u2581soup": 4261,
    "\u2581\uc5f0\uc8fc": 4262,
    "\u2581\ud5a5\ud6c4": 4263,
    "\u2581\uacbd\uc601": 4264,
    "\u2581\ub098\uc62c": 4265,
    "\u2581\ub098\ub178": 4266,
    "\u2581\ub204\ub974\uba74": 4267,
    "\u2581writing": 4268,
    "\u2581expensive": 4269,
    "\u2581location": 4270,
    "\u2581\ub0a9\uc785": 4271,
    "\u2581\ubc14\uc774\uc624": 4272,
    "\u2581\ud504\ub85c\ud544": 4273,
    "\u2581\ud328\ub110": 4274,
    "\u2581\uc555\ub825": 4275,
    "\u2581\ub450\ud53c": 4276,
    "\u2581\uae09\uc5ec": 4277,
    "\u25811,000": 4278,
    "\u2581goes": 4279,
    "\u2581\ucc29\uc6a9\uac10": 4280,
    "\u2581\ubcf5\uc7a1\ud55c": 4281,
    "\u2581\uc2f6\uc5c8\uc2b5\ub2c8\ub2e4": 4282,
    "\u2581\uc0dd\uba85": 4283,
    "\uac70\ub4e0": 4284,
    "\u258130%": 4285,
    "\u2581\ubd80\uc704": 4286,
    "\u2581\uac00\uc838\ub2e4": 4287,
    "\u2581\uc911\ub2e8": 4288,
    "\u2581\uac16\ub2e4": 4289,
    "\u2581\uc8fc\ubb38\ud574": 4290,
    "\u2581\uc54c\uc558\uc2b5\ub2c8\ub2e4": 4291,
    "\u2581\uce6b\uc194": 4292,
    "\u2581\ub05d\uae4c\uc9c0": 4293,
    "\u2581\uc2e4\uc801": 4294,
    "\u2581washing": 4295,
    "\u2581\ub298\uc5b4": 4296,
    "\u2581Here": 4297,
    "\u2581\uc131\ud568": 4298,
    "\u2581\ub0c8": 4299,
    "ml": 4300,
    "\u2581\ub418\uc138\uc694": 4301,
    "\u2581\uc788\uc796\uc544\uc694": 4302,
    "\u2581\uc131\uc778": 4303,
    "\u2581\ubb34\uc5c7\uc774": 4304,
    "\u2581state": 4305,
    "\u2581\uad6c\ub9e4\ud558\uc2dc\uba74": 4306,
    "\u2581\ub204\ub77d": 4307,
    "\u2581\ub458\uc9f8": 4308,
    "\uc810\uc774": 4309,
    "\u2581\uacf5\ud559": 4310,
    "\u2581\uc9c0\ucf1c": 4311,
    "\u2581\ud328": 4312,
    "\u2581\uc790\uc5f0\uc2a4\ub7ec": 4313,
    "\u2581hit": 4314,
    "\u2581\uc0c1\uad00\uc5c6": 4315,
    "\u2581\ubd80\ubd80": 4316,
    "phy": 4317,
    "\u2581\uc815\uc2dd": 4318,
    "\u2581conditions": 4319,
    "\u2581\ub418\uc8e0": 4320,
    "\u2581\uad00\ub828\ud574\uc11c": 4321,
    "\ub4e4\uace0": 4322,
    "na": 4323,
    "\u2581\uc124\uacc4\ub418\uc5c8": 4324,
    "\u2581\ud560\uc778\ud574": 4325,
    "\u2581\uadf8\ub798\uc57c": 4326,
    "\u2581points": 4327,
    "\u2581\uc810\uc218": 4328,
    "\u2581\ud2bc\ud2bc": 4329,
    "\ud558\uc9c0\ub9cc": 4330,
    "\u2581\ub9e4\uc7a5\uc5d0\uc11c": 4331,
    "\u2581\uc2dc\uc791\ud588\uc2b5\ub2c8\ub2e4": 4332,
    "\u2581\ubd84\ub4e4\uc5d0\uac8c": 4333,
    "\u2581\ub418\ub3c4\ub85d": 4334,
    "\u2581\ud588\ub2e4": 4335,
    "\u2581\uc0ac\ubb34\uc2e4\uc5d0": 4336,
    "\u2581\uae54\ub054\ud55c": 4337,
    "\u2581heart": 4338,
    "\u2581\uc791\uac00": 4339,
    "\u2581\uce68": 4340,
    "\u2581\ubb34\uc0c1": 4341,
    "\u2581\uc704\uce58\ud558\uace0": 4342,
    "\u2581\uc6d0\uac00": 4343,
    "\u2581\uc774\ub8e8\uc5b4\uc9c0": 4344,
    "\u2581\ubc1b\uc2b5\ub2c8\ub2e4": 4345,
    "\u2581\uc124\uba85\uc11c": 4346,
    "\uc545": 4347,
    "\u2581\uc788\ub098": 4348,
    "\u2581\uc120\uc815": 4349,
    "\u2581\uc815\ub3c4\uba74": 4350,
    "\u2581\uc88b\ub2e4\uace0": 4351,
    "\u2581\uc77c\ud558\ub294": 4352,
    "\u2581\ud68c\uc758\uc2e4": 4353,
    "ness": 4354,
    "\u2581\ub9c8\uc74c\uc73c\ub85c": 4355,
    "\u2581\ud06c\uae30\ub85c": 4356,
    "\u2581\uc2dc\uc791\ud569\ub2c8\ub2e4": 4357,
    "\u2581\uc2dc\uc791\ud558\uae30": 4358,
    "\u2581\ub290\uaef4": 4359,
    "\u2581\uae30\ub2a5\uc131": 4360,
    "\ub2ec\ub77c\uace0": 4361,
    "\u2581\uac70\uc2e4": 4362,
    "\u2581\ub418\uaca0": 4363,
    "\u2581\uc2f6\uc5b4\uc11c": 4364,
    "\uc900": 4365,
    "\u2581\uc9c0\ubd88\ud560": 4366,
    "\uc6d4\uc5d0": 4367,
    "\u2581\uc544\ub9c8\ub3c4": 4368,
    "\u2581\ud558\ub2c8\uae4c": 4369,
    "\u2581\uc624\uc804\uc5d0": 4370,
    "\ub41c\ub2e4": 4371,
    "\u2581\uad50\ud1b5": 4372,
    "\u2581\uc774\uc720\ub85c": 4373,
    "\u2581\ubab8\uc774": 4374,
    "\u2581\uc608\uc57d\ud560": 4375,
    "\uc774\ub4e0": 4376,
    "\u2581\ub0a8\uc740": 4377,
    "\u2581\ucc3e\uae30": 4378,
    "\u2581\uc0c9\uc0c1\uc73c\ub85c": 4379,
    "\u2581\uc7ac\ubc30": 4380,
    "ch": 4381,
    "\u2581\uae30\uad00": 4382,
    "\u2581\ud560\uae4c\uc694": 4383,
    "\u2581\uc138\ud0c1\uae30": 4384,
    "\u2581\uc808": 4385,
    "\u2581\ub300\uae30": 4386,
    "\u2581\uac74\uc870\uae30": 4387,
    "\ubc1b": 4388,
    "\u2581\ud761\uc218": 4389,
    "\uae30\ub85c": 4390,
    "\u2581\uc138\uacc4\uc801": 4391,
    "\uad6d": 4392,
    "\u2581\ub0b4\uc5d0\uc11c": 4393,
    "\u2581\uc0ac\uc815": 4394,
    "\u2581\uace0\uac1d\uacfc": 4395,
    "\u2581\ud544\uc694\ub85c": 4396,
    "\u2581\uc704\uc0dd\uc801": 4397,
    "\u2581\uc885\uc774": 4398,
    "\u2581access": 4399,
    "\u2581Hu": 4400,
    "\u2581\uc77d\uc5b4": 4401,
    "\u2581\uc608\uc815\uc774": 4402,
    "\u2581\ud574\uc57c\uc9c0": 4403,
    "\u2581\ub2f9\uc0ac\uc5d0\uc11c": 4404,
    "\u2581\ud45c\uc815": 4405,
    "\u2581\ub9d0\uc500\uc774": 4406,
    "\u2581\uc5c6\uae30": 4407,
    "\ub193": 4408,
    "\ud574\uc8fc\uc2e4": 4409,
    "\u2581\uc7ac\uc9c8": 4410,
    "\u2581\uac1c\ubc1c\uc5d0": 4411,
    "\uc5b8": 4412,
    "\ubcd1": 4413,
    "\u2581\uc18c\uc2dd\uc774": 4414,
    "selling": 4415,
    "\u2581\ucc38\uace0\ud558\uc2dc": 4416,
    "\u2581\ub4e4\uc5b4\uac04": 4417,
    "\u2581invite": 4418,
    "\uadfc": 4419,
    "\u2581\ud65c\uc6a9\ud55c": 4420,
    "\u2581\ubc1c\ub77c": 4421,
    "\ubd84\ub4e4": 4422,
    "\u2581\uc774\uba54\uc77c\uc5d0": 4423,
    "\ub4f1\uc774": 4424,
    "\u2581\uc9c0\uc18d\ub418": 4425,
    "\u2581\uc0c9\uc0c1\uc774": 4426,
    "\u2581\ubab0\ub790": 4427,
    "\u2581Be": 4428,
    "\u2581\ucc29": 4429,
    "\u2581\ub5a1": 4430,
    "\u2581\uae34\uc7a5": 4431,
    "\u2581\uc131": 4432,
    "\ud558\ub124": 4433,
    "\uad11": 4434,
    "\u2581\uc798\ud588\uc5b4": 4435,
    "\uccad": 4436,
    "\u2581\ud669": 4437,
    "\ub2e4\ub2c8": 4438,
    "\u2581kg": 4439,
    "day": 4440,
    "\ud76c": 4441,
    "\uc8fc\uc2dc\uace0": 4442,
    "\u2581Un": 4443,
    "\u2581\uac00\ub2a5\ud55c\uc9c0": 4444,
    "Fi": 4445,
    "\u2581\uc5ed": 4446,
    "\u2581\uac00\ub2a5\ud558\uc2e0": 4447,
    "\uae00": 4448,
    "\u2581\ub0b4\uc6a9\uc5d0": 4449,
    "\u2581\ub3d9\ub8cc": 4450,
    "\ud600": 4451,
    "\u2581\ucc0d": 4452,
    "\ucc2c": 4453,
    "\ucc3d": 4454,
    "ese": 4455,
    "\uc5c8\uc8e0": 4456,
    "PS": 4457,
    "\uac74\uac00\uc694": 4458,
    "8": 4459,
    "\u2581\ud3c9": 4460,
    "\u2581\uc120\ud0dd\ud574": 4461,
    "\u2581\ub300\uc751": 4462,
    "\uc6d0\uc774": 4463,
    "\u2581\uadf8\ub7ec\ub124": 4464,
    "\u2581\ubaa9\uc694\uc77c": 4465,
    "\u2581\uc874\uc7ac": 4466,
    "\u2581\ub2e8\uc21c": 4467,
    "\u2581\uc8fc\uc2dc\ub294": 4468,
    "\u2581\uc2f6\uc73c\uc2e0": 4469,
    "\u2581\ud558\uc774": 4470,
    "\uc158": 4471,
    "\uc73c\ub2c8": 4472,
    "\ub2c8\uae50": 4473,
    "\u2581arrive": 4474,
    "\ubc0d": 4475,
    "6": 4476,
    "\u2581\uc57c\uc678": 4477,
    "\u2581choice": 4478,
    "\u2581supplier": 4479,
    "\u2581\uad00\uad11": 4480,
    "\u2581program": 4481,
    "50": 4482,
    "\u2581\uc790\ub9ac\uc5d0": 4483,
    "\u2581condition": 4484,
    "\ub960": 4485,
    "\u2581\uc88b\uac8c": 4486,
    "\u2581driv": 4487,
    "\u2581drink": 4488,
    "\u2581item": 4489,
    "\uc9f8\ub85c": 4490,
    "\u2581\uad1c\ucc2e\uc744": 4491,
    "\u2581\ubc1c\uc0dd\ud558\ub294": 4492,
    "\u2581\uc785\uc7a5\uc5d0\uc11c": 4493,
    "\u2581\ud558\ub358": 4494,
    "\u2581\uba3c": 4495,
    "\u2581\uc0dd\uaca8": 4496,
    "\u2581season": 4497,
    "\u2581\uc608\ubc29": 4498,
    "\u2581prevent": 4499,
    "\u2581\uac10\uc18c": 4500,
    "\u2581\uae30\ub150": 4501,
    "\u2581\uad1c\ucc2e\uc73c": 4502,
    "\u2581\uc775": 4503,
    "\u2581120": 4504,
    "\u2581\uac78\ub9ac": 4505,
    "\u2581complete": 4506,
    "\u2581\uba39\uc5b4\uc57c": 4507,
    "\u2581\ud638": 4508,
    "ility": 4509,
    "\u2581\uc81c\ubc1c": 4510,
    "\u2581\ucd94\ucd9c": 4511,
    "\u2581built": 4512,
    "\u2581minim": 4513,
    "\u2581\uce90\ub9ad\ud130": 4514,
    "\u2581monitor": 4515,
    "\u2581powder": 4516,
    "\u2581respond": 4517,
    "\u2581\ub2ec\uac40": 4518,
    "\u2581\ub77c\uc774\uc120\uc2a4": 4519,
    "\u2581\ub808\uc2dc\ud53c": 4520,
    "\u2581\ubca4\ucc98": 4521,
    "\u2581\ubd99\uc5b4": 4522,
    "\u2581\ube14\ub8e8\ud22c\uc2a4": 4523,
    "\u2581\uc22b\uc790": 4524,
    "\u2581\uc720\uc7ac\uc11d": 4525,
    "\u2581\ud68d\ub4dd": 4526,
    "\u2581fair": 4527,
    "\u2581immediately": 4528,
    "\u2581\ucf8c\uc801": 4529,
    "\u2581motor": 4530,
    "\u2581\ub77c\ub514\uc624": 4531,
    "\u2581\uc2a4\uce94": 4532,
    "\u2581\ud398\uc778\ud2b8": 4533,
    "\u2581\ub514\ud14c\uc77c": 4534,
    "\u2581general": 4535,
    "\u2581facilities": 4536,
    "\u2581refer": 4537,
    "\u2581smell": 4538,
    "\u2581transportation": 4539,
    "\u2581clothes": 4540,
    "\u2581\uc560\ud50c\ub9ac\ucf00\uc774\uc158": 4541,
    "\u2581\uba40\ud2f0": 4542,
    "\u2581\ud654\uc774\ud2b8": 4543,
    "\u2581\ub3d9\uc601\uc0c1": 4544,
    "\u2581local": 4545,
    "\u2581\uc694\uc0c8": 4546,
    "\u2581\uc548\ud0c0\uae5d\uac8c\ub3c4": 4547,
    "\u2581\ud2b8\ub808\uc77c\ub7ec": 4548,
    "\u2581shipping": 4549,
    "\u2581\uc5fc\uc0c9": 4550,
    "\u2581\uadc0\uc5fd": 4551,
    "\u2581\ubc1c\ud6a8": 4552,
    "\u2581\uc2a4\ud504\ub808\uc774": 4553,
    "\u2581Last": 4554,
    "\u2581\uc601\uac10": 4555,
    "\u2581\ud30c\ud2b8\ub108\uc2ed": 4556,
    "\u2581\ube44\ub86f": 4557,
    "\u2581\uc591\uce21": 4558,
    "\u2581\uc678\uad00": 4559,
    "\u2581\uade0\ud615": 4560,
    "\u2581\uc885\ub8cc": 4561,
    "\u2581\uba87\uba87": 4562,
    "\u2581\uacc4\uc2ed\ub2c8\ub2e4": 4563,
    "\u2581\ubd80\ucc44": 4564,
    "\u2581\uc644\ud654": 4565,
    "\u2581\uac00\uc9dc": 4566,
    "\u2581\uc784\ub300\ub8cc": 4567,
    "\uc788\uac8c": 4568,
    "\u2581Right": 4569,
    "\u2581\uc18c\ud3ec": 4570,
    "\u2581\uc788\uc73c\ubbc0\ub85c": 4571,
    "\u2581\uc120\ubc15": 4572,
    "\u2581\uc8fc\ubb38\ud588\uc5c8": 4573,
    "\ud569\uc2dc\ub2e4": 4574,
    "\u2581anytime": 4575,
    "\u2581\uc5b4\ub54c\uc694": 4576,
    "\u2581\uc0c1\ud638": 4577,
    "\u2581\ubcf4\ucda9": 4578,
    "\u2581\uc138\ucc2c\uc774": 4579,
    "\u2581\uc778\uacf5": 4580,
    "\u2581\uacb0\ub860": 4581,
    "\u2581\uc9c0\ud37c": 4582,
    "\u2581past": 4583,
    "\u2581\uc720\uc5f0\uc131": 4584,
    "\u2581\ucc45\uc815": 4585,
    "ital": 4586,
    "\u2581Have": 4587,
    "\u2581feet": 4588,
    "\u2581\uc0ac\ubcf8": 4589,
    "\u2581\ub1cc": 4590,
    "\u2581rich": 4591,
    "\u2581\uc870\uae08\uc529": 4592,
    "\u2581\uc88c\uc11d": 4593,
    "\u2581\uc5b4\uba38\ub2c8": 4594,
    "\u2581raise": 4595,
    "\u2581\uc2b5\uad00": 4596,
    "\u2581\ud1b5\uad00": 4597,
    "\u2581warm": 4598,
    "\u2581\ubc14\ub77c\uba70": 4599,
    "\u2581song": 4600,
    "\u2581Uni": 4601,
    "\u2581\uc918": 4602,
    "\u2581\ubcf4\ub0b4\ub4dc\ub9b0": 4603,
    "\u2581\ub9db\uc9d1": 4604,
    "\uc2a4\ud2b8": 4605,
    "\u2581\ud138": 4606,
    "\u2581\ud558\ub098\uc529": 4607,
    "\u2581cooking": 4608,
    "\u2581\ud658": 4609,
    "\u2581\uacc4\uc57d\uc774": 4610,
    "\u2581itself": 4611,
    "\u2581\ubd80\uc0b0": 4612,
    "\u2581\uac01\uc9c8": 4613,
    "\u2581\ud5c8\uac00": 4614,
    "\u2581red": 4615,
    "\u2581added": 4616,
    "\u2581requested": 4617,
    "\uc774\ub124": 4618,
    "\u2581\ub3c5\uc790": 4619,
    "\u2581\uc54a\ub294\ub2e4\uba74": 4620,
    "\u2581dai": 4621,
    "\u2581\ud22c\uba85": 4622,
    "\u2581\uc501": 4623,
    "\u2581\ud2b8\ub7ed": 4624,
    "\u2581\uc791\ud488": 4625,
    "\u2581\uc6b0\uc720": 4626,
    "\u2581\uc900\ube44\ud558\uaca0\uc2b5\ub2c8\ub2e4": 4627,
    "\u2581\uacfc\uc7a5\ub2d8": 4628,
    "\u2581\ubbfc": 4629,
    "\u2581\uc601\uc5c5\ud300": 4630,
    "\u2581\uc870\uc2dd": 4631,
    "\u258128": 4632,
    "\u2581\ud3b8\uc758\uc131": 4633,
    "\u2581\ud640": 4634,
    "\u2581benefits": 4635,
    "\u2581\ubc29\ud5a5\uc73c\ub85c": 4636,
    "\u2581\uace0\uae09\uc2a4\ub7ec": 4637,
    "\u2581\uce21\uc5d0\uc11c": 4638,
    "\u2581\ucda4": 4639,
    "\u2581\ub2e8\uccb4": 4640,
    "\u2581\uc54c\ub824\ub4dc\ub9ac\uace0": 4641,
    "\u2581\uac00\ubccd\uace0": 4642,
    "\u2581\uc801\uc6a9\ud558\uc5ec": 4643,
    "\u2581\uc544\uc2dc\uc544": 4644,
    "\u2581\uad1c\ucc2e\uc544\uc694": 4645,
    "\u2581\uc608\uc0b0": 4646,
    "\u2581\uac8c\uc2dc": 4647,
    "\u2581\uc5f4\ub9ac\ub294": 4648,
    "\u2581\ud22c\uc5b4": 4649,
    "\u2581\ub355": 4650,
    "\u2581machines": 4651,
    "\u2581functions": 4652,
    "\u2581\ud3b8\ub9ac\ud55c": 4653,
    "\u2581\uc5b4\uc6b8\ub9ac\ub294": 4654,
    "\u2581\ubc1b\uc544\uc57c": 4655,
    "\u2581fan": 4656,
    "\u2581\ub05d\ub0b4": 4657,
    "\u2581\ud0c0\uc785": 4658,
    "\u2581\ucc30": 4659,
    "\u2581\ubc14\ud034": 4660,
    "\u2581\ub2e4\uc218": 4661,
    "\u2581\ub9de\ucd94\uc5b4": 4662,
    "\u2581\uc55e\uc5d0\uc11c": 4663,
    "\u2581\uadf8\ub0a0": 4664,
    "\u2581relat": 4665,
    "\u2581ra": 4666,
    "\u2581\ub9c8\uc2dc\uace0": 4667,
    "\u2581\uc2b5\uae30": 4668,
    "\u2581\ubb50\ub77c\uace0": 4669,
    "c": 4670,
    "\u2581\ubf08": 4671,
    "\u25813%": 4672,
    "\u2581books": 4673,
    "\u2581\uc2a4\ud29c\ub514\uc624": 4674,
    "\u2581\ud39c": 4675,
    "\u2581wash": 4676,
    "\u2581\uc81c\uacf5\ub418\ub294": 4677,
    "\u2581\uc8fc\ub9d0\uc5d0": 4678,
    "\u2581\uc74c\uc2dd\uc810": 4679,
    "\u2581needed": 4680,
    "\ub85c\uc6b0": 4681,
    "\u2581\ud569\uc758": 4682,
    "\u2581\uac1c\ub150": 4683,
    "\u2581\ub178\uace0": 4684,
    "\u2581\ub4e4\ub9ac": 4685,
    "\u2581\ud130\uce58": 4686,
    "\u2581\uc0ac\uc5c5\uc5d0": 4687,
    "\u2581\ubcc0\uacbd\ud558\uace0": 4688,
    "\u2581costs": 4689,
    "\u2581\uc5c6\uac8c": 4690,
    "\u2581\uac80\ud1a0\ud574": 4691,
    "\u2581\uc815\ub9ac\ud574": 4692,
    "\u2581\uc6a9": 4693,
    "\ud574\ubcf4\uc138\uc694": 4694,
    "\u2581\ud558\uc2e0\ub2e4\uba74": 4695,
    "\u2581\ub454": 4696,
    "\u2581\uc9c8\ud658": 4697,
    "\uad8c\uc744": 4698,
    "\u2581\ud65c\uc6a9\ub3c4": 4699,
    "\u258121": 4700,
    "\u2581Du": 4701,
    "\ub4dc\ub9b4\uae4c\uc694": 4702,
    "\u2581\ub9e8": 4703,
    "\u2581\ud314\ub9ac": 4704,
    "\u2581\ub05d\uc5d0": 4705,
    "\u2581\ub9e4\uc7a5\uc5d0": 4706,
    "\ub354\ub77c\uace0": 4707,
    "\u2581\ud658\uacbd\uc5d0\uc11c": 4708,
    "\u2581\uc790\uc6d0": 4709,
    "\u2581file": 4710,
    "\u2581\uc804\uba74": 4711,
    "\u2581\uc218\uce58": 4712,
    "age": 4713,
    "\u2581\uc9c0\uc5ed\uc5d0\uc11c": 4714,
    "\u2581\uadf8\ub807\ub2e4": 4715,
    "\u2581\uac00\uc838\uac00": 4716,
    "\u2581\ucc3d\uace0\uc5d0": 4717,
    "\uc73c\uc154": 4718,
    "ig": 4719,
    "\u2581\ub9d0\uc500\ud558\uc2dc\ub294": 4720,
    "\u2581\ubc1b\uc544\ub4e4": 4721,
    "\u2581\ubd80\ubaa8\ub2d8": 4722,
    "\u2581\ubcd1\uc6d0\uc5d0": 4723,
    "\u2581\uce21\uc815\uae30": 4724,
    "\u2581\uace0\uac1d\ub2d8\ub4e4\uc774": 4725,
    "\u2581\uac70\ub97c": 4726,
    "\u2581\ud655\uc778\ud558\ub294": 4727,
    "\u2581\uc0d8\ud50c\uacfc": 4728,
    "\u2581\ucd94\uc9c4": 4729,
    "\u2581\uc655": 4730,
    "\u2581\uc0c1\uad00": 4731,
    "\u2581\ud37c": 4732,
    "\u2581\ud615\uc2dd": 4733,
    "\u2581compare": 4734,
    "\u2581\ucc3e\uc544\ubcf4": 4735,
    "\u2581\uba39\uc5b4\ubcf4": 4736,
    "\u2581\uc2dc\uacf5": 4737,
    "\ub2d8\uaed8\uc11c": 4738,
    "\u2581\ub3fc\uc9c0": 4739,
    "\u2581\uac70\ub9ac\uc5d0": 4740,
    "\uc804\uc5d0": 4741,
    "de": 4742,
    "\u2581\uacf3\uc5d0\uc11c": 4743,
    "\u2581\uc791\uc5c5\uc774": 4744,
    "\u2581\ud6c4\uae30": 4745,
    "\u2581\uc77c\uc790": 4746,
    "\u2581\uc0dd\uac01\ud55c\ub2e4": 4747,
    "\u2581\uc774\uacf3": 4748,
    "\u2581\uc911\uc694": 4749,
    "\u2581\ub2d8": 4750,
    "\u2581\uc81c\uc870\uc0ac": 4751,
    "\u2581\uac10\uc0c1": 4752,
    "nd": 4753,
    "\u2581\uaebc": 4754,
    "\ub838\uc2b5\ub2c8\ub2e4": 4755,
    "9": 4756,
    "\u2581\uadf8\ucabd": 4757,
    "\u2581\uc808\uac10": 4758,
    "\u2581form": 4759,
    "\u2581\uac83\ubcf4\ub2e4": 4760,
    "\u2581\ud655\uc778\ud574\uc57c": 4761,
    "\u2581\uadf8\ub54c\ub294": 4762,
    "\uae40": 4763,
    "\u2581\ubb50\uc9c0": 4764,
    "\uc220": 4765,
    "\u2581\uac78\ub85c": 4766,
    "\u2581\uc990\uaca8": 4767,
    "\u2581\uc2dc\ub3c4": 4768,
    "\u2581\ubc18\uc751\uc774": 4769,
    "ng": 4770,
    "\u2581\ubbff\uc744": 4771,
    "\u2581\uae30\ubd84\uc774": 4772,
    "\u2581\uc810\uc5d0": 4773,
    "\u2581\ubcf4\uc790": 4774,
    "\u2581\uc81c\uc8fc": 4775,
    "\ubbfc": 4776,
    "ar": 4777,
    "\u2581Re": 4778,
    "\u2581\ud22c\uc790\uc790": 4779,
    "\u2581\ud398\uc774\uc9c0": 4780,
    "\u2581\uc8fc\ubcc0\uc5d0": 4781,
    "\u2581\ud654": 4782,
    "\u2581\uc0ac\uc6a9\ud558\uc2dc": 4783,
    "\u2581\uc77c\ub2e8\uc740": 4784,
    "\ucee4": 4785,
    "\u2581\uac04\ud3b8\ud558": 4786,
    "\u2581\uc6c0\uc9c1": 4787,
    "\u2581\uc5c6\uc73c": 4788,
    "\uc2dc\ub85c": 4789,
    "\u2581\uc548\uc73c\ub85c": 4790,
    "\u2581\ud574\uc8fc\uc138\uc694": 4791,
    "\uc789": 4792,
    "\u2581\ud638\ud154\uc5d0": 4793,
    "\u2581\ub0bc": 4794,
    "\uace8": 4795,
    "\u2581\ucde8\uae09": 4796,
    "\uae30\uc220": 4797,
    "\uc190": 4798,
    "\ubc15\uc2a4": 4799,
    "\u2581\ud558\ub098\ub85c": 4800,
    "\u2581\uc544\ub798\uc5d0": 4801,
    "\u2581\ubcf8\uc778": 4802,
    "\u2581\ud22c\uc785": 4803,
    "\uc7a5\uce58": 4804,
    "\u2581\ubb3c\uc774": 4805,
    "\u2581\ud68c\ubcf5": 4806,
    "\uc624\ub2c8": 4807,
    "\u2581\ub9de\ucd94": 4808,
    "\u2581\ub514\uc790\uc778\uc5d0": 4809,
    "\u2581heat": 4810,
    "\u2581\ud14c": 4811,
    "\uace1": 4812,
    "\ubc88\ud638": 4813,
    "\uc794": 4814,
    "special": 4815,
    "\u2581\ud504\ub85c\uadf8\ub7a8\uc5d0": 4816,
    "\u2581\uc870\uc791": 4817,
    "\u2581\uccb4\ud06c": 4818,
    "\ub7fd\uac8c": 4819,
    "W": 4820,
    "\u2581\uad6c\uc785\ud560": 4821,
    "\u2581\uc5ed\uc0ac": 4822,
    "\ubc14\ub85c": 4823,
    "\u2581super": 4824,
    "\ub2e4\ub978": 4825,
    "nce": 4826,
    "ated": 4827,
    "\ud558\ub124\uc694": 4828,
    "\u2581\uac04\ub2e4": 4829,
    "\u2581\ub17c": 4830,
    "\u2581\uc2ac": 4831,
    "\uae30\ub9cc": 4832,
    "\u2581\ub9e4\ubb3c": 4833,
    "\u2581\uad6c\ub9e4\ud558\uc2e0": 4834,
    "\u2581\uc2a4\ud30c": 4835,
    "\u2581\ud569": 4836,
    "\u2581\ub3d9\uc791": 4837,
    "\u258122": 4838,
    "\u2581invoice": 4839,
    "\u2581transaction": 4840,
    "\u2581bank": 4841,
    "\u2581\uc9c0\ub09c\uc8fc": 4842,
    "\u2581\uc774\uc0c1\uc801": 4843,
    "\u2581final": 4844,
    "\ub838": 4845,
    "\ub410\uc2b5\ub2c8\ub2e4": 4846,
    "\ub354\ub77c\ub3c4": 4847,
    "be": 4848,
    "\u2581\uc904\uc5ec": 4849,
    "\uc774\ub124\uc694": 4850,
    "\u2581focus": 4851,
    "\ub86d\uac8c": 4852,
    "\u2581\ubaa8\ub974\ub294": 4853,
    "\u2581\ud658\uc601": 4854,
    "\u2581build": 4855,
    "\u258135": 4856,
    "\u2581\ub098\ud0c0": 4857,
    "\u2581press": 4858,
    "\u2581\uc774\ub825": 4859,
    "\u2581\uc77c\uc5d0": 4860,
    "\u2581suggest": 4861,
    "\u2581\uc9c0\ud558\ucca0": 4862,
    "\u2581deposit": 4863,
    "\u2581expect": 4864,
    "\u2581\ud68c\uc6d0": 4865,
    "\u2581\uc6c3": 4866,
    "\u2581purpose": 4867,
    "\u2581\uad50": 4868,
    "ance": 4869,
    "\uace4": 4870,
    "\u2581glass": 4871,
    "\u2581\ucee8\ud2b8\ub864": 4872,
    "\u2581\uc788\uc73c\ub2c8\uae4c": 4873,
    "\u2581multi": 4874,
    "\u2581catalog": 4875,
    "\u2581Two": 4876,
    "\u2581afternoon": 4877,
    "\u2581guarantee": 4878,
    "\u2581increasing": 4879,
    "\u2581major": 4880,
    "\u2581manufacturing": 4881,
    "\u2581participate": 4882,
    "\u2581period": 4883,
    "\u2581position": 4884,
    "\u2581positive": 4885,
    "\u2581spoon": 4886,
    "\u2581wow": 4887,
    "\u2581\ub113\uc5b4": 4888,
    "\u2581\ubb54\uc9c0": 4889,
    "\u2581\ube0c\ub7ec\uc26c": 4890,
    "\u2581\uc591\uc138\ucc2c": 4891,
    "\u2581\uc67c\ucabd": 4892,
    "\u2581\uc800\uc791\uad8c": 4893,
    "\u2581\ud0dc\ube14\ub9bf": 4894,
    "\u2581\ud53c\uaddc\uc5b4": 4895,
    "\u2581\ud53c\uc544\ub178": 4896,
    "\uaf49": 4897,
    "\u2581difference": 4898,
    "\u2581financial": 4899,
    "\u2581\uac00\uc131\ube44": 4900,
    "\u2581\uc544\ubb34\uac83\ub3c4": 4901,
    "\u2581\uc6a9\uc811": 4902,
    "\u2581\uace0\uc591\uc774": 4903,
    "\u2581\ubc8c\uce59": 4904,
    "\u2581\uc5bc\ub8e9": 4905,
    "\u2581steam": 4906,
    "\u2581\uc2f1\uae00": 4907,
    "\u2581nervous": 4908,
    "\u2581Would": 4909,
    "\u2581\uc6d0\uc790\uc7ac": 4910,
    "\u2581Who": 4911,
    "\u2581\ub9e4\ud2b8\ub9ac\uc2a4": 4912,
    "\u2581single": 4913,
    "\u2581dome": 4914,
    "\u2581\ub808\uc774\uc800": 4915,
    "\u2581\uc808\uc57d": 4916,
    "\u2581\uc2ac\ub9bc": 4917,
    "\u2581trade": 4918,
    "\u2581range": 4919,
    "\u2581\ud1a0\uc694\uc77c": 4920,
    "\u2581texture": 4921,
    "\u2581\ub9db\uc788\uaca0\ub2e4": 4922,
    "\u2581credit": 4923,
    "\u2581\uc5b4\ubb35": 4924,
    "\u2581\ube68\uac04\uc0c9": 4925,
    "\u2581\uc6b4\ubc18": 4926,
    "\u2581\ub9e8\ub0a0": 4927,
    "\u2581\uacbd\ub7c9": 4928,
    "\u2581terms": 4929,
    "\u2581cut": 4930,
    "\u2581\uc9c1\ubb3c": 4931,
    "\u2581\ud544\uc694\ud558\uc2dc\ub2e4\uba74": 4932,
    "\u2581true": 4933,
    "\u2581\uba40\ub9ac": 4934,
    "\u2581\uc7ac\ubb34": 4935,
    "\u2581metal": 4936,
    "\u2581actually": 4937,
    "\u2581\uc18c\ub7c9": 4938,
    "\u2581baby": 4939,
    "\u2581\uc0ac\ub840": 4940,
    "\u2581\uad8c\uc7a5": 4941,
    "\u2581\uacc4\ub780": 4942,
    "\u2581\ud0dd\uc2dc": 4943,
    "\u2581early": 4944,
    "\u2581States": 4945,
    "\u2581\ubbf8\ucce4\ub2e4": 4946,
    "\u258160%": 4947,
    "\u2581traditional": 4948,
    "\u2581\ub300\uc548": 4949,
    "\u2581\uac00\uc804\uc81c\ud488": 4950,
    "\u2581\ub204\uad70\uac00": 4951,
    "\u2581worn": 4952,
    "\u2581\uc608\uc815\uc778\uac00\uc694": 4953,
    "\u2581\uc6a9\uc5b4": 4954,
    "\u2581\uc751\uc6d0": 4955,
    "\u2581break": 4956,
    "\u2581\ub9cc\uc871\uc2a4\ub7ec": 4957,
    "\u2581ready": 4958,
    "\u2581\uac00\ub2a5\ud558\ub2c8": 4959,
    "\u2581\uc6d0\ub450": 4960,
    "\u2581dry": 4961,
    "\u2581\uc6d0\ud558\uc2dc\ub098\uc694": 4962,
    "\u2581\ub9c8\ub828\ub418\uc5b4": 4963,
    "\u2581$": 4964,
    "\u2581manufacture": 4965,
    "\u2581\uc601\uc9c0": 4966,
    "\u2581\uacf5\uc5f0": 4967,
    "\u2581\ud55c\uc625": 4968,
    "\u2581\uc640\uc774\ud504": 4969,
    "\u2581\uc778\ud504\ub77c": 4970,
    "\u2581\uc950": 4971,
    "\u2581\uc154\uce20": 4972,
    "\u2581demand": 4973,
    "\u2581\ud578\ub4dc\ud3f0": 4974,
    "\u2581safely": 4975,
    "\u2581\ud1f4\uadfc": 4976,
    "\u2581connection": 4977,
    "\u2581\uce35": 4978,
    "\u2581\uc640\uc6b0": 4979,
    "\u2581\uac74\ucd95": 4980,
    "\u2581\uc120\uc0ac\ud569\ub2c8\ub2e4": 4981,
    "\u2581consumers": 4982,
    "\u2581role": 4983,
    "\u2581\uc0ac\uc7a5\ub2d8\uaed8\uc11c": 4984,
    "\u2581\ud0c0\uc784": 4985,
    "\u2581\uc5d0\uc5b4": 4986,
    "\u2581By": 4987,
    "\u2581\uc54a\uc9c0\ub9cc": 4988,
    "\u2581\uc7ac\uc0b0": 4989,
    "\u2581AS": 4990,
    "\u2581meal": 4991,
    "\u2581\ub9e5\uc8fc": 4992,
    "\u2581\ub3d9\ud604\uc774": 4993,
    "\u2581weather": 4994,
    "\u2581\uc774\uaca8": 4995,
    "\u2581documents": 4996,
    "\u2581\uc798\ud574": 4997,
    "\u2581\uacf5\uc6a9": 4998,
    "\u2581\uc2dd\uae30": 4999,
    "\u2581\ub300\ub9ac\uc810": 5000,
    "\u2581\ub4dc\uc2dc\uace0": 5001,
    "\u2581view": 5002,
    "\u258190": 5003,
    "\u2581\uc5c6\uc9c0\ub9cc": 5004,
    "\u2581signed": 5005,
    "\u2581\ucc98\uc74c\ubd80\ud130": 5006,
    "\u2581\ub9c8\ucc2c\uac00\uc9c0\ub85c": 5007,
    "\u2581Ha": 5008,
    "\u2581\ubca0\uac1c": 5009,
    "\u2581\uac10\uc131": 5010,
    "\u258140%": 5011,
    "\u2581\uc6b4\ub3d9\ud654": 5012,
    "\u2581\ube45": 5013,
    "\u2581half": 5014,
    "\u2581stop": 5015,
    "\u2581\ud50c\ub7ec\uadf8": 5016,
    "\u2581\uc2e0\ubb38": 5017,
    "\u2581\uc751\ub2f5": 5018,
    "\u2581\uc790\uc2e0\uac10": 5019,
    "\u2581\ub300\uccb4": 5020,
    "\ud788\ub824": 5021,
    "\u2581\uac00\uc218": 5022,
    "\u2581met": 5023,
    "\u2581\uc911\uc694\uc131": 5024,
    "\u2581\uc721\uc218": 5025,
    "\u2581\uc7a5\uc0ac": 5026,
    "\u2581\ub204\uad6c\uc57c": 5027,
    "\u2581\uc758\uc2ec": 5028,
    "\u2581\ub05d\ub0ac\uc5b4": 5029,
    "\u2581\uc5f0\ub77d\ub4dc\ub838": 5030,
    "sical": 5031,
    "\u2581\uc801\ub2f9\ud55c": 5032,
    "\u2581\uac70\uc796\uc544\uc694": 5033,
    "\u2581\ub9c8\uc774\ud06c\ub85c": 5034,
    "\u2581\uc5fc": 5035,
    "\u2581\ub3c5": 5036,
    "\u2581\ub118\uc5b4\uac00": 5037,
    "\u2581\uc624\uba74": 5038,
    "\u2581shape": 5039,
    "\u2581\uc7a5\uc810\uc774": 5040,
    "\u2581\uac00\ub2a5\ud558\uc5ec": 5041,
    "\u2581\uc548\ud0c0\uae5d": 5042,
    "\u2581\ubc14\ub77c\ubcf4": 5043,
    "\u258127": 5044,
    "\ub208\uc774": 5045,
    "\u2581\uc0dd\uaca8\uc11c": 5046,
    "\u2581\uc5c6\ub2e4\uba74": 5047,
    "\u2581\ud615\ud0dc\ub85c": 5048,
    "\u2581\ubd80\ubb38": 5049,
    "\u2581\uc218\ub9bd": 5050,
    "\u2581\uc800\ub791": 5051,
    "\u2581\ubc95\uc778": 5052,
    "\u2581\ubd80\ud0c1\ub4dc\ub9ac": 5053,
    "\u2581provided": 5054,
    "\u2581\uc88b\uaca0": 5055,
    "\u2581\ud655\uc2e4\ud55c": 5056,
    "\u2581\uc5c5\uccb4\ub4e4": 5057,
    "\u2581\ub4dc\uc2dc\ub294": 5058,
    "\u2581class": 5059,
    "\u2581\ub9ac\uc2a4\ud2b8\ub97c": 5060,
    "\u2581\ud65c\uc131": 5061,
    "\u2581\uac01\uc790": 5062,
    "\u2581\uc2dd\uac10": 5063,
    "\u2581\ub098\uac00\ub294": 5064,
    "\u2581\ucb49": 5065,
    "\u2581\ub8f8": 5066,
    "\u2581\ub0a8\uae30": 5067,
    "ife": 5068,
    "\u2581\ub300\ub9ac": 5069,
    "\u2581\uacf5\uc7a5\uc5d0\uc11c": 5070,
    "\u2581\ud3c9\uc18c\uc5d0": 5071,
    "\u2581\uc774\ud6c4\ub85c": 5072,
    "\u2581music": 5073,
    "\u2581\ud14c\ub2c8": 5074,
    "\u2581\uc544\uce68\uc785\ub2c8\ub2e4": 5075,
    "\u2581pressure": 5076,
    "\u2581\uc131\ubd84\uc73c\ub85c": 5077,
    "\u2581\uc774\ud574\ud558\uace0": 5078,
    "\u2581estimate": 5079,
    "\u2581\ucde8\uc18c\ud558\uace0": 5080,
    "\u2581\ub290": 5081,
    "\u2581\uad6d\ubb3c\uc774": 5082,
    "\u2581\uc5c5\uacc4\uc5d0\uc11c": 5083,
    "\u2581\ub9e4\ubb3c\uc774": 5084,
    "\ud588\uc73c\uba70": 5085,
    "\u2581\uc6b4\uc601\ud558": 5086,
    "\u2581gra": 5087,
    "\u2581\ub418\ub2c8\uae4c": 5088,
    "\u2581\ub9ce\uc544\uc11c": 5089,
    "\u2581\uc140": 5090,
    "\u2581\uc548\uc2ec": 5091,
    "\u2581\ucc28\uc9c8": 5092,
    "\u2581systems": 5093,
    "\u2581\ub192\uc5ec": 5094,
    "\u2581\uc548\uc804\ud558\uace0": 5095,
    "\ub4dc\ub9ac\uba70": 5096,
    "\u2581\ubab0": 5097,
    "\u2581\uc810\uac80": 5098,
    "\u2581changes": 5099,
    "\u2581\uadf8\ub7ec\uace0": 5100,
    "\u2581\uc73c": 5101,
    "\u2581\uc8fc\uc2dc\uaca0\uc5b4\uc694": 5102,
    "\u2581gas": 5103,
    "\u2581\ub9dd": 5104,
    "\u2581\ub180\uc774": 5105,
    "\u2581\uc7ac\ub8cc\ub85c": 5106,
    "\u2581\ucc38\uc11d\ud574": 5107,
    "\u2581\uac78\ub9ac\uc9c0": 5108,
    "\u2581\ud588\uace0": 5109,
    "\u2581\uc548\uc5d0\uc11c": 5110,
    "\u2581\ucc3e\uc544\uc57c": 5111,
    "\u2581\uc870\uae08\ub9cc": 5112,
    "\u2581\ub2e4\ub8e8": 5113,
    "\u2581\ub300\ub2e8\ud55c": 5114,
    "\u2581\uc88b\uc544\uc11c": 5115,
    "\u2581\uc54c\uc9c0": 5116,
    "sure": 5117,
    "\u2581\uc5f4\uace0": 5118,
    "\u2581integrat": 5119,
    "\u2581\uadf8\ub987": 5120,
    "\u2581\ubc1b\uae30": 5121,
    "\u2581\uadfc": 5122,
    "\ubc29\ud5a5": 5123,
    "\uc2a4\ud130": 5124,
    "\u2581\ube48": 5125,
    "\u2581\uc99d\uba85": 5126,
    "\u2581\ub300\uc811": 5127,
    "\ub418\uc5c8": 5128,
    "\u2581\uc120\uc0dd\ub2d8\uc774": 5129,
    "E": 5130,
    "\u2581\ubcf4\uc720": 5131,
    "\u2581\ub4dc\uc154": 5132,
    "\u2581\uac10\uc0ac\ud558\uace0": 5133,
    "\u2581\ud574\uc8fc\ub294": 5134,
    "lid": 5135,
    "\u2581\uc7ac\uc815\uc801": 5136,
    "\uac83\uc774": 5137,
    "\u2581height": 5138,
    "\ubc88\uc5d0": 5139,
    "\u2581\uae30\uc5c5\uc73c\ub85c": 5140,
    "\u2581\ubd88\ub7c9": 5141,
    "\u2581\uc8fd": 5142,
    "\u2581\uc608\uc57d\ud574": 5143,
    "\u2581\ub110": 5144,
    "\u2581\uc804\ubc18": 5145,
    "\u2581\uc811\uc18d": 5146,
    "\u2581\uc18c\ube44\uc790\ub4e4": 5147,
    "\uaca0\uc9c0\ub9cc": 5148,
    "\u2581\uc2dc\uc2a4\ud15c\uc5d0": 5149,
    "\u2581leas": 5150,
    "\u2581\ucde8\ud5a5": 5151,
    "\u2581\uc81c\uac70\ud574": 5152,
    "\u2581\ub098\uba74": 5153,
    "\u2581\uc120\ud0dd\uc744": 5154,
    "\u2581\ub4dc\ub9ac\uba74": 5155,
    "\uc8fc\ub294": 5156,
    "\u2581\uc528\ub294": 5157,
    "\u2581\uc2dc\uccad\uc790": 5158,
    "\u2581\ub54c\ubb38": 5159,
    "\u2581\uc8fc\ubaa9": 5160,
    "\u2581\uc704\uce58\uc5d0": 5161,
    "\u2581\uace8\ub77c": 5162,
    "\u2581\uc11c\ube44\uc2a4\ub85c": 5163,
    "\uc6e0\uc2b5\ub2c8\ub2e4": 5164,
    "\u2581\uc120\ubcf4": 5165,
    "\u2581\uc218\uc18c": 5166,
    "\u2581\uc740\uc740": 5167,
    "\u2581\uadf8\uc5d0\uac8c": 5168,
    "\u2581\ub9db\ub3c4": 5169,
    "\u2581\uc694": 5170,
    "\u2581\uc548\uc2ec\ud558": 5171,
    "\u2581\uc804\ubb38\uac00\ub4e4": 5172,
    "\u2581\uae30\ub2a5\uc73c\ub85c": 5173,
    "\u2581prices": 5174,
    "\u2581rate": 5175,
    "\u2581\ub098\uc624\uba74": 5176,
    "\u2581\uc18c\uac1c\uc2dc\ucf1c": 5177,
    "\u2581\uc624\ub9ac": 5178,
    "\u2581\ud0c8": 5179,
    "\uc5b4\uc11c": 5180,
    "some": 5181,
    "\u2581\ubd10\ub3c4": 5182,
    "went": 5183,
    "\u2581\uc5f4\uc5b4": 5184,
    "\ubd84\ub4e4\ud55c\ud14c": 5185,
    "\u2581\uc900\ub2e4": 5186,
    "\u258180": 5187,
    "\ubcf4\uc2dc\ub294": 5188,
    "\u2581\uc548\uc815\uc801": 5189,
    "\u2581\uc5f0\ub77d\ub4dc\ub9ac": 5190,
    "\u2581\ube60": 5191,
    "\u2581\uc624\ube60\uac00": 5192,
    "\u2581\uc4f0\uc774": 5193,
    "\u2581\uc0dd\uac01\uc785\ub2c8\ub2e4": 5194,
    "\u2581\uba64\ubc84": 5195,
    "\u2581\uae09\ud558": 5196,
    "\u2581\ucc45\uc774": 5197,
    "\u2581port": 5198,
    "\u2581\uc815\ud574": 5199,
    "\u2581\uc815\uc758": 5200,
    "\u2581\uae68\ub057\ud558": 5201,
    "\u2581fe": 5202,
    "\u2581\ud558\uc2dc\uace0": 5203,
    "\u2581\uc544\ub2c8\uc9c0": 5204,
    "\uce58\ub294": 5205,
    "\u2581\uc804\uc790\ub808\uc778\uc9c0\uc5d0": 5206,
    "\u2581\ub2e4\uac00": 5207,
    "\u2581\uc791\uac00\ub2d8": 5208,
    "\u2581\uc7ac\uc815": 5209,
    "\u2581\uc774\ub9ac": 5210,
    "\u2581\uc9c0\uc5f0\uc774": 5211,
    "\u2581\ub9e4\ub825\uc801": 5212,
    "\u2581\uc5c5\ubb34\uc5d0": 5213,
    "\ud300\uc740": 5214,
    "\u2581\uace0\ubbfc\uc774": 5215,
    "\u2581\uc548\ucabd": 5216,
    "\u2581\ud558\ub8e8\uc5d0": 5217,
    "\u2581\uc784": 5218,
    "\uae38\ub798": 5219,
    "\ub4dc\ub9ac\uace0": 5220,
    "\u2581\ud615\uc740": 5221,
    "\u2581\uc9c8\ubb38\uc744": 5222,
    "\u2581\uad6c\ub9e4\ud558\uae30": 5223,
    "\uc9d0": 5224,
    "\u2581\uc804\ud654\uae30": 5225,
    "\u2581\ub0a8\uaca8": 5226,
    "\u2581\ubcf4\uc2dc": 5227,
    "\u2581\uacb0\ud63c\uc2dd": 5228,
    "\u2581\ucda9\uc871\ud558": 5229,
    "\u2581\ubc29\uc774": 5230,
    "\u2581\ub728\uac70": 5231,
    "\ub9bf": 5232,
    "\uc0c1\uc758": 5233,
    "\u2581199": 5234,
    "\uc815\ub3c4": 5235,
    "\u2581hel": 5236,
    "\ud50c": 5237,
    "\u2581\ub418\uc796\uc544": 5238,
    "\u2581i": 5239,
    "\u2581\ud655\uc815": 5240,
    "v": 5241,
    "\u2581\uc804\uc2dc\ud68c": 5242,
    "ten": 5243,
    "\u2581\uac00\ub4dd": 5244,
    "\u2581\ub2f4\ub2f9\ud558": 5245,
    "\u2581mail": 5246,
    "\u2581\uad6c\ub9e4\ud558": 5247,
    "\ud790": 5248,
    "\ube59": 5249,
    "\uad70": 5250,
    "\uc2f1": 5251,
    "\uc124": 5252,
    "\uc791": 5253,
    "friendly": 5254,
    "\uad50": 5255,
    "\u2581\uc778\uccb4": 5256,
    "\u2581\ud398": 5257,
    "\u2581\uc785\uc744": 5258,
    "\uac12": 5259,
    "\uc138\ud3ec": 5260,
    "\ub9e8": 5261,
    "\u2581\uacc4\uc815": 5262,
    "\u2581\ud50c\ub808\uc774": 5263,
    "\u2581400": 5264,
    "coming": 5265,
    "\u2581\uc8fc\uc2a4": 5266,
    "\u2581ones": 5267,
    "\u2581\ud1a4": 5268,
    "\uc774\uc9c0": 5269,
    "up": 5270,
    "\ud568\uc774": 5271,
    "\u2581\ub3c4\uc11c": 5272,
    "\u2581\ud544\uc694\ud558": 5273,
    "\u2581o": 5274,
    "\u2581\ub9c8\uc774": 5275,
    "\ubbf8\ud130": 5276,
    "\u2581\uc774\ub984\uc774": 5277,
    "\u2581\uc608\uc220": 5278,
    "\u2581\uc5f0\ub9d0": 5279,
    "\u2581\uc9c0\uc6d0\ud558\ub294": 5280,
    "\ud558\uc2ed\ub2c8\ub2e4": 5281,
    "5%": 5282,
    "\uce58\ub97c": 5283,
    "\u2581\uc870\uac74\uc774": 5284,
    "\u2581filter": 5285,
    "\uc728": 5286,
    "\u2581\ub178\ucd9c": 5287,
    "\u2581\uc218\ud655": 5288,
    "plastic": 5289,
    "\u2581hospital": 5290,
    "\u2581lose": 5291,
    "\u2581250": 5292,
    "\u2581solution": 5293,
    "\u2581warehouse": 5294,
    "\u2581operation": 5295,
    "\u2581co": 5296,
    "\u2581\ube44\ud589": 5297,
    "\u2581\uc8fc\ub984": 5298,
    "\u2581button": 5299,
    "\u2581robot": 5300,
    "\u2581partner": 5301,
    "\u2581\ud504\ub85c\uadf8\ub7a8\uc774": 5302,
    "relate": 5303,
    "\u2581benefit": 5304,
    "\u2581unit": 5305,
    "\u2581\uc791\ub144": 5306,
    "\u2581\uc228": 5307,
    "\ub840": 5308,
    "\u2581\ub3c4\uc640\ub4dc\ub9b4": 5309,
    "\u2581di": 5310,
    "\u2581screen": 5311,
    "\u2581\ubb50\ub0d0": 5312,
    "\u2581purchas": 5313,
    "\u2581cook": 5314,
    "\ucce4": 5315,
    "\u2581Some": 5316,
    "\u2581\ube68\ub77c": 5317,
    "\u2581\uc815\ube44": 5318,
    "\u2581\uc88b\ub124": 5319,
    "\u2581\uc5b4\ub5a8\uae4c": 5320,
    "\u2581apply": 5321,
    "\u2581\ubfcc\ub9ac": 5322,
    "\u2581fact": 5323,
    "\u2581\ucc3d\ub9bd": 5324,
    "\u2581\uc2e0\uacbd\uc368": 5325,
    "\u2581cancel": 5326,
    "\u2581manual": 5327,
    "\u2581bar": 5328,
    "\u2581late": 5329,
    "\u2581\uac74\uc9c0": 5330,
    "\u2581\uc81c\uc678": 5331,
    "\u2581tax": 5332,
    "\u2581branch": 5333,
    "\ub78d\ub2c8\ub2e4": 5334,
    "\u2581guess": 5335,
    "\u2581COVID": 5336,
    "\u2581English": 5337,
    "\u2581Friday": 5338,
    "\u2581Philippines": 5339,
    "\u2581beautiful": 5340,
    "\u2581clients": 5341,
    "\u2581confidence": 5342,
    "\u2581easier": 5343,
    "\u2581either": 5344,
    "\u2581essential": 5345,
    "\u2581expenses": 5346,
    "\u2581honor": 5347,
    "\u2581husband": 5348,
    "\u2581maintenance": 5349,
    "\u2581message": 5350,
    "\u2581opinion": 5351,
    "\u2581representative": 5352,
    "\u2581\uac00\uae5d": 5353,
    "\u2581\ub4e3\ub294": 5354,
    "\u2581\ubcf6\uc544": 5355,
    "\u2581\uc1a1\uc9c0\ud6a8": 5356,
    "\u2581\uc313\uc544": 5357,
    "\u2581\uc5ec\ucb59\uace0": 5358,
    "\u2581\uc785\uc18c\ubb38": 5359,
    "\u2581\uc787\ubab8": 5360,
    "\u2581\ucd5c\ucca8\ub2e8": 5361,
    "\u2581\uce74\ub2ec\ub85c\uadf8": 5362,
    "\u2581\ucee4\ubba4\ub2c8\ud2f0": 5363,
    "\u2581\uceec\ub809\uc158": 5364,
    "\u2581\ud14c\uc774\ud504": 5365,
    "\u2581\ud1a0\ub9c8\ud1a0": 5366,
    "\u2581\ud2b9\ud654": 5367,
    "\u2581\ud578\ub4e4": 5368,
    "\u2581individual": 5369,
    "\u2581launch": 5370,
    "\u2581detect": 5371,
    "\u2581located": 5372,
    "\u2581paper": 5373,
    "\u2581voice": 5374,
    "\u2581cheap": 5375,
    "\u2581warranty": 5376,
    "\u25812022": 5377,
    "\u2581moisture": 5378,
    "\u2581communication": 5379,
    "\u2581\uac11\uc791\uc2a4": 5380,
    "\u2581\uc560\ub2c8\uba54\uc774\uc158": 5381,
    "\u2581deadline": 5382,
    "\u2581\ub9e4\ub274\uc5bc": 5383,
    "\u2581\ube14\ub85c\uadf8": 5384,
    "\u2581\uc2a4\ud504\ub9c1": 5385,
    "\u2581Seoul": 5386,
    "\u2581boss": 5387,
    "\u2581\uac80\uc99d": 5388,
    "\u2581spray": 5389,
    "\u2581\uc54c\ub9de": 5390,
    "\u2581durability": 5391,
    "\u2581\ub3c5\ub9bd": 5392,
    "\u2581\ud78c\ud2b8": 5393,
    "\u2581\uc9c1\uad00\uc801": 5394,
    "\u258145": 5395,
    "\u2581beef": 5396,
    "\u2581chat": 5397,
    "\u2581sauce": 5398,
    "\u2581copy": 5399,
    "\u2581\ubb34\uac70\uc6b4": 5400,
    "\u2581\uccad\uacb0": 5401,
    "\u2581\uae09\uaca9": 5402,
    "\u2581green": 5403,
    "\u2581\uc18c\ub3c5": 5404,
    "\u2581\uc2e4\ud604": 5405,
    "\u2581\uadc0\uc5ec\uc6cc": 5406,
    "\u2581\ub2e8\ub3c5": 5407,
    "\u2581\ud761\uc5f0": 5408,
    "\u2581eco": 5409,
    "\u2581\uae08\ubc29": 5410,
    "\u2581\uc815\ubc00": 5411,
    "\u2581\uce58\uc57d": 5412,
    "\u2581\ub0ae\ucd94": 5413,
    "\u2581\uae09\uc18d": 5414,
    "\u2581\ub85c\uc158": 5415,
    "\u2581\ud328\uc2a4": 5416,
    "\u2581\ubc18\uc8fd": 5417,
    "\u2581\ud3c9\ud310": 5418,
    "\u2581shipped": 5419,
    "\u2581\ub2c8\ud2b8": 5420,
    "\u2581\uc5f0\uc18d": 5421,
    "\u2581\uc808\ubc18": 5422,
    "\u2581\uc5b4\ub290\uc815\ub3c4": 5423,
    "\u2581fall": 5424,
    "\u2581\ucd08\ubcf4\uc790": 5425,
    "\u2581investment": 5426,
    "\u2581\uc794\ub514": 5427,
    "\u2581\ud68c\uc218": 5428,
    "\u2581\ub2e4\ud589\uc774\ub124\uc694": 5429,
    "\u2581\ub3c4\ub2ec": 5430,
    "\u2581\ud1b5\uc99d": 5431,
    "\u2581\ucde8\ubbf8": 5432,
    "\u2581\ud654\uc7ac": 5433,
    "\u2581BB": 5434,
    "\ub798\uc694": 5435,
    "\u2581\uc18c\ud30c": 5436,
    "\u2581busy": 5437,
    "\u2581inquiry": 5438,
    "\u2581\uc591\ub9d0": 5439,
    "\u2581aware": 5440,
    "\u2581\ucd08\ub300\uc7a5": 5441,
    "\u2581\uaebc\ub0b4": 5442,
    "\u2581\ubc31\uc5c5": 5443,
    "\u2581\uc790\uaca9": 5444,
    "\u2581\uc694\uccad\ub4dc\ub9ac\uace0": 5445,
    "\u2581\uc640\uc774\ub4dc": 5446,
    "\u2581\uc790\uc728": 5447,
    "\u2581\ubc30\ub824": 5448,
    "\u2581generate": 5449,
    "\u2581\uc5bc\uc74c": 5450,
    "\u2581plate": 5451,
    "\u2581\ucc44\uad8c": 5452,
    "\u2581bad": 5453,
    "\u2581\uc9c0\uac11": 5454,
    "\u2581\ubcc0\ud615": 5455,
    "\u2581\ubb3c\ub860\uc774\uc8e0": 5456,
    "\u2581\uacc4\uc138\uc694": 5457,
    "\u2581lead": 5458,
    "\u2581\uc774\uc288": 5459,
    "\u2581\uc785\uc99d": 5460,
    "\u2581engineering": 5461,
    "\u2581\uac8c\uc2a4\ud2b8": 5462,
    "\u2581happened": 5463,
    "\u2581\uc785\uae08\ud574": 5464,
    "\u2581\uc870\uc2ec\ud574": 5465,
    "\u2581\uc544\uc2dc\uaca0\uc9c0\ub9cc": 5466,
    "\u2581\ub0b4\uc7a5\ub418\uc5b4": 5467,
    "\u2581\uac10\uc0ac\ud574\uc694": 5468,
    "\u2581required": 5469,
    "\u2581\uc788\uc5c8\ub294\ub370": 5470,
    "\u2581yourself": 5471,
    "\u2581\ub098\ud0c0\ub0ac": 5472,
    "\u2581present": 5473,
    "\u2581\ud655\ub960": 5474,
    "\u2581\uac00\uaca9\ud45c": 5475,
    "\u2581search": 5476,
    "\u2581\uacf0\ud321\uc774": 5477,
    "\u2581\uc54c\ucf54\uc62c": 5478,
    "\u2581\uc5b4\ub311\ud130": 5479,
    "\u2581avoid": 5480,
    "\u2581step": 5481,
    "\u2581accept": 5482,
    "\u2581style": 5483,
    "\u2581\ub300\uaddc\ubaa8": 5484,
    "\u2581\ub9ac\ubdf0": 5485,
    "\u2581\ubc1c\ud589": 5486,
    "\u2581\uc601\uc5c5\uc0ac\uc6d0": 5487,
    "\u2581\ud3ec\ucf13": 5488,
    "\u2581\uc6c0\uc9c1\uc784": 5489,
    "\u2581\uc554\ud638\ud654": 5490,
    "\u2581development": 5491,
    "\u2581\uc5f4\uc815": 5492,
    "\u258123": 5493,
    "\u2581\ub2e4\ub140": 5494,
    "\u2581\ub0b4\ubd80\uc801\uc73c\ub85c": 5495,
    "\u2581\ub3d9\uc77c": 5496,
    "\u2581\uc6d0\uaca9": 5497,
    "\u2581\ud50c\ub808\uc774\uc5b4": 5498,
    "\u2581\uc81c\ud734": 5499,
    "\u2581wind": 5500,
    "\u2581\uc720\uc120": 5501,
    "\u2581\ud544\uc694\ud574\uc694": 5502,
    "\u2581\uc788\uc5c8\uc5b4\uc694": 5503,
    "\u2581\ub9de\uc8e0": 5504,
    "\u2581Le": 5505,
    "\u2581\uc124\ub9bd\ub41c": 5506,
    "\u2581\ub18d\uc5c5": 5507,
    "\u2581beans": 5508,
    "\u2581\ub298\uc5b4\ub098": 5509,
    "\u2581\uc5b5\uc81c": 5510,
    "\uaca0\ub2e4": 5511,
    "\u2581\ucde8\uc18c\ud574\uc57c": 5512,
    "\u2581\uc721": 5513,
    "\u2581\ud5a5\uc0c1\uc2dc\ud0a4": 5514,
    "\u2581dogs": 5515,
    "\u2581\uc138\ud305": 5516,
    "\u2581\uc2a4\ud1a0\ub9ac\uc9c0": 5517,
    "\u2581\ubb34\ub4dc": 5518,
    "\u2581\uc788\uac70\ub4e0\uc694": 5519,
    "\u2581\ub9d0\uc500\ub4dc\ub9ac\uace0": 5520,
    "\u2581\uc5c6\ub124\uc694": 5521,
    "\u2581\uc624\ub298\ub0a0": 5522,
    "\u2581\uac00\uc804": 5523,
    "\u2581\ucd95": 5524,
    "\u2581\ubd80\uc2a4": 5525,
    "\u2581\ubcf4\ub0b4\uc8fc\uc2e4": 5526,
    "\u2581produced": 5527,
    "\uce35\uc5d0": 5528,
    "\u2581fields": 5529,
    "\u2581key": 5530,
    "\u2581\uc564": 5531,
    "\u2581\ud130\ube48": 5532,
    "\u2581changed": 5533,
    "\u2581round": 5534,
    "\u2581\ud640\ub354": 5535,
    "\u2581\uae30\ud6c4": 5536,
    "\u2581\ubc84\ud130": 5537,
    "\u2581fish": 5538,
    "\u2581ball": 5539,
    "\u2581developing": 5540,
    "\u2581\uae08\uc9c0": 5541,
    "\u2581\uc624\uc5fc": 5542,
    "\u2581calling": 5543,
    "\u2581\uc2e4\ub825": 5544,
    "\u2581\uc774\ub8e8": 5545,
    "\u2581\ub370\ub9ac": 5546,
    "\u2581\uae30\ubd80": 5547,
    "\u2581\uc54a\uc2b5\ub2c8\uae4c": 5548,
    "\ub418\uba70": 5549,
    "\u2581\uc990\uae30\uae30": 5550,
    "\u2581units": 5551,
    "\u2581dis": 5552,
    "\u2581\ucd9c\ud310\uc0ac": 5553,
    "\u2581\uc54c\uc558\uc5b4\uc694": 5554,
    "\u2581\uc654\uc5b4\uc694": 5555,
    "\u2581\uc77d\uae30": 5556,
    "\u2581\uc0ac\uac74": 5557,
    "\u2581\ube44\uc804": 5558,
    "\u2581\uc1fc": 5559,
    "\u2581\uc0ac\ub78c\ub4e4\uc5d0\uac8c": 5560,
    "\u2581\uc624\ud53c\uc2a4\ud154": 5561,
    "\u2581\uc18c\uc720\uc790": 5562,
    "Jae": 5563,
    "\u2581\uc788\ub124\uc694": 5564,
    "\u2581\uc11c\uc6b8\uc5d0": 5565,
    "\u2581\uae30\uad6c": 5566,
    "\u2581\uc124\uacc4\ub41c": 5567,
    "\u2581\ud1a0\uc9c0": 5568,
    "\u2581\uc99d": 5569,
    "\uc8fc\ub144": 5570,
    "\u2581\ub204\ub974": 5571,
    "\u2581\ubcf4\uae30": 5572,
    "\u2581\ud2c0": 5573,
    "\u2581\ub098\ub77c\uc5d0\uc11c": 5574,
    "\u2581\uce69": 5575,
    "\u2581\uae30\uc7ac": 5576,
    "\u2581games": 5577,
    "ization": 5578,
    "\u2581\uacf5\uac04\uc5d0": 5579,
    "\u2581\ud658\uae30": 5580,
    "\u2581\uad8c\ud55c": 5581,
    "\u2581\uacbd\uace0": 5582,
    "\u2581\ucd08\uc810": 5583,
    "\u2581\uace4\ub780": 5584,
    "\u2581\uc815\uc131": 5585,
    "\u2581\uc791\ub3d9\ud558\ub294": 5586,
    "\u2581\uac08\uc544": 5587,
    "\u2581\uac1c\ubc1c\ud558\uc5ec": 5588,
    "\u2581\ucf69": 5589,
    "\u2581\uc774\uac78\ub85c": 5590,
    "ol": 5591,
    "\u2581\uc801\ub2f9": 5592,
    "\u2581\ubc1c\uc0dd\ud560": 5593,
    "\u2581\ubd99\uc774": 5594,
    "\u2581believe": 5595,
    "\u2581\ub418\ub124": 5596,
    "\u2581\uc4f0\uae30": 5597,
    "\uc11c\ube44\uc2a4": 5598,
    "\u2581evening": 5599,
    "\u2581projects": 5600,
    "\u2581\uac1c\ubc1c\ub41c": 5601,
    "\u2581\ubb34\ub300": 5602,
    "\u2581\ud53c\ub85c": 5603,
    "\u2581\uac00\uc871\uc774": 5604,
    "\u2581\ub0b4\ub9ac": 5605,
    "\ub354\ub77c\uad6c\uc694": 5606,
    "seok": 5607,
    "\u2581\uc124": 5608,
    "\u2581\ud558\ub294\uc9c0": 5609,
    "\u2581\uc598\uac00": 5610,
    "\u2581\ub9cc\uc871\ub3c4": 5611,
    "\ub4e4\ub85c": 5612,
    "\u2581\ud074\ub9ad": 5613,
    "\u2581\ud300\uacfc": 5614,
    "\u2581\uc791\uc6a9": 5615,
    "\u2581\uc81c\uc791\ub418\uc5b4": 5616,
    "\u2581\uc591\uc790": 5617,
    "\u2581\uac12": 5618,
    "\u2581\ubcf4\ub4dc": 5619,
    "\u2581\uace1": 5620,
    "\u2581checking": 5621,
    "\u2581\ub2f9\uc77c": 5622,
    "\u2581Me": 5623,
    "\u2581\uac00\ub2a5\ud574": 5624,
    "\u2581\uacf5\uc7a5\uc5d0": 5625,
    "ant": 5626,
    "z": 5627,
    "\u2581\ud558\ub2e4": 5628,
    "\u2581\ubd88\uc548": 5629,
    "\u2581\uc2dc\uc5d0\ub294": 5630,
    "\u2581\ub545": 5631,
    "\u2581\uae08\uc561\uc73c\ub85c": 5632,
    "\uc804\uc790": 5633,
    "\u2581\ucc2c": 5634,
    "\u2581\uc18c\ub9ac\uac00": 5635,
    "\u2581\uacf5\uc9c0": 5636,
    "\uba85\uacfc": 5637,
    "\u2581\ucc98\ub9ac\ud574": 5638,
    "\ub418\uc5c8\ub2e4\ub294": 5639,
    "\u2581\uc2dd\uc73c\ub85c": 5640,
    "mer": 5641,
    "\u2581foods": 5642,
    "\ub9b0\ub2e4": 5643,
    "\u2581\uc2dc\uc791\ud55c": 5644,
    "\u2581\uc81c\uc791\ub418\uc5c8": 5645,
    "\u2581\ubcf8\uc0ac\uc5d0\uc11c": 5646,
    "\u2581\ucd9c\uc2dc\ub418\uc5c8": 5647,
    "\u2581\ucc98": 5648,
    "\uc790\ub9ac": 5649,
    "\u2581guide": 5650,
    "\u2581vi": 5651,
    "\uc5ec\uc11c": 5652,
    "\u2581\uc2e0\ubc1c\uc744": 5653,
    "\u2581art": 5654,
    "\u2581Man": 5655,
    "\ub0b8": 5656,
    "ned": 5657,
    "\u2581\ud770\uc0c9": 5658,
    "\u2581\ucf00": 5659,
    "\u2581\uc544\ub4e4": 5660,
    "\u2581\uacfc\uc815\uc740": 5661,
    "\u2581\uc9c0\uae08\ub3c4": 5662,
    "\u2581\uc0c1\ud488\ub4e4": 5663,
    "\u2581\uac70\uccd0": 5664,
    "\u2581\ub9cc\ub4e0\ub2e4": 5665,
    "\ube0c": 5666,
    "\u2581\ub2f9\uc0ac\uc640": 5667,
    "\ud560\uae4c\uc694": 5668,
    "\u2581\ubd88\uac00": 5669,
    "N": 5670,
    "\ud558\uc168\uc5b4\uc694": 5671,
    "\ubaa9": 5672,
    "\uc778\uc6a9": 5673,
    "\u2581\uc18c\uac1c\ud558": 5674,
    "\u2581\uc88b\uc544\ud560": 5675,
    "\u2581\ub4f1\uc5d0": 5676,
    "\u2581\ud3ed\ubc1c": 5677,
    "\u2581\uc9c8\ubb38\uc5d0": 5678,
    "fully": 5679,
    "\uba85\uc758": 5680,
    "\u2581\uc9c0\ub3c4": 5681,
    "\uac70\uc8e0": 5682,
    "\u2581\uc0ac\uc6a9\ud558\uc2dc\uba74": 5683,
    "\ub54c": 5684,
    "\u2581\ubbff\uc5b4": 5685,
    "\u2581\uac00\ub3d9": 5686,
    "\u2581\uc0b4\ub824": 5687,
    "\uba38": 5688,
    "\u2581\uc6f9\uc0ac\uc774\ud2b8\uc5d0": 5689,
    "\ub9bd": 5690,
    "\u2581\uc804\uc790\ub808\uc778\uc9c0": 5691,
    "\u2581\uc815\ub3c4\ub294": 5692,
    "\u2581\uc5b4\uba38\ub2d8": 5693,
    "\u2581\ud558\uc2dc\uaca0": 5694,
    "\u2581\ubb3c\uc5d0": 5695,
    "\u2581\ucd94\uac00\ud560": 5696,
    "\u2581\ub9cc\uc5d0": 5697,
    "\u2581\uadf8\ub807": 5698,
    "\u2581\ud574\uba85": 5699,
    "ang": 5700,
    "\u25811,": 5701,
    "\u2581\ud658\uacbd\uc5d0": 5702,
    "\u2581pe": 5703,
    "\u2581\ud558\uc168": 5704,
    "\u2581\uac1d\uc2e4\uc5d0": 5705,
    "ah": 5706,
    "\u2581wi": 5707,
    "\u2581personal": 5708,
    "\u2581\uac00\uaca9\ub300": 5709,
    "\uc73c\uc2dc\uba74": 5710,
    "\u2581\uad6d\uac00\uc5d0": 5711,
    "\uaca9": 5712,
    "\u2581\uae30\uac00": 5713,
    "ize": 5714,
    "\u2581\ubd84\uc744": 5715,
    "\ubc18": 5716,
    "\u2581\uc190\ub2d8\uc774": 5717,
    "\u2581\ub098\uac08": 5718,
    "\u2581\uad6c\ub9e4\uc790": 5719,
    "\u2581\uc2dc\uc57c": 5720,
    "\u2581Ma": 5721,
    "\u2581\uc62c\ub77c": 5722,
    "\u2581\uc548\uac10": 5723,
    "\u2581\ud798\uc774": 5724,
    "\ub098\ub9c8": 5725,
    "\u2581\ud574\ubd10": 5726,
    "\u2581\uc774\ud574\ub97c": 5727,
    "\u2581\ubd80\ud130": 5728,
    "\u2581\uc0dd\uccb4": 5729,
    "ul": 5730,
    "\u2581\ucef5": 5731,
    "\u2581\uc2f6\uc5c8": 5732,
    "\u2581\uadf8\uac70\ub97c": 5733,
    "\u2581\uac00\uc815\uc6a9": 5734,
    "\ud3f0": 5735,
    "\u2581\uc0c1\uc758": 5736,
    "ate": 5737,
    "\ud558\uc2e0\ub2e4\uba74": 5738,
    "\uc774\ub780": 5739,
    "\u2581\uc2dc\uc791\ud558": 5740,
    "\uba85\uc73c\ub85c": 5741,
    "\u2581\uc788\uc73c\uc2e0": 5742,
    "\uc2ed": 5743,
    "ter": 5744,
    "\u2581\ub192\uc600": 5745,
    "\ud551": 5746,
    "\uc73c": 5747,
    "\u2581\uac78\ub824": 5748,
    "\uc8fc\uc2dc\uaca0\uc5b4\uc694": 5749,
    "\u2581\uba39\uc5c8": 5750,
    "\uc5fc": 5751,
    "\u2581\uac15\uc758": 5752,
    "\u2581\uac83\ub4e4\uc774": 5753,
    "\ubcf4\ub4dc": 5754,
    "\ud329": 5755,
    "\u2581\uc624\uace0": 5756,
    "\uc871": 5757,
    "\ub418\uae30": 5758,
    "\u2581\uac00\uc2dc": 5759,
    "\uc600\ub2e4": 5760,
    "\u2581\uc81c\uc548\ud574": 5761,
    "\u2581\ubaa8\ub378\uc5d0": 5762,
    "\u2581\ud734\ub300\uc804\ud654": 5763,
    "\u2581\uace0\uac1d\uc13c\ud130": 5764,
    "\u2581\uc785\uc7a5": 5765,
    "\uc73c\uc2e0": 5766,
    "\ub108": 5767,
    "\uc2dc\uc2a4\ud15c": 5768,
    "\u2581Bo": 5769,
    "\u2581\uc124\ube44": 5770,
    "\uc57c\uc8e0": 5771,
    "\u2581\uae30\uac04\uc774": 5772,
    "\u2581\uc6a9\ub3c4\ub85c": 5773,
    "\ud544": 5774,
    "\uc625": 5775,
    "\uc8fc\uc77c": 5776,
    "\uc54c": 5777,
    "\ud2c0": 5778,
    "\u2581\uc548\ub418": 5779,
    "\uc0ac\uc640": 5780,
    "\ub985\ub2c8\ub2e4": 5781,
    "\ub2e8\uacc4": 5782,
    "\ud588\uc73c\ub2c8": 5783,
    "\ud658": 5784,
    "\u2581\ub2eb": 5785,
    "ju": 5786,
    "\ub2f4": 5787,
    "\uac70\uc57c": 5788,
    "\uc2b9": 5789,
    "\ucef5": 5790,
    "\ubab0": 5791,
    "\ub454": 5792,
    "X": 5793,
    "\ucf00\uc5b4": 5794,
    "\ud588\uc9c0\ub9cc": 5795,
    "\uc9c8\ud658": 5796,
    "\uc14b": 5797,
    "\uc911\uc778": 5798,
    "\u2581\ud380\ub4dc": 5799,
    "free": 5800,
    "\uacc4\ud68d": 5801,
    "\uac81\ub2c8\ub2e4": 5802,
    "\uc815\ubcf4": 5803,
    "\uac70\uc5d0\uc694": 5804,
    "\uc7a5\ube44": 5805,
    "\uc2dc\uc124": 5806,
    "\u2581\uc911\uc559": 5807,
    "\ud558\ub2c8": 5808,
    "\uac70\ub77c": 5809,
    "\u2581\uace0\uc0dd": 5810,
    "\u2581pr": 5811,
    "\u2581\uc138\ub300": 5812,
    "\u2581\ub9d0\ud574": 5813,
    "\u2581\ubc15\uc0ac": 5814,
    "\ub3d9\uc2dd": 5815,
    "\u2581\ud56d\uacf5": 5816,
    "\uc2e4\ud55c": 5817,
    "\u2581\ud55c\uc2dd": 5818,
    "\u2581\uc61b\ub0a0": 5819,
    "\u2581\uc9d3": 5820,
    "\u2581\uc6b0\ub9ac\ub3c4": 5821,
    "\ub354\uad70\uc694": 5822,
    "jin": 5823,
    "\u2581\uace0\ub824\ud558": 5824,
    "\u2581des": 5825,
    "\u2581write": 5826,
    "\u2581\uc785\uad6c": 5827,
    "\u2581\uc18c\ud504\ud2b8\uc6e8\uc5b4\uc5d0": 5828,
    "\ub294\uc9c0\uc694": 5829,
    "\u2581\uc5c5\uccb4\uc5d0": 5830,
    "\u2581\uc9c0\uc6d0\ud574": 5831,
    "\u2581\uc815\uc218": 5832,
    "\uc6c0": 5833,
    "\u2581\uc7a1\uc9c0": 5834,
    "\u2581strength": 5835,
    "\u2581\ubca0\uc774\uc2a4": 5836,
    "\uc7a5\uc5d0\uc11c": 5837,
    "\uc774\uc694": 5838,
    "\u2581improve": 5839,
    "\u2581\ubc14\ub97c": 5840,
    "\u2581\uc0dd\uac01\ud558\ub294": 5841,
    "\u2581\ub300\ud45c\ub2d8\uaed8": 5842,
    "\u2581\ubc88\uc5ed": 5843,
    "\u2581pack": 5844,
    "\u2581\uc624\uc2dc\ub294": 5845,
    "\u2581\uc0e4\uc6cc": 5846,
    "\u2581accident": 5847,
    "\u2581human": 5848,
    "\u2581\uc6b0\ub9ac\ub098\ub77c": 5849,
    "\u2581employee": 5850,
    "\u2581letter": 5851,
    "\uc9f8": 5852,
    "\u2581\ucc28\uc9c0": 5853,
    "\ub77c\uc778": 5854,
    "\u2581ver": 5855,
    "\u2581\ub9c8\ucc2c\uac00\uc9c0": 5856,
    "self": 5857,
    "\ube14": 5858,
    "\u2581\ub9d0\uc500\ub4dc\ub838": 5859,
    "\u2581\ub7f0\ub2dd\ub9e8": 5860,
    "\u2581walk": 5861,
    "\u2581pass": 5862,
    "\u2581\ubd88\ud3c9": 5863,
    "\u2581record": 5864,
    "\u2581\uae4c": 5865,
    "\u2581link": 5866,
    "\u2581separate": 5867,
    "\u2581\uacbd\ube44": 5868,
    "\u2581confirm": 5869,
    "\u2581\uc88b\uc558\uc5b4": 5870,
    "\u2581deep": 5871,
    "\uae30\uc5c5": 5872,
    "\u2581recent": 5873,
    "\u2581express": 5874,
    "\u2581careful": 5875,
    "\u2581\uc61b\ub0a0\uc5d0": 5876,
    "\u2581comfort": 5877,
    "\u2581\uae5c\uc9dd": 5878,
    "\u2581match": 5879,
    "\u2581text": 5880,
    "\u2581ex": 5881,
    "\u2581specific": 5882,
    "\u2581defect": 5883,
    "\u2581\uc6b0\ud3b8": 5884,
    "\u2581\uc789\ud06c": 5885,
    "\u2581\uba74\uc5ed": 5886,
    "\u2581innovati": 5887,
    "\u2581\uc2a4\ud0a8": 5888,
    "\u2219": 5889,
    "\u2581double": 5890,
    "\u2581expand": 5891,
    "\u2581mouth": 5892,
    "\u2581weird": 5893,
    "\u2581\ub0b4\ucd94\ub7f4": 5894,
    "\u2581\ub9cc\ub098\ubd59": 5895,
    "\u2581\ud558\uc580": 5896,
    "resistant": 5897,
    "\u2581bottom": 5898,
    "\u2581capacity": 5899,
    "\u2581cooperate": 5900,
    "\u2581mix": 5901,
    "\u2581student": 5902,
    "\u2581\uac00\uc704\ubc14\uc704\ubcf4": 5903,
    "\u2581\uad11\ubc94\uc704": 5904,
    "\u2581\uae30\uc219\uc0ac": 5905,
    "\u2581\ub0ab\ub2e4": 5906,
    "\u2581\ub179\uc0c9": 5907,
    "\u2581\ub2e6\uc544": 5908,
    "\u2581\ub514\uc790\uc774\ub108": 5909,
    "\u2581\ub514\uc800\ud2b8": 5910,
    "\u2581\ub9ac\uc870\ud2b8": 5911,
    "\u2581\ubaa8\ub4c8": 5912,
    "\u2581\ubb54\ub370": 5913,
    "\u2581\ubbf8\ub044\ub7fc": 5914,
    "\u2581\ubbf8\ub904": 5915,
    "\u2581\ubc15\ud14c\ub9ac\uc544": 5916,
    "\u2581\ubc38\ub7f0\uc2a4": 5917,
    "\u2581\ubc38\ube0c": 5918,
    "\u2581\ubd80\uc0ac\uc7a5\ub2d8": 5919,
    "\u2581\ube0c\ub808\uc774\ud06c": 5920,
    "\u2581\ube4c\ub529": 5921,
    "\u2581\uc2dd\uae30\uc138\ucc99\uae30": 5922,
    "\u2581\uc544\ub2d9\ub2c8\uae4c": 5923,
    "\u2581\uc587\uc740": 5924,
    "\u2581\uc5b4\ub5bb\uc2b5\ub2c8\uae4c": 5925,
    "\u2581\uc7ac\uc785\uace0": 5926,
    "\u2581\uc811\ucd09": 5927,
    "\u2581\uc990\uac81": 5928,
    "\u2581\ucca8\ub2e8": 5929,
    "\u2581\ucd09\uac10": 5930,
    "\u2581\ud3ec\ubbac\ub7ec": 5931,
    "\ub81b": 5932,
    "\u2581kitchen": 5933,
    "\u2581throw": 5934,
    "\u2581\ub18d\uc0b0\ubb3c": 5935,
    "\u2581\uc2dc\uac01\ud654": 5936,
    "\u2581\uc778\ud130\ud398\uc774\uc2a4": 5937,
    "\u2581\ucc28\ub77c\ub9ac": 5938,
    "\u2581options": 5939,
    "\u2581\ub178\uc774\uc988": 5940,
    "\u2581else": 5941,
    "\u2581extra": 5942,
    "\u2581gaming": 5943,
    "\u2581chicken": 5944,
    "\u2581\ub54c\ub54c\ub85c": 5945,
    "\u2581\ucc28\ubcc4\ud654": 5946,
    "\u2581\uc81c\uc790\ub9ac\uc5d0": 5947,
    "\u2581foreign": 5948,
    "clock": 5949,
    "\u2581public": 5950,
    "\u2581\ud64d\ucf69": 5951,
    "\u2581wish": 5952,
    "\u2581Everyone": 5953,
    "\u2581hello": 5954,
    "\u2581fix": 5955,
    "\u2581iron": 5956,
    "\u2581\ubca0\uc5b4\ub9c1": 5957,
    "\u2581interior": 5958,
    "\u2581breakfast": 5959,
    "\u2581requirements": 5960,
    "\u2581\uac80\uc740\uc0c9": 5961,
    "\u2581\uc560\uc644": 5962,
    "\u2581\uc774\ud0c8\ub9ac\uc544": 5963,
    "\u2581\ud2b8\ub80c\ub4dc": 5964,
    "\u2581\ud50c\ub7ec\uc2a4": 5965,
    "\u2581\uc554\ud638\ud654\ud3d0": 5966,
    "\u2581\uc758\ub17c": 5967,
    "\u2581property": 5968,
    "\u2581\uc9c0\ubd95": 5969,
    "\u2581China": 5970,
    "\u2581\uc18c\ud504\ud2b8": 5971,
    "\u2581\uae4c\ub2e4\ub85c": 5972,
    "\u2581\ubaa8\ud5d8": 5973,
    "\u2581milk": 5974,
    "\u2581\uac04\ub7b5": 5975,
    "\u2581\ud0c4\uc0dd": 5976,
    "\u2581\uc544\uc6b8\ub7ec": 5977,
    "\u2581further": 5978,
    "\u25811~2": 5979,
    "\u2581moment": 5980,
    "\u2581\uc124\ud0d5": 5981,
    "\u2581ground": 5982,
    "\u2581\uc2a4\ud0c0\uc77c\ub9ac\uc2dc": 5983,
    "\u2581\uc120\uae00\ub77c\uc2a4": 5984,
    "\u2581dishes": 5985,
    "\u2581\uc0c1\ucf8c": 5986,
    "\u2581\ucd94\uc138": 5987,
    "\u2581\uc785\ucc30": 5988,
    "\u2581housing": 5989,
    "\u2581\ud5e4\ub4dc\ud3f0": 5990,
    "\u2581\uc8c4\uc1a1\ud55c\ub370": 5991,
    "\u2581\ud328\ub529": 5992,
    "\u2581stew": 5993,
    "\u2581\uc1a1\ubd80": 5994,
    "\u2581\uc624\ub978\ucabd": 5995,
    "\u2581\ubcf5\uad6c": 5996,
    "\u2581panel": 5997,
    "\u2581\uc6d0\uce59": 5998,
    "\u2581\uc788\uc5c8\uc5b4": 5999,
    "\u2581\ud3ec\uadfc": 6000,
    "\u2581\uc11c\ube59": 6001,
    "\u2581\ub290\ub824": 6002,
    "\u2581spicy": 6003,
    "\u2581\uc7a1\ud600": 6004,
    "\u2581\ub9cc\ub0a8": 6005,
    "\u2581\ubaa8\ub985\ub2c8\ub2e4": 6006,
    "\u2581\uc0c1\ud658": 6007,
    "\u2581\uc790\ub140": 6008,
    "\u2581\ud39c\uc158": 6009,
    "\u2581\uc815\uad50": 6010,
    "\u2581Where": 6011,
    "\u2581\ub2e8\uace8": 6012,
    "\u2581\ucd9c\uc2e0": 6013,
    "\u2581gain": 6014,
    "\u2581installation": 6015,
    "\u2581\uc6d0\uc7ac\ub8cc": 6016,
    "\u2581\ud56d\uacf5\ud3b8": 6017,
    "\u2581\uc784\uc0c1": 6018,
    "\u2581\uc608\ub2a5": 6019,
    "\u2581\uc194\uc9c1\ud558\uac8c": 6020,
    "\u2581properly": 6021,
    "\u2581\uc9c0\uce68": 6022,
    "\u2581successfully": 6023,
    "\u2581\uad6d\ub0b4\uc678": 6024,
    "\u2581issue": 6025,
    "\u2581fire": 6026,
    "\u2581\uba85\ud488": 6027,
    "\u2581\uc2a4\ud0c0\uc77c\ub9c1": 6028,
    "\u2581complaint": 6029,
    "\u2581\uc790\ucf13": 6030,
    "\u2581\ucc44\ud0dd": 6031,
    "\u2581\uc2dd\ubcc4": 6032,
    "\u2581\uc2b9\uc9c4": 6033,
    "\u2581\uc6d4\uc138": 6034,
    "\u2581\uacbd\ub825": 6035,
    "\u2581\uc720\uac10\uc2a4\ub7fd\uac8c": 6036,
    "\u2581\uc7a5\ub824": 6037,
    "\u2581\ubaa8\uacf5": 6038,
    "\u2581\ub108\ud76c": 6039,
    "\u2581\uace0\ub824\ud574": 6040,
    "\u2581\uc9c4\ub3d9": 6041,
    "\u2581headquarters": 6042,
    "\u2581station": 6043,
    "\u2581\uc774\uc6a9\ub8cc": 6044,
    "\u2581\uad74": 6045,
    "\u2581\uc138\ubd80\uc0ac\ud56d": 6046,
    "\u2581\uc120\ubcc4": 6047,
    "taking": 6048,
    "\u2581\uace1\uc120": 6049,
    "\u2581\ub410\ub124\uc694": 6050,
    "\u2581\ub098\uc774\uc2a4": 6051,
    "\u2581\uc77c\uc73c": 6052,
    "\u2581weak": 6053,
    "\u2581recently": 6054,
    "\u2581\ubb3c\uccb4": 6055,
    "\u2581rest": 6056,
    "\u2581\uc9c4\uc9c0\ud558\uac8c": 6057,
    "\u2581durable": 6058,
    "\u2581factor": 6059,
    "\u2581\ub2e4\ud589\ud788": 6060,
    "\u2581\uc778\ubb3c": 6061,
    "\u2581\uc785\uc5b4": 6062,
    "\u2581CD": 6063,
    "\u2581\uacbd\uc8fc": 6064,
    "\u2581\uc0dd\uae38": 6065,
    "\u2581\uace0\ub9d9\uc2b5\ub2c8\ub2e4": 6066,
    "\u2581\ubcf4\uc628\uc131": 6067,
    "\u2581\uae30\ucd08": 6068,
    "\u2581\uac00\ub2a5\ud558\uba70": 6069,
    "\u2581\ub9e4\uce58": 6070,
    "\u2581\ubbff\uc74c": 6071,
    "\u2581\ub3d9\ub124": 6072,
    "\u2581\ubd84\uc0b0": 6073,
    "\u2581\ub4dc\uc138\uc694": 6074,
    "\u2581passed": 6075,
    "\u258115%": 6076,
    "\u2581\ubcf5\ud569": 6077,
    "\u2581\uc608\uc058\uac8c": 6078,
    "\u2581correct": 6079,
    "\u2581\ub5a1\ubcf6\uc774": 6080,
    "\u2581\ud30c\uc6b0\ub354": 6081,
    "\u2581introduction": 6082,
    "\ub2e4\ub9ac": 6083,
    "\u2581pot": 6084,
    "\u2581\uac10\uc5fc": 6085,
    "\uc8fc\uc2e4": 6086,
    "\u2581\ud30c\uc2a4\ud0c0": 6087,
    "\u2581\uc5ed\ub7c9": 6088,
    "\u2581mark": 6089,
    "\u2581prepared": 6090,
    "\u2581\ud1a0\ub860": 6091,
    "\u2581\ucd94\ucd9c\ubb3c": 6092,
    "\u2581\ubaa8\ub358": 6093,
    "\u2581\uce58\ub8cc\uc81c": 6094,
    "\u2581\uc554\ud638": 6095,
    "\u2581package": 6096,
    "\u2581\uc5ec\ub7ec\uac00\uc9c0": 6097,
    "\u2581cap": 6098,
    "\u2581\uc778\ud615": 6099,
    "\u2581\uc2e0\uccb4": 6100,
    "\u2581\uc804\uad6c": 6101,
    "\u2581\uc6c3\uae34": 6102,
    "\u2581\ub098\ud0c0\ub098": 6103,
    "-19": 6104,
    "\u2581\uad6c\ubd84": 6105,
    "\u2581\ud574\uc0c1\ub3c4": 6106,
    "\u2581delayed": 6107,
    "\u2581\ub808\ub4dc": 6108,
    "\u2581\uac19\uc544\uc11c\uc694": 6109,
    "\u2581\uc0ac\ub8cc": 6110,
    "\u2581training": 6111,
    "\u2581\ub5a8\uc5b4\uc838": 6112,
    "km": 6113,
    "\u2581willing": 6114,
    "\u2581increased": 6115,
    "\u2581\ubd88\uace0\uae30": 6116,
    "\u2581\uad11\uc218\uc57c": 6117,
    "\u2581\ubcf8\uccb4": 6118,
    "\u2581prepare": 6119,
    "\u2581\ud55c\ub2ec": 6120,
    "\u2581\uc0c9\uac10": 6121,
    "\u2581Ve": 6122,
    "\u2581\uc801\uc6a9\ub418": 6123,
    "\u2581\uad81\uae08\ud574": 6124,
    "\u2581\uc548\uc815": 6125,
    "\u2581\uc5c6\uc8e0": 6126,
    "\u2581\ub9cc\ub4dc": 6127,
    "\u2581\uad6d": 6128,
    "\u2581opened": 6129,
    "\u2581\uc0dd\uac01\ud558\uba74": 6130,
    "\u2581\uadf8\ub807\uace0": 6131,
    "\u2581\uc8fc\ub825": 6132,
    "\u2581\uad6c\ub9e4\uac00": 6133,
    "\u2581\uae54": 6134,
    "\u2581\uc9c0\ubd88\ud574\uc57c": 6135,
    "\u2581\ud004\ub9ac\ud2f0": 6136,
    "\u2581\ub137": 6137,
    "\u2581board": 6138,
    "\u2581\ud22c\ud45c": 6139,
    "\u2581\uc548\uc815\uc801\uc73c\ub85c": 6140,
    "\u2581\uc55e\uc11c": 6141,
    "\u2581\ubaa8\uc790": 6142,
    "\u2581\uadf9\ud55c": 6143,
    "\u2581chang": 6144,
    "\u2581\uc5f0\ud68c\uc7a5": 6145,
    "\u2581loss": 6146,
    "\u2581\ub9ce\uc740\ub370": 6147,
    "\u2581\uc81c\uacf5\ud558\uc9c0": 6148,
    "\u2581purchased": 6149,
    "\u2581\ubc1b\uc73c\uc2dc\uba74": 6150,
    "\u2581\uac00\ub3c4": 6151,
    "\u2581\ucc45\uc790": 6152,
    "\u2581\uacc4\uc57d\uae08": 6153,
    "id": 6154,
    "\u2581cleaning": 6155,
    "\u2581\uc694\uc778": 6156,
    "\u2581\uc870\ud654": 6157,
    "\u2581\ub9c9\uc544": 6158,
    "\ud558\uc2dc\uc8e0": 6159,
    "\u2581introduced": 6160,
    "\u2581\ubaa8\ub974\uace0": 6161,
    "nt": 6162,
    "\u2581watching": 6163,
    "long": 6164,
    "\u2581\uc9c0\uc5f0\ub418": 6165,
    "\u2581opening": 6166,
    "\u2581\uad6c\uc131\ud488": 6167,
    "\u2581\uc81c\uc8fc\ub3c4": 6168,
    "\u2581Or": 6169,
    "\u2581structure": 6170,
    "\u2581\ud604\ud669": 6171,
    "\u2581\uad8c\ub9ac": 6172,
    "\u2581\ub9db\uc788\ub2e4\uace0": 6173,
    "\u2581\uba38\uc2e0": 6174,
    "\u2581\ucc28\ub840": 6175,
    "\u2581\uc7a0\uae50\ub9cc\uc694": 6176,
    "\ub144\ub300": 6177,
    "\u2581\ub192\uc77c": 6178,
    "\u2581\uc120\ud0dd\ud558\uc5ec": 6179,
    "\u2581\ucc38\uace0\ud574": 6180,
    "\u2581\ub098\uc624\uace0": 6181,
    "\u2581\uccb4\uc778": 6182,
    "\u2581\uc62c\ub9ac\uace0": 6183,
    "\u2581\uc904\uc774\uace0": 6184,
    "\u2581\uc8fc\uc5c8\uc2b5\ub2c8\ub2e4": 6185,
    "\u2581\ub300\ud558\uc5ec": 6186,
    "\u2581\uc544\ub2c8\uc8e0": 6187,
    "\u2581\uc815\uc218\uae30": 6188,
    "\u2581\ubb34\ub9ac": 6189,
    "\u2581\ubcf8\uc778\uc774": 6190,
    "\u2581\ub178\ub3d9": 6191,
    "\u2581\ud131": 6192,
    "\u2581\uac00\ub2a5\ud558\uac8c": 6193,
    "\u2581\ucd9c\uc2dc\ud588\uc2b5\ub2c8\ub2e4": 6194,
    "\u2581\uc7ac\ubbf8\uc788\ub294": 6195,
    "\u2581\uc720\ud6a8": 6196,
    "\uc790\ub4e4\uc774": 6197,
    "\u2581\uc138\uc815": 6198,
    "\u2581\uc7a5\uc18c\uc5d0\uc11c": 6199,
    "\u2581\uac00\ub2a5\ud558\ub2e4": 6200,
    "\u2581\uacbd\ub85c": 6201,
    "\u2581\ud3b8\ud558\uc2e0": 6202,
    "\u2581\ud50c\ub798": 6203,
    "\u2581\ub77c\uc774\ud2b8": 6204,
    "\u2581devices": 6205,
    "stable": 6206,
    "\u2581\uc774\ub8e8\uc5b4\uc838": 6207,
    "\u2581cu": 6208,
    "\u2581\ub118\ub294": 6209,
    "\u2581eating": 6210,
    "\ub358\ub370": 6211,
    "\u2581\uc800\ucabd": 6212,
    "\u2581\uc9c0\uc2dd": 6213,
    "\u2581\uc774\ud589": 6214,
    "\u2581\uc5b4\ub824\uc6c0\uc774": 6215,
    "\u2581\uacfc\uac70\uc5d0": 6216,
    "\u2581\ub9d0\ub77c\uace0": 6217,
    "\u2581\uc774\ud558": 6218,
    "\u2581\ud478": 6219,
    "\uc774\ub7f4": 6220,
    "\u2581\ubc14\uafb8": 6221,
    "\u2581\uad6c\uc6cc": 6222,
    "\u2581\ud540": 6223,
    "\u2581\uace0\uc6a9": 6224,
    "\u2581\ub2e8\uc21c\ud55c": 6225,
    "\u2581\uc0dd\uc0b0\ub7c9": 6226,
    "\u2581\ub9cc\ub4e4\uc5b4\uc9c4": 6227,
    "\u2581\ub0b4\uba74": 6228,
    "\u2581sever": 6229,
    "\ub7c9\uc774": 6230,
    "\u2581\ub410\uc5b4\uc694": 6231,
    "\u2581\uc5c5\uccb4\uc5d0\uc11c": 6232,
    "\uc9dc\ub9ac": 6233,
    "\u2581\uc5bb\uc5b4": 6234,
    "\u2581\uc804\uae4c\uc9c0": 6235,
    "\u2581\uc911\uac04\uc5d0": 6236,
    "\u2581asking": 6237,
    "\u2581\uac70\ud488": 6238,
    "\u2581\uc7a1\uc558": 6239,
    "\u2581\ub3cc\uc544\uc62c": 6240,
    "\u2581\ubaa8\uc544": 6241,
    "\u2581\uc774\ubd88": 6242,
    "\u2581\uad6d\ub0b4\uc5d0\uc11c": 6243,
    "\u2581\ud6a8\uacfc\uc801\uc778": 6244,
    "\u2581\ud55c\ub370": 6245,
    "\u2581\uc218\uba74": 6246,
    "\ub2dd": 6247,
    "\u2581\ucd5c\uc18c\ud55c": 6248,
    "\u2581\ud310\ub9e4\uac00": 6249,
    "\u2581\uc608\uc815\uc778\ub370": 6250,
    "\uc778\uc774": 6251,
    "\ud654\ub97c": 6252,
    "\u2581\uc911\ub7c9": 6253,
    "\u2581Ms": 6254,
    "\u2581\uc18d\ub3c4\ub85c": 6255,
    "\u2581\ubb34\uc5c7\uc778\uac00": 6256,
    "\u2581\uc9c0\uae08\ubd80\ud130": 6257,
    "\u2581\uc544\uc6b0": 6258,
    "\u2581\uc815\ucc45": 6259,
    "\u2581At": 6260,
    "\u2581\uacbd\uae30": 6261,
    "\u2581\ub2e4\uc74c\uc8fc\uc5d0": 6262,
    "\u2581\ud30c\uc77c\ub85c": 6263,
    "\u2581\ubc00\ub3c4": 6264,
    "\u2581\uc801\uadf9\uc801": 6265,
    "\u2581\ucd08\ub300\ud574": 6266,
    "\u2581\ub9d0\ud588\ub2e4": 6267,
    "\u2581\uac1c\ubc1c\uc790": 6268,
    "\u2581\ud589\uc0ac\uc5d0": 6269,
    "\u2581\ub108\uadf8\ub7ec": 6270,
    "\u2581\ub9c8\ub9ac": 6271,
    "\u2581\uacf3\uc785\ub2c8\ub2e4": 6272,
    "\u2581\ub2f4\uc740": 6273,
    "\u2581\ub3c4\ucc29\ud558\ub294": 6274,
    "\u2581\uc88b\uaca0\ub2e4": 6275,
    "\u2581\uc0dd\uae30\uba74": 6276,
    "\u2581\uae30\ub2a5\uc5d0": 6277,
    "\u2581\uad00\ub9ac\ud558\uace0": 6278,
    "\u2581\ubaa8\ub378\uc774": 6279,
    "\u2581\ubcf4\uc168": 6280,
    "\u2581\ud55c\uad6d\uc778\ub4e4": 6281,
    "\ub824\ub294": 6282,
    "\u2581\ub418\uc5b4\uc57c": 6283,
    "\u2581\uc2dc\uae30\uc5d0": 6284,
    "\u2581\uc81c\ud488\uc774\ub77c": 6285,
    "\u2581\ubcc0\ud658": 6286,
    "\u2581\uce74\ud0c8\ub85c\uadf8\uc5d0": 6287,
    "\u2581\uc5f0\ub3d9": 6288,
    "\u2581\uc9d1\uc73c\ub85c": 6289,
    "\uc774\uc820": 6290,
    "\u2581\uc218\uac70": 6291,
    "\u2581\uc0ac\uc57c": 6292,
    "M": 6293,
    "\u2581\uadc0\uc0ac\uc5d0\uac8c": 6294,
    "\u2581\ucc28\uc9c0\ud558": 6295,
    "\u2581\uae4c\uc9c0": 6296,
    "\u2581\ubc1c\uc774": 6297,
    "\u2581\uc0ac\ub791\ud558": 6298,
    "\u2581\uc81c\uc548\uc774": 6299,
    "ver": 6300,
    "\u2581\ubc29\ubc95\uc73c\ub85c": 6301,
    "\u2581\uc798\ub77c": 6302,
    "\u2581\uba39\uc73c": 6303,
    "\u2581\ud3b8\ud55c": 6304,
    "\u2581\ud68c\uc0ac\ub4e4": 6305,
    "\uc6a9\ud560": 6306,
    "\u2581\uc801\uc6a9\ud574": 6307,
    "\u2581\uc2dc\uac04\ub300": 6308,
    "\u2581places": 6309,
    "\u2581\uac15\ub3c4": 6310,
    "\u2581\uc637\uc774": 6311,
    "\u2581\uc2dd\ub2f9\uc774": 6312,
    "\ud558\ub2e4\uac00": 6313,
    "\u2581\uae30\uc77c": 6314,
    "\u2581\ub418\uc5c8\ub2e4": 6315,
    "\u2581\ubc29\uc2dd\uc774": 6316,
    "\u2581\uc2dc\uc2a4\ud15c\uc785\ub2c8\ub2e4": 6317,
    "\ud588\ub294\uc9c0": 6318,
    "\uc774\ub4dc": 6319,
    "\u2581son": 6320,
    "\ub4dc\ub824\ub3c4": 6321,
    "\u2581\uc628\ub2e4": 6322,
    "\u2581\ud558\uc154\uc11c": 6323,
    "\u2581\ud50c\ub77c": 6324,
    "\u2581\uc5bb\ub294": 6325,
    "\u2581\uc11d": 6326,
    "\u2581\uc720\ubc1c": 6327,
    "\u2581\uacb0\uacfc\uc5d0": 6328,
    "\u2581\ubd80\uc5ec": 6329,
    "\u2581\uc0dd\uc0b0\ud560": 6330,
    "\u2581\uc801\ud569\ud560": 6331,
    "\u2581\ub2e8\uc810": 6332,
    "\u2581\uc990\uaca8\ubcf4": 6333,
    "\u2581\ubcf4\uc5ec\ub4dc\ub9ac": 6334,
    "\u2581Je": 6335,
    "\u2581Not": 6336,
    "\u2581\ub300\uc911": 6337,
    "\u2581\uc544\uc774\uac00": 6338,
    "\u2581\uc218\uba85": 6339,
    "\u2581\uc88b\uc544\ud55c\ub2e4": 6340,
    "\ubd84\uaed8\uc11c": 6341,
    "\u2581\ub9e1\uaca8": 6342,
    "\u2581\ube44\uc728": 6343,
    "\ub0b4\ub294": 6344,
    "\uc8fc\uace0": 6345,
    "\u2581\uae30\uc220\uc790": 6346,
    "\u2581works": 6347,
    "\u2581\ubc1b\uc544\ubcf4\uc558": 6348,
    "\u2581\uc548\uc804\uc131": 6349,
    "\ub9ac\ub77c": 6350,
    "\u2581\uac70\uc808": 6351,
    "\u2581\uc8fc\uc154": 6352,
    "\u2581\ucf1c": 6353,
    "\u2581\ub4e4\uc5b4\uc788": 6354,
    "\u2581\uc704\uc0dd": 6355,
    "\u2581\uc54a\uc558\ub2e4": 6356,
    "\u2581\ud3b8\ub9ac\ud558": 6357,
    "\u2581\uc2dc\uc5d0": 6358,
    "\u2581\uc2dc\ud589": 6359,
    "\u2581\ub108\ub3c4": 6360,
    "\u2581\uc778\ud130\ub137\uc5d0": 6361,
    "\u2581\uac74\uc73c\ub85c": 6362,
    "\u2581stand": 6363,
    "\u2581\ub118\uc5b4": 6364,
    "\uc2dc\uaca0\uc5b4\uc694": 6365,
    "man": 6366,
    "\u2581Fe": 6367,
    "\u2581\uc694\uc57d": 6368,
    "\u2581\uc774\uacf3\uc5d0": 6369,
    "\u2581\ud654\uba74\uc5d0": 6370,
    "\u2581handl": 6371,
    "\uba85\uc744": 6372,
    "\ub3c8": 6373,
    "\ud588\ub2e4\ub294": 6374,
    "ried": 6375,
    "\u2581\uae30\uacc4\ub294": 6376,
    "\u2581\ud574\ub4dc\ub9b4": 6377,
    "\uc918\uc57c": 6378,
    "\u2581\uacfc\uc815\uc774": 6379,
    "\u2581\uacb0\ud568\uc774": 6380,
    "\u2581\ub420\uc9c0": 6381,
    "\u2581\ud558\uc154": 6382,
    "ably": 6383,
    "\uc0c1\uc790": 6384,
    "\u2581\uc0ac\ub791\ud574": 6385,
    "\ud574\uc11c\uc694": 6386,
    "\ucd94": 6387,
    "\u2581\uc0b4\uc558": 6388,
    "\u2581\uc804\ubc18\uc801": 6389,
    "\u2581\uc27d": 6390,
    "\u2581\uba85\uc758": 6391,
    "\u2581\uc0dd\uac01\ud55c": 6392,
    "+": 6393,
    "\u2581\ud300\uc6d0": 6394,
    "\u2581\ub9d0\uc500\uc774\uc2e0": 6395,
    "\uc774\uc2e0": 6396,
    "\ubd81": 6397,
    "\ub0c8": 6398,
    "\u2581\ubbf8\uad6d\uc5d0": 6399,
    "\u2581\uc790\uc720": 6400,
    "\ub9ac\uace0": 6401,
    "\ubd84\uc11d": 6402,
    "\u2581\uc870\uc2ec": 6403,
    "\u2581\ud504\ub9b0\ud130": 6404,
    "\uc655": 6405,
    "\u2581sp": 6406,
    "\uce68": 6407,
    "\ubc1b\ub294": 6408,
    "om": 6409,
    "\u2581\ubb38\uc81c\uc778": 6410,
    "\uc2dd\uc73c\ub85c": 6411,
    "\ub9e4": 6412,
    "\u2581ten": 6413,
    "\u2581\uce5c\ud654\uc801": 6414,
    "\ud14c": 6415,
    "\u2581\ub0a8\uc558": 6416,
    "\ub4ef": 6417,
    "\ub054": 6418,
    "5,000": 6419,
    "\u2581\uc608\uc815\uc774\ub77c": 6420,
    "\uc728\uc774": 6421,
    "\uae30\uac04": 6422,
    "\u2581\uc74c\uc2dd\uc5d0": 6423,
    "like": 6424,
    "\uc2ac": 6425,
    "\u2581\ud658\uc790\ub4e4": 6426,
    "\u2581\ubc1b\uc73c\uc2dc\ub294": 6427,
    "\u2581\ub0c9\uac01": 6428,
    "\ub418\uc5c8\ub2e4": 6429,
    "\u2581\uc815\uc0c1\uc801": 6430,
    "\uc555": 6431,
    "\u2581\uae30\uac04\uc5d0": 6432,
    "\uc608": 6433,
    "\u2581\ub180\ub790": 6434,
    "\u2581AA": 6435,
    "come": 6436,
    "\uac78\uc774": 6437,
    "\u2581\uc774\ub798": 6438,
    "\ubc94": 6439,
    "\ud480": 6440,
    "\uc78e": 6441,
    "\uc140": 6442,
    "\ud39c": 6443,
    "ship": 6444,
    "\ubc8c": 6445,
    "\ubc24": 6446,
    "\uc2a4\ud0c0": 6447,
    "\uc637": 6448,
    "put": 6449,
    "face": 6450,
    "\ub458": 6451,
    "\uc0ac\uc774\uc988": 6452,
    "\ud130\uce58": 6453,
    "\ud568\uaed8": 6454,
    "\u2581pu": 6455,
    "\u2581\uc601": 6456,
    "\uc558\uc5b4\uc694": 6457,
    "\uba38\ub9ac": 6458,
    "\ubcf4\uaca0\uc2b5\ub2c8\ub2e4": 6459,
    "\uac1c\ubc1c": 6460,
    "\ub2d8\uc774": 6461,
    "\u2581\uae30\uc6b8": 6462,
    "\u2581\uc608\uc804": 6463,
    "\u2581pl": 6464,
    "\uacc4\uc57d": 6465,
    "\uc218\uac00": 6466,
    "\u2581\ud65c": 6467,
    "\u2581\uc608\uc058": 6468,
    "\ud558\uae38": 6469,
    "\ubc29\uc9c0": 6470,
    "\u2581\ub4dc\ub77c\uc774": 6471,
    "\u2581\uc808\ub2e8": 6472,
    "\u2581\ud655\uc2e4": 6473,
    "\uc2dc\uc7a5": 6474,
    "\u2581\ub354\ud574": 6475,
    "\u2581\ub9c8\ucf00\ud305\ubd80": 6476,
    "\u2581\uba39\uaca0": 6477,
    "\u2581\ub300\ubc15\uc774": 6478,
    "\u2581\uadf9": 6479,
    "ure": 6480,
    "\u2581print": 6481,
    "\u2581\uc138\uae30": 6482,
    "\u2581\uc7a5\uc810": 6483,
    "\u2581350": 6484,
    "\u2581\ubaa9\uc5d0": 6485,
    "\u2581\ubcf4\ub0b4\uae30": 6486,
    "\u2581bu": 6487,
    "\ubd80\uc5d0": 6488,
    "\u2581window": 6489,
    "\u2581cake": 6490,
    "\u2581cafe": 6491,
    "\u2581dryer": 6492,
    "\u2581bill": 6493,
    "\u2581\uacc4\uc2dc\ub294": 6494,
    "\u2581\ub3c4\ucc29\ud588": 6495,
    "\u2581picture": 6496,
    "\u2581region": 6497,
    "\u2581owner": 6498,
    "\u2581standard": 6499,
    "\u2581word": 6500,
    "\u2581\ubc30\ud3ec": 6501,
    "\u2581\ud574\ub4dc\ub9ac": 6502,
    "\ucc28\ub85c": 6503,
    "\u2581\uc2b5": 6504,
    "\u2581member": 6505,
    "\u2581\uc2a4\ud1a0\ub9ac": 6506,
    "\uaddc": 6507,
    "\ub4ec": 6508,
    "\u2581OOO": 6509,
    "\u2581reach": 6510,
    "\u2581\ubb34\uc5c7\ubcf4\ub2e4": 6511,
    "\u2581\ud558\ud558\ud558": 6512,
    "ory": 6513,
    "\u2581receiv": 6514,
    "\u2581\ud63c\ub780": 6515,
    "\u2581\uc758\ub8cc\uae30\uae30": 6516,
    "\u2581\uc544\ud504": 6517,
    "\u2581\uadf8\ub9cc": 6518,
    "\u2581carry": 6519,
    "\u2581cable": 6520,
    "\u2581\ubc18\ub300": 6521,
    "\u2581\uc131\uc0ac": 6522,
    "\u2581\ucd08\uccad": 6523,
    "\uc8fc\uc758": 6524,
    "\u2581\uc0ac\uc7a5\ub2d8\uaed8": 6525,
    "\u2581\ub0b4\ub193": 6526,
    "\u2581agree": 6527,
    "\u2581\uc815\uae30\uc801": 6528,
    "\u2581measure": 6529,
    "\u2581\ubcf8\uaca9": 6530,
    "\u2581recognize": 6531,
    "\u2581\ucd95\uc801": 6532,
    "\u2581sit": 6533,
    "\u2581\uadf8\ub7ac\uc5b4": 6534,
    "\u2581\uc5b4\uc6b8\ub9ac": 6535,
    "\u2581\uc0c1\ud45c": 6536,
    "\u2581near": 6537,
    "\u2581\uba54\ubaa8": 6538,
    "\u2581publish": 6539,
    "\u2581\ubd24\uc5b4": 6540,
    "\ub7ed": 6541,
    "\u2581\ubcf4\ub2f5": 6542,
    "\u2581protect": 6543,
    "\u00b7": 6544,
    "hyo": 6545,
    "proof": 6546,
    "\u2581affect": 6547,
    "\u2581average": 6548,
    "\u2581certain": 6549,
    "\u2581coupon": 6550,
    "\u2581distance": 6551,
    "\u2581distribution": 6552,
    "\u2581drop": 6553,
    "\u2581efficiency": 6554,
    "\u2581error": 6555,
    "\u2581exercis": 6556,
    "\u2581famous": 6557,
    "\u2581kimchi": 6558,
    "\u2581loan": 6559,
    "\u2581nature": 6560,
    "\u2581postpone": 6561,
    "\u2581smartphone": 6562,
[...]
